<unk>	0
<s>	0
</s>	0
▁▁	-0
or	-1
te	-2
▁C	-3
ate	-4
ory	-5
ateg	-6
ategory	-7
▁Category	-8
嗰人	-9
00	-10
到箇	-11
到箇年	-12
江西	-13
出世	-14
19	-15
th	-16
嗰大	-17
嗰大事	-18
200	-19
一隻	-20
▁3	-21
10	-22
時間	-23
px	-24
▁th	-25
習慣	-26
an	-27
風俗	-28
節慶	-29
風俗習慣	-30
on	-31
um	-32
60	-33
出世嗰人	-34
到箇年出世嗰人	-35
in	-36
過身	-37
江西嗰	-38
umb	-39
▁1	-40
20	-41
▁▁▁▁	-42
er	-43
嗰一隻	-44
過身嗰人	-45
到箇年過身嗰人	-46
出嗰大事	-47
▁thumb	-48
▁360	-49
en	-50
12	-51
al	-52
ig	-53
),	-54
南昌	-55
ar	-56
中國	-57
發生	-58
外部	-59
▁(	-60
發生嗰大事	-61
行政	-62
|200	-63
佢嗰	-64
18	-65
ht	-66
es	-67
參考	-68
過世	-69
15	-70
人口	-71
16	-72
佢係	-73
is	-74
規劃	-75
裡頭	-76
ight	-77
行政規劃	-78
▁s	-79
外部鏈	-80
▁《	-81
2,	-82
13	-83
外部鏈接	-84
1,	-85
▁S	-86
」。	-87
ic	-88
right	-89
時間江西嗰	-90
時間江西嗰行政規劃	-91
14	-92
▁分	-93
明朝	-94
at	-95
25	-96
17	-97
嗰時間	-98
贛語	-99
le	-100
11	-101
ou	-102
▁A	-103
注釋	-104
24	-105
》,	-106
as	-107
ch	-108
to	-109
嗰一	-110
▁▁▁▁▁▁▁▁	-111
日本	-112
文化	-113
el	-114
歷史	-115
方言	-116
嗰一隻縣	-117
同得	-118
)(	-119
朝鮮	-120
美國	-121
之間	-122
▁分類	-123
am	-124
別嗰	-125
公元	-126
宋朝	-127
▁-	-128
re	-129
▁d	-130
政府	-131
30	-132
▁P	-133
地鐵	-134
同到	-135
滴子	-136
27	-137
3,	-138
」,	-139
▁十	-140
世界	-141
ro	-142
▁M	-143
it	-144
清朝	-145
us	-146
▁o	-147
國家	-148
▁節慶	-149
▁到箇年出世嗰人	-150
主要	-151
之一	-152
▁the	-153
il	-154
豫章	-155
▁36	-156
係話	-157
江西省	-158
ol	-159
▁p	-160
100	-161
▁出嗰大事	-162
▁到箇年過身嗰人	-163
▁B	-164
▁T	-165
26	-166
二月	-167
ing	-168
節日	-169
and	-170
28	-171
之間嗰	-172
,19	-173
鄉俗	-174
節日鄉俗	-175
et	-176
ter	-177
人民	-178
▁right	-179
▁站	-180
▁m	-181
地鐵嗰	-182
管到	-183
嗰一隻站	-184
線嗰一隻站	-185
倫敦	-186
世紀	-187
▁of	-188
故係	-189
政治	-190
▁19	-191
▁I	-192
。」	-193
地方	-194
ion	-195
ont	-196
)。	-197
29	-198
▁c	-199
博物	-200
嗰第	-201
就係	-202
末後	-203
學家	-204
▁D	-205
ia	-206
un	-207
om	-208
國嗰	-209
ra	-210
22	-211
▁v	-212
位到	-213
50	-214
▁|	-215
▁大	-216
▁G	-217
時代	-218
▁f	-219
人物	-220
▁3607	-221
▁L	-222
23	-223
,10	-224
he	-225
條目	-226
ign	-227
▁H	-228
東京	-229
語言	-230
今下	-231
▁<	-232
年代	-233
▁w	-234
死嗰人	-235
係指	-236
元朝	-237
件事	-238
都係	-239
資料	-240
font	-241
40	-242
年到	-243
▁▁▁	-244
▁南	-245
到箇年死嗰人	-246
宋應	-247
align	-248
▁7	-249
大調	-250
td	-251
▁b	-252
共和	-253
係倫敦	-254
別嗰條目	-255
21	-256
▁l	-257
▁R	-258
,20	-259
可以	-260
top	-261
45	-262
係倫敦地鐵嗰	-263
ai	-264
博物館	-265
大件事	-266
研究	-267
33	-268
城市	-269
▁valign	-270
:「	-271
♀)	-272
外部連	-273
▁200	-274
(♀)	-275
▁W	-276
90	-277
中華	-278
攏共	-279
係隻	-280
今下嗰	-281
十一	-282
112	-283
英文	-284
公里	-285
姓人口	-286
98	-287
▁n	-288
4,	-289
大學	-290
佢俚	-291
社會	-292
198	-293
ac	-294
ie	-295
ur	-296
十年	-297
唐朝	-298
大嗰	-299
東吳	-300
宋應星	-301
000	-302
▁3608	-303
▁參考	-304
▁h	-305
好似	-306
、《	-307
天師	-308
▁別嗰條目	-309
5,	-310
[]	-311
晉朝	-312
箇隻	-313
ad	-314
平方	-315
網站	-316
領袖	-317
..	-318
設立	-319
名嗰	-320
著作	-321
人嗰	-322
共和國	-323
總人口	-324
ed	-325
外部連結	-326
▁六	-327
自然	-328
ut	-329
係一	-330
iv	-331
▁N	-332
吉安	-333
許時間	-334
▁F	-335
.5	-336
字母	-337
年之間嗰	-338
35	-339
隻縣	-340
▁+	-341
▁四	-342
話係	-343
》、《	-344
▁4	-345
係指年到	-346
年之間嗰十年	-347
年代係指年到	-348
年代係指年到年之間嗰十年	-349
="	-350
▁八	-351
領袖人物	-352
九江	-353
id	-354
奉新	-355
)、	-356
36	-357
鄱陽	-358
▁金	-359
京都	-360
第二	-361
貝爾	-362
▁E	-363
開始	-364
,《	-365
出版	-366
嗰同	-367
民國	-368
▁參考資料	-369
》(	-370
諾貝爾	-371
畬族	-372
科學	-373
▁and	-374
▁a	-375
主義	-376
,「	-377
iz	-378
▁J	-379
印度	-380
街道	-381
英語	-382
面積	-383
韓國	-384
37	-385
▁g	-386
一般	-387
七月	-388
羅馬	-389
豫章郡	-390
第一	-391
ot	-392
三月	-393
九月	-394
年嗰	-395
▁3604	-396
贛州	-397
68	-398
os	-399
ang	-400
ent	-401
▁李	-402
也係	-403
來嗰	-404
寺院	-405
話佢	-406
——	-407
單位	-408
ov	-409
▁張	-410
79	-411
,200	-412
▁2	-413
(19	-414
ong	-415
▁in	-416
▁江西	-417
▁新	-418
五月	-419
諾貝爾獎	-420
34	-421
58	-422
ag	-423
名字	-424
建築	-425
英國	-426
平方公里	-427
箇滴子	-428
▁8	-429
地區	-430
委員	-431
▁K	-432
之後	-433
▁36112	-434
49	-435
▁k	-436
利瑪	-437
自簡	-438
thumb	-439
//	-440
化學	-441
贛語嗰	-442
6,	-443
av	-444
元月	-445
利瑪竇	-446
ow	-447
奈良	-448
拉丁	-449
▁宋朝	-450
ak	-451
im	-452
國立	-453
▁六月	-454
ay	-455
歐洲	-456
江南	-457
法國	-458
▁二月	-459
▁十月	-460
▁四月	-461
▁十二月	-462
7,	-463
od	-464
▁t	-465
或者	-466
▁al	-467
▁八月	-468
ng	-469
▁9	-470
時期	-471
相關	-472
▁e	-473
先頭	-474
貨幣	-475
因為	-476
BN	-477
元素	-478
SBN	-479
78	-480
ab	-481
nd	-482
大利	-483
湖南	-484
%。	-485
詩人	-486
199	-487
38	-488
▁5	-489
▁V	-490
▁王	-491
兩隻	-492
ers	-493
十一月	-494
▁外部連結	-495
ul	-496
下頭	-497
39	-498
46	-499
區劃	-500
排得	-501
文學	-502
32	-503
hi	-504
運動	-505
▁20	-506
佔得	-507
思想	-508
公元前	-509
姓總人口	-510
ize	-511
有名嗰	-512
府嗰一隻縣	-513
▁【	-514
撫州	-515
隋朝	-516
31	-517
民族	-518
聲調	-519
行省	-520
非常	-521
est	-522
銀行	-523
▁贛語	-524
姓人口排得	-525
嗰同姓總人口	-526
嗰同姓總人口嗰第	-527
ation	-528
">	-529
48	-530
電影	-531
係日本	-532
嗰寺院	-533
希臘	-534
250	-535
▁南昌	-536
▁3610	-537
70	-538
ue	-539
▁O	-540
▁上	-541
部分	-542
▁10	-543
出版社	-544
ok	-545
▁西	-546
-19	-547
。《	-548
」(	-549
共產	-550
經濟	-551
國際	-552
金屬	-553
▁18	-554
ph	-555
▁"	-556
學院	-557
ine	-558
政治家	-559
」、	-560
住到	-561
家族	-562
水庫	-563
皇帝	-564
藝術	-565
▁明朝	-566
75	-567
ki	-568
叫做	-569
革命	-570
香港	-571
攏共有	-572
▁地	-573
▁陳	-574
中央	-575
原子	-576
街办	-577
。19	-578
2,10	-579
▁size	-580
65	-581
北京	-582
好多	-583
音韻	-584
宜春	-585
斯集	-586
而今	-587
韻母	-588
oh	-589
▁宋	-590
整數	-591
▁歷史	-592
ISBN	-593
係江西嗰	-594
嗰人主要	-595
國立博物館	-596
▁三	-597
▁黃	-598
萬人	-599
"><	-600
="5	-601
="5"><	-602
石器	-603
文學家	-604
相關著作	-605
係中國	-606
64	-607
嗰話	-608
獨立	-609
▁▁▁▁▁▁▁▁▁▁▁▁▁▁▁▁	-610
.4	-611
▁東	-612
通常	-613
ell	-614
ap	-615
佢到	-616
公司	-617
宗教	-618
庫杜	-619
▁to	-620
的斯集	-621
的斯集庫杜	-622
十三	-623
發行	-624
管理	-625
1,10	-626
一徑	-627
今吖	-628
技術	-629
.0	-630
▁太	-631
ill	-632
意大利	-633
▁als	-634
.8	-635
ir	-636
og	-637
▁詞	-638
臨川	-639
輔音	-640
」、「	-641
話佢嗰人主要	-642
代表	-643
學者	-644
東西	-645
漢朝	-646
▁江西省	-647
▁「	-648
影響	-649
音樂	-650
all	-651
art	-652
南昌嗰	-653
ce	-654
佛教	-655
屋裡	-656
年拕	-657
自然數	-658
話係贛語	-659
55	-660
ne	-661
正式	-662
箇下	-663
貴溪	-664
道教	-665
駐地	-666
號出世	-667
▁外部鏈接	-668
十二	-669
歌曲	-670
組成	-671
▁16	-672
42	-673
▁6	-674
作品	-675
ian	-676
8,	-677
▁木	-678
▁青	-679
建立	-680
ain	-681
中國嗰	-682
人民政府	-683
tp	-684
動物	-685
卡底	-686
德國	-687
戰爭	-688
發展	-689
發現	-690
第三	-691
ess	-692
em	-693
安徽	-694
://	-695
▁17	-696
▁Ch	-697
卡底利	-698
型水庫	-699
http	-700
必卡底利	-701
enter	-702
之間嗰自然數	-703
ik	-704
亞洲	-705
使用	-706
150	-707
▁聲調	-708
▁韻母	-709
tr	-710
▁y	-711
▁中	-712
ard	-713
共產黨	-714
▁▁▁▁▁▁	-715
.6	-716
佢位到	-717
話佢嗰人主要住到	-718
62	-719
▁U	-720
▁永	-721
▁鎮	-722
尼亞	-723
笙卓	-724
總統	-725
係一隻	-726
|250	-727
贛語嗰方言	-728
80	-729
92	-730
io	-731
▁劉	-732
地球	-733
湖北	-734
著色	-735
▁de	-736
▁清朝	-737
奈良縣	-738
嗰一隻方言	-739
na	-740
嗰相	-741
廬陵	-742
數學	-743
江州	-744
臺灣	-745
阿拉	-746
500	-747
▁輔音	-748
▁音韻	-749
係一種	-750
朝鮮人	-751
9,	-752
95	-753
▁安	-754
留斯	-755
羅笙	-756
覺得	-757
▁分布	-758
FE	-759
au	-760
符號	-761
萍鄉	-762
ast	-763
▁詞彙	-764
南昌人	-765
畬族村	-766
中華人民	-767
話係贛語嗰一隻方言	-768
ep	-769
一下	-770
中心	-771
哈有	-772
東南	-773
ich	-774
▁ch	-775
委員會	-776
中華民國	-777
行政區劃	-778
97	-779
》。	-780
▁公元	-781
裡頭嗰	-782
下頭管到	-783
44	-784
Ch	-785
▁Y	-786
大姓	-787
表示	-788
認為	-789
The	-790
係美國	-791
思想家	-792
▁古	-793
▁朱	-794
人類	-795
已經	-796
美洲	-797
ton	-798
▁15	-799
1,20	-800
議會	-801
重要	-802
係清朝	-803
清朝時間江西嗰行政規劃	-804
羅斯	-805
300	-806
ung	-807
明朝時間江西嗰行政規劃	-808
包括	-809
十八	-810
太平	-811
官方	-812
所在	-813
接到	-814
接得	-815
特別	-816
聲母	-817
180	-818
ub	-819
ww	-820
上嗰	-821
地理	-822
www	-823
時間嗰	-824
100,	-825
姓人口嗰	-826
拕改	-827
比較	-828
現代	-829
福建	-830
袁州	-831
越南	-832
今吖嗰	-833
政府網站	-834
建昌	-835
ien	-836
our	-837
▁元朝	-838
到江西	-839
本著色	-840
▁宋應星	-841
69	-842
又叫	-843
遺址	-844
係東京	-845
最大嗰	-846
中華人民共和國	-847
):	-848
52	-849
76	-850
上頭	-851
內容	-852
崽朱	-853
形式	-854
得正	-855
跟到	-856
隻人	-857
,18	-858
man	-859
ord	-860
嗰一間	-861
嗰人口	-862
2,20	-863
%,	-864
ct	-865
ev	-866
▁銘	-867
▁高	-868
哈係	-869
將軍	-870
廣東	-871
語族	-872
都有	-873
▁木造	-874
社會科學	-875
江西省人民政府	-876
教育	-877
文字	-878
軍事	-879
京都市	-880
日本嗰寺院	-881
東京國立博物館	-882
▁一	-883
傳統	-884
南康	-885
生物	-886
阿拉伯	-887
的斯集庫杜線	-888
op	-889
▁鄉	-890
但係	-891
擔任	-892
班牙	-893
設計	-894
領導	-895
係南昌	-896
係東京地鐵嗰	-897
53	-898
de	-899
▁萬	-900
▁電	-901
交通	-902
系統	-903
嗰貨幣	-904
中國共產黨	-905
宋朝時間江西嗰行政規劃	-906
ft	-907
二十	-908
作家	-909
大陸	-910
州斯	-911
贛江	-912
饒州	-913
ens	-914
ist	-915
係元朝	-916
號過身	-917
中型水庫	-918
71	-919
之亂	-920
全部	-921
國民	-922
成立	-923
文物	-924
神社	-925
話嗰	-926
係明朝	-927
jx	-928
嗰西	-929
通過	-930
160	-931
江西省人民政府嗰	-932
元朝時間江西嗰行政規劃	-933
56	-934
93	-935
ge	-936
st	-937
▁吳	-938
三隻	-939
不同	-940
到嗰	-941
南昌府	-942
54	-943
oc	-944
子嗰	-945
小說	-946
意思	-947
治所	-948
波利	-949
生活	-950
美術	-951
ame	-952
one	-953
年出世	-954
係今吖嗰	-955
.2	-956
ll	-957
個人	-958
吉水	-959
多嗰	-960
組織	-961
自由	-962
蒙古	-963
都會	-964
非洲	-965
166	-966
奉新人	-967
ther	-968
▁eki	-969
姓人口排得明朝	-970
姓人口排得明朝嗰同姓總人口嗰第	-971
94	-972
if	-973
▁紙	-974
南京	-975
可能	-976
植物	-977
比利	-978
漢語	-979
舞得	-980
起頭	-981
進行	-982
190	-983
Joh	-984
西班牙	-985
江西嗰縣	-986
87	-987
96	-988
ea	-989
基本	-990
新建	-991
時常	-992
會議	-993
機構	-994
為到	-995
鋼琴	-996
首都	-997
▁朝鮮	-998
▁36073	-999
▁36098	-1000
治所係今吖嗰	-1001
51	-1002
sh	-1003
▁白	-1004
位素	-1005
寫得	-1006
成為	-1007
東北	-1008
立像	-1009
ark	-1010
ere	-1011
代天師	-1012
韓國嗰	-1013
石器時代	-1014
▁▁▁▁▁▁▁▁▁▁▁▁	-1015
63	-1016
73	-1017
cn	-1018
▁0	-1019
中間	-1020
什哩	-1021
奏鳴	-1022
所有	-1023
書記	-1024
活動	-1025
聲桓	-1026
電子	-1027
音標	-1028
係世界	-1029
俄羅斯	-1030
嗰一種	-1031
奏鳴曲	-1032
贛方言	-1033
寺係日本	-1034
最高	-1035
氧化	-1036
江鎮	-1037
iro	-1038
ran	-1039
南昌市	-1040
縣駐地	-1041
管到嗰一隻縣	-1042
."	-1043
41	-1044
qu	-1045
ry	-1046
se	-1047
▁u	-1048
▁石	-1049
▁阿	-1050
動詞	-1051
所科	-1052
猫王	-1053
王朱	-1054
係江西	-1055
3,10	-1056
▁36012	-1057
ld	-1058
ob	-1059
ty	-1060
▁德	-1061
▁鄧	-1062
土地	-1063
帝國	-1064
方向	-1065
演員	-1066
物理	-1067
係宋朝	-1068
所科線	-1069
自簡嗰	-1070
43	-1071
ip	-1072
▁天	-1073
▁徐	-1074
▁法	-1075
來自	-1076
泰和	-1077
美絕	-1078
諡號	-1079
ith	-1080
天師府	-1081
波利頓	-1082
拉丁字母	-1083
,2000	-1084
美絕波利頓	-1085
67	-1086
▁佢	-1087
位置	-1088
寫正	-1089
歷代	-1090
開物	-1091
...	-1092
gov	-1093
▁St	-1094
▁晉朝	-1095
京都府	-1096
2000	-1097
88	-1098
eb	-1099
▁i	-1100
▁廣	-1101
▁絹	-1102
參加	-1103
天工	-1104
巡撫	-1105
工業	-1106
布政	-1107
文明	-1108
ick	-1109
ore	-1110
▁Th	-1111
▁唐朝	-1112
嗰地方	-1113
天工開物	-1114
▁宋朝嗰時間	-1115
晉朝時間江西嗰行政規劃	-1116
To	-1117
ec	-1118
▁北	-1119
主席	-1120
嗣漢	-1121
地圖	-1122
廬山	-1123
揸得	-1124
百科	-1125
解放	-1126
起義	-1127
ity	-1128
博物馆	-1129
拿留斯	-1130
貴溪人	-1131
▁000	-1132
▁The	-1133
▁江西嗰	-1134
佔得明朝	-1135
▁宋應星家族	-1136
姓人口排得宋朝	-1137
姓人口排得宋朝嗰同姓總人口嗰第	-1138
.7	-1139
uk	-1140
一個	-1141
佢拕	-1142
修水	-1143
坐像	-1144
普查	-1145
正一	-1146
(15	-1147
▁奈良縣	-1148
▁行政區劃	-1149
佢係許時間	-1150
▁center	-1151
1-	-1152
47	-1153
▁胡	-1154
係到	-1155
十五	-1156
名子	-1157
哲學	-1158
大道	-1159
州嗰	-1160
樟樹	-1161
427	-1162
▁東吳	-1163
鄱陽湖	-1164
.3	-1165
57	-1166
之內	-1167
伊斯	-1168
弦樂	-1169
改名	-1170
第五	-1171
簡稱	-1172
設置	-1173
隻鎮	-1174
▁網站	-1175
美術館	-1176
領導人	-1177
客贛方言	-1178
係江西嗰第	-1179
嗣漢天師府	-1180
郡嗰一隻縣	-1181
中國社會科學	-1182
東吳時間江西嗰行政規劃	-1183
1)	-1184
▁贛	-1185
▁降	-1186
劉綸	-1187
太陽	-1188
奏曲	-1189
得到	-1190
等等	-1191
結構	-1192
聯合	-1193
議員	-1194
鐵路	-1195
隆寺	-1196
(18	-1197
▁14	-1198
劉綸鑫	-1199
2,00	-1200
佢下頭管到	-1201
明朝嗰時間	-1202
中國社會科學出版社	-1203
An	-1204
sp	-1205
▁周	-1206
▁宜	-1207
佢有	-1208
嗰頭	-1209
基督	-1210
太守	-1211
年間	-1212
有人	-1213
生產	-1214
西北	-1215
係晉朝	-1216
▁絹本著色	-1217
縣政府網站	-1218
ib	-1219
係由	-1220
出現	-1221
實第	-1222
山鎮	-1223
所以	-1224
斯特	-1225
民主	-1226
王朝	-1227
轄區	-1228
選舉	-1229
部份	-1230
24、	-1231
▁11	-1232
▁on	-1233
▁太刀	-1234
係道教	-1235
正一派	-1236
2003	-1237
2005	-1238
2007	-1239
比較研究	-1240
▁7500	-1241
427166	-1242
▁嗣漢天師府	-1243
客贛方言比較研究	-1244
▁7500427166	-1245
61	-1246
74	-1247
99	-1248
:0	-1249
ew	-1250
ys	-1251
也納	-1252
價值	-1253
入聲	-1254
山寺	-1255
巴黎	-1256
隻鄉	-1257
▁12	-1258
▁di	-1259
丸之內	-1260
嗰人名	-1261
拕叫做	-1262
笙卓線	-1263
維也納	-1264
運動家	-1265
正一派嗰第	-1266
ud	-1267
▁『	-1268
▁五	-1269
▁武	-1270
▁郵	-1271
保護	-1272
全國	-1273
山鄉	-1274
性嗰	-1275
比亞	-1276
產生	-1277
用嗰	-1278
禮拜	-1279
第四	-1280
維基	-1281
西方	-1282
ind	-1283
▁中國	-1284
係東吳	-1285
2010	-1286
|300	-1287
係道教正一派嗰第	-1288
82	-1289
▁平	-1290
▁水	-1291
▁清	-1292
▁長	-1293
一種	-1294
出土	-1295
定義	-1296
摩斯	-1297
景德	-1298
鉛山	-1299
arl	-1300
▁漢朝	-1301
嗰話法	-1302
羅笙線	-1303
left	-1304
72	-1305
也就	-1306
十四	-1307
南方	-1308
大量	-1309
封為	-1310
年前	-1311
彭澤	-1312
書院	-1313
書館	-1314
理論	-1315
福寺	-1316
西洋	-1317
ant	-1318
ome	-1319
▁for	-1320
必卡底利線	-1321
%1	-1322
)/	-1323
91	-1324
ff	-1325
不過	-1326
來話	-1327
八一	-1328
冕服	-1329
工程	-1330
菩薩	-1331
(16	-1332
ise	-1333
市轄區	-1334
段時間	-1335
酒比利	-1336
2008	-1337
utum	-1338
.1	-1339
89	-1340
ri	-1341
二年	-1342
制度	-1343
密史	-1344
氣體	-1345
空間	-1346
紀念	-1347
臨時	-1348
關係	-1349
電視	-1350
餘干	-1351
ond	-1352
咸摩斯	-1353
江西人	-1354
美國人	-1355
認為係	-1356
aint	-1357
utumn	-1358
咸摩斯密史	-1359
▁發生嗰大事	-1360
eg	-1361
▁信	-1362
三十	-1363
交響	-1364
加利	-1365
南部	-1366
名係	-1367
吥嘍	-1368
嗰最	-1369
寧都	-1370
提琴	-1371
方式	-1372
方面	-1373
縣城	-1374
進賢	-1375
運河	-1376
重奏	-1377
113	-1378
ack	-1379
ary	-1380
ica	-1381
▁地址	-1382
到南昌	-1383
嗰歷史	-1384
大調小	-1385
▁Autumn	-1386
66	-1387
▁/	-1388
、2	-1389
一覽	-1390
其他	-1391
安置	-1392
實際	-1393
岡山	-1394
文庫	-1395
時裝	-1396
本書	-1397
興國	-1398
註腳	-1399
長江	-1400
阿斯	-1401
:10	-1402
▁Un	-1403
嗰國家	-1404
箇時間	-1405
英國嗰	-1406
200,	-1407
總人口嗰	-1408
77	-1409
▁j	-1410
▁副	-1411
▁吉	-1412
▁熊	-1413
元前	-1414
公分	-1415
嗰東	-1416
地嗰	-1417
存在	-1418
廣西	-1419
故事	-1420
柯露	-1421
樂安	-1422
浙江	-1423
為得	-1424
號線	-1425
觀音	-1426
語嗰	-1427
豐縣	-1428
360	-1429
ale	-1430
▁is	-1431
▁郵編	-1432
係話一隻	-1433
▁▁▁▁▁▁▁▁▁▁	-1434
86	-1435
ei	-1436
gh	-1437
▁=	-1438
▁文	-1439
▁龍	-1440
上海	-1441
中共	-1442
做嗰	-1443
全贛	-1444
分做	-1445
南唐	-1446
地獄	-1447
定嗰	-1448
新淦	-1449
發明	-1450
舞曲	-1451
都昌	-1452
陰陽	-1453
ach	-1454
ert	-1455
old	-1456
row	-1457
北柯露	-1458
古羅馬	-1459
拉丁文	-1460
有時間	-1461
德拿留斯	-1462
隻縣之一	-1463
*、	-1464
uc	-1465
上饒	-1466
以前	-1467
住嘚	-1468
南朝	-1469
婺源	-1470
會有	-1471
橋鎮	-1472
用來	-1473
等開	-1474
群島	-1475
衣裳	-1476
青銅	-1477
鷹潭	-1478
-16	-1479
:19	-1480
ina	-1481
▁13	-1482
奉新縣	-1483
布政使	-1484
路嗰一隻縣	-1485
▁36082	-1486
ational	-1487
必卡底利線嗰一隻站	-1488
59	-1489
aj	-1490
▁z	-1491
▁巻	-1492
也有	-1493
公園	-1494
台灣	-1495
如來	-1496
掌管	-1497
日比	-1498
曉得	-1499
朝代	-1500
根據	-1501
洪州	-1502
湖口	-1503
記錄	-1504
農業	-1505
都督	-1506
銀座	-1507
110	-1508
ink	-1509
▁wh	-1510
係唐朝	-1511
全世界	-1512
協奏曲	-1513
國民黨	-1514
太平洋	-1515
日比谷	-1516
791-	-1517
|150	-1518
▁(19	-1519
▁Park	-1520
▁36072	-1521
ah	-1522
me	-1523
▁江	-1524
▁瑞	-1525
下底	-1526
仰上	-1527
保管	-1528
北首	-1529
四隻	-1530
期間	-1531
本堂	-1532
樣嗰	-1533
永修	-1534
波蘭	-1535
流行	-1536
詩歌	-1537
進士	-1538
▁In	-1539
▁南唐	-1540
交響曲	-1541
同位素	-1542
嗰主要	-1543
基督教	-1544
紀元前	-1545
美國嗰	-1546
面積有	-1547
ound	-1548
▁京都府	-1549
嗰一隻州	-1550
唐朝時間江西嗰行政規劃	-1551
2)	-1552
84	-1553
:1	-1554
Ar	-1555
gl	-1556
到佢	-1557
南城	-1558
威廉	-1559
安福	-1560
尋陽	-1561
底下	-1562
標準	-1563
正嗰	-1564
生平	-1565
直屬	-1566
荷蘭	-1567
葡萄	-1568
語系	-1569
豐城	-1570
高安	-1571
麥琨	-1572
ood	-1573
ort	-1574
江南西	-1575
人口普查	-1576
▁category	-1577
()	-1578
su	-1579
▁r	-1580
▁縣	-1581
中文	-1582
主任	-1583
之前	-1584
出來	-1585
創作	-1586
去聲	-1587
口鎮	-1588
嗰係	-1589
弋陽	-1590
族譜	-1591
星子	-1592
法語	-1593
靖安	-1594
高麗	-1595
ten	-1596
▁Ar	-1597
▁紙本	-1598
▁隋朝	-1599
井岡山	-1600
佢俚係	-1601
年過世	-1602
景德鎮	-1603
▁36092	-1604
83	-1605
85	-1606
ee	-1607
ly	-1608
sa	-1609
▁山	-1610
▁馬	-1611
、5	-1612
元音	-1613
十七	-1614
叫佢	-1615
嗰後	-1616
尚書	-1617
年有	-1618
拕劃	-1619
新喻	-1620
方法	-1621
早以	-1622
第六	-1623
臨江	-1624
蓮花	-1625
西南	-1626
郡嗰	-1627
部門	-1628
高級	-1629
eat	-1630
ial	-1631
orn	-1632
出來嗰	-1633
嗰中國	-1634
色斯特	-1635
3,20	-1636
許時間嗰	-1637
ivers	-1638
舊石器時代	-1639
:0791-	-1640
(9	-1641
-2	-1642
81	-1643
ma	-1644
ve	-1645
▁x	-1646
▁崇	-1647
▁羅	-1648
人大	-1649
做起	-1650
先生	-1651
其中	-1652
動作	-1653
器官	-1654
大寺	-1655
太空	-1656
情報	-1657
有一	-1658
永新	-1659
滋賀	-1660
畫家	-1661
,15	-1662
120	-1663
:33	-1664
ear	-1665
end	-1666
ice	-1667
▁電話	-1668
第二次	-1669
....	-1670
0000	-1671
2006	-1672
▁And	-1673
▁公元前	-1674
,101,	-1675
州嗰一隻縣	-1676
色斯特州斯	-1677
美絕波利頓線	-1678
3)	-1679
cl	-1680
la	-1681
ss	-1682
▁傳	-1683
▁小	-1684
▁明	-1685
不得	-1686
兵庫	-1687
咁就	-1688
和歌	-1689
埃及	-1690
大戰	-1691
山镇	-1692
平均	-1693
幾隻	-1694
搾得	-1695
早期	-1696
東漢	-1697
永豐	-1698
河南	-1699
省會	-1700
知識	-1701
範圍	-1702
級市	-1703
統治	-1704
經歷	-1705
蠻多	-1706
送氣	-1707
:11	-1708
ace	-1709
age	-1710
ier	-1711
ius	-1712
▁Sō	-1713
▁區劃	-1714
嗰位置	-1715
湖南嗰	-1716
獨立運動家	-1717
羅笙線嗰一隻站	-1718
Category	-1719
Al	-1720
ka	-1721
▁有	-1722
中嗰	-1723
元年	-1724
創立	-1725
吉茨	-1726
吳城	-1727
唯一	-1728
問題	-1729
國寺	-1730
客家	-1731
屬於	-1732
山縣	-1733
川縣	-1734
德語	-1735
方位	-1736
機場	-1737
田鎮	-1738
等合	-1739
老婆	-1740
軍人	-1741
-15	-1742
170	-1743
ans	-1744
com	-1745
ite	-1746
圖書館	-1747
裡頭話	-1748
县博物馆	-1749
外部連接	-1750
,102,	-1751
,103,	-1752
▁Saint	-1753
,(	-1754
Sh	-1755
aw	-1756
▁人	-1757
▁到	-1758
▁司	-1759
▁唐	-1760
▁海	-1761
全球	-1762
南安	-1763
大多	-1764
大概	-1765
工作	-1766
形成	-1767
數字	-1768
最佳	-1769
歌手	-1770
溪鄉	-1771
第七	-1772
舊址	-1773
質量	-1774
郡治	-1775
面嗰	-1776
風格	-1777
-14	-1778
:[]	-1779
ann	-1780
ook	-1781
▁Sh	-1782
▁吉安	-1783
▁日本	-1784
▁過世	-1785
滋賀縣	-1786
箇本書	-1787
佢嗰地方	-1788
市博物館	-1789
,201,	-1790
▁with	-1791
......	-1792
▁36078	-1793
▁36102	-1794
南昌府奉新縣	-1795
,2	-1796
05	-1797
1/	-1798
4)	-1799
7)	-1800
ui	-1801
ال	-1802
半島	-1803
古代	-1804
另外	-1805
大洋	-1806
奧婁	-1807
委會	-1808
德安	-1809
放射	-1810
數據	-1811
旅遊	-1812
早已	-1813
樂平	-1814
溪鎮	-1815
色情	-1816
西亞	-1817
西漢	-1818
206	-1819
ano	-1820
ino	-1821
ish	-1822
oun	-1823
▁出世	-1824
一徑到	-1825
堂安置	-1826
奧婁斯	-1827
▁you	-1828
▁紀元前	-1829
、24、	-1830
co	-1831
lo	-1832
▁'	-1833
▁昌	-1834
▁短	-1835
一生	-1836
不係	-1837
世系	-1838
也拕	-1839
京區	-1840
佢爺	-1841
列表	-1842
前後	-1843
嗰中	-1844
嗰首	-1845
大阪	-1846
宗嗰	-1847
尋到	-1848
府嗰	-1849
擁有	-1850
改做	-1851
斯坦	-1852
標記	-1853
物質	-1854
美利	-1855
自治	-1856
藥師	-1857
贛地	-1858
郡王	-1859
都冇	-1860
都潘	-1861
126	-1862
400	-1863
ass	-1864
ath	-1865
ive	-1866
org	-1867
rom	-1868
und	-1869
ure	-1870
▁Pr	-1871
伊斯蘭	-1872
嗰名字	-1873
嗰意思	-1874
法國人	-1875
Johr	-1876
iang	-1877
orld	-1878
都潘州斯	-1879
,104,	-1880
,202,	-1881
江西總人口嗰	-1882
笙卓線嗰一隻站	-1883
隋朝時間江西嗰行政規劃	-1884
係倫敦地鐵嗰笙卓線嗰一隻站	-1885
!"	-1886
.9	-1887
:6	-1888
St	-1889
▁國	-1890
▁華	-1891
▁銅	-1892
、3	-1893
介紹	-1894
任何	-1895
係佢	-1896
利都	-1897
南北	-1898
南首	-1899
嗰地	-1900
大師	-1901
天下	-1902
天主	-1903
就有	-1904
山乡	-1905
師範	-1906
憲法	-1907
文獻	-1908
新聞	-1909
日頭	-1910
最大	-1911
江蘇	-1912
統計	-1913
考古	-1914
色嗰	-1915
語支	-1916
軍區	-1917
are	-1918
ave	-1919
ins	-1920
ley	-1921
利都斯	-1922
原子序	-1923
歷史上	-1924
land	-1925
地鐵嗰一	-1926
所利都斯	-1927
大調小提琴	-1928
center	-1929
6)	-1930
:2	-1931
:3	-1932
:9	-1933
▁q	-1934
▁卡	-1935
䋎斯	-1936
之戰	-1937
今日	-1938
以後	-1939
元首	-1940
八月	-1941
公路	-1942
分佈	-1943
反應	-1944
同嘚	-1945
大小	-1946
奎那	-1947
指揮	-1948
早嗰	-1949
春秋	-1950
有名	-1951
系列	-1952
聯邦	-1953
菲律	-1954
行星	-1955
負責	-1956
貴族	-1957
部長	-1958
陳氏	-1959
隻村	-1960
領土	-1961
amb	-1962
ern	-1963
ham	-1964
ieu	-1965
佢俚嗰	-1966
同時間	-1967
實第線	-1968
年過身	-1969
設計師	-1970
起來嗰	-1971
都會區	-1972
韓國人	-1973
共和國嗰	-1974
,105,	-1975
江西嗰歷史	-1976
▁36010	-1977
▁360424	-1978
佢係許時間有名嗰	-1979
係倫敦地鐵嗰羅笙線嗰一隻站	-1980
pl	-1981
▁东	-1982
▁二	-1983
▁宗	-1984
▁巴	-1985
▁彭	-1986
▁楊	-1987
▁無	-1988
▁黄	-1989
一樣	-1990
也叫	-1991
作者	-1992
佢就	-1993
係最	-1994
係用	-1995
加拉	-1996
嗰三	-1997
嗰名	-1998
國王	-1999
壯族	-2000
就會	-2001
左右	-2002
得仁	-2003
性戀	-2004
性質	-2005
愛爾	-2006
成功	-2007
授予	-2008
敎育	-2009
會昌	-2010
武器	-2011
殖民	-2012
漢字	-2013
真言	-2014
細伢	-2015
經過	-2016
表現	-2017
这首	-2018
重點	-2019
陽平	-2020
韋庫	-2021
213	-2022
cha	-2023
ies	-2024
▁[]	-2025
▁as	-2026
▁be	-2027
▁st	-2028
▁九江	-2029
佢就係	-2030
個人蔵	-2031
先頭嗰	-2032
兵庫縣	-2033
愛爾蘭	-2034
拕改做	-2035
敎育家	-2036
有滴子	-2037
組成嗰	-2038
菲律賓	-2039
1988	-2040
,200,	-2041
▁3609	-2042
▁36100	-2043
江西省人民政府嗰直屬	-2044
06	-2045
8)	-2046
:4	-2047
:5	-2048
:7	-2049
:8	-2050
ug	-2051
▁元	-2052
▁方	-2053
▁百	-2054
。「	-2055
三年	-2056
事務	-2057
作興	-2058
北方	-2059
十九	-2060
品牌	-2061
墨西	-2062
姓氏	-2063
學校	-2064
安娜	-2065
完成	-2066
寫嗰	-2067
市鎮	-2068
廣州	-2069
廣片	-2070
彌陀	-2071
拖里	-2072
排名	-2073
更假	-2074
有限	-2075
東晉	-2076
歐陽	-2077
浮梁	-2078
源自	-2079
穩定	-2080
箇係	-2081
紙幣	-2082
萬年	-2083
蘇聯	-2084
話到	-2085
韻尾	-2086
頭隻	-2087
-18	-2088
ram	-2089
rit	-2090
▁ng	-2091
▁金銅	-2092
》,《	-2093
出名嗰	-2094
到公元	-2095
十三府	-2096
四重奏	-2097
墨西哥	-2098
大西洋	-2099
希臘語	-2100
拖里阿	-2101
撫廣片	-2102
法國嗰	-2103
2004	-2104
nail	-2105
北柯露線	-2106
,100,	-2107
韋庫拖里阿	-2108
▁36032	-2109
南昌府奉新縣人	-2110
iversity	-2111
佔得江西總人口嗰	-2112
的斯集庫杜線嗰一隻站	-2113
Cl	-2114
”,	-2115
▁聖	-2116
▁鐘	-2117
▁陶	-2118
係搦	-2119
先前	-2120
出名	-2121
化合	-2122
十六	-2123
博士	-2124
四大	-2125
多隻	-2126
天皇	-2127
府係	-2128
按察	-2129
文章	-2130
日報	-2131
波兰	-2132
相當	-2133
簡介	-2134
統一	-2135
總理	-2136
藩王	-2137
辦公	-2138
韻文	-2139
領域	-2140
,),	-2141
,17	-2142
:12	-2143
Mar	-2144
ide	-2145
ism	-2146
led	-2147
let	-2148
ver	-2149
帝國嗰	-2150
次會議	-2151
葡萄牙	-2152
ione	-2153
ment	-2154
丸之內線	-2155
奎那留斯	-2156
宋應星嗰	-2157
酒比利線	-2158
,203,	-2159
▁pick	-2160
弦樂四重奏	-2161
-9	-2162
5)	-2163
Ph	-2164
iu	-2165
ta	-2166
ya	-2167
yn	-2168
▁、	-2169
一月	-2170
上聲	-2171
中国	-2172
南道	-2173
嗰叫	-2174
嘆調	-2175
四川	-2176
城鎮	-2177
埠鎮	-2178
塔第	-2179
大帝	-2180
天王	-2181
形容	-2182
數量	-2183
歡喜	-2184
每隻	-2185
流域	-2186
用到	-2187
由於	-2188
網絡	-2189
總督	-2190
計算	-2191
貢院	-2192
遊戲	-2193
還有	-2194
都市	-2195
釋迦	-2196
金山	-2197
除吥	-2198
陰平	-2199
(14	-2200
-10	-2201
Nav	-2202
ela	-2203
iet	-2204
red	-2205
▁he	-2206
▁me	-2207
▁宜春	-2208
。」《	-2209
人口嗰	-2210
加利福	-2211
可以係	-2212
大部分	-2213
拕分做	-2214
行政區	-2215
解放軍	-2216
詠嘆調	-2217
2001	-2218
John	-2219
ames	-2220
eter	-2221
|100	-2222
下底管到	-2223
歷代人物	-2224
維基百科	-2225
▁▁▁▁▁	-2226
▁36042	-2227
▁thumbnail	-2228
9)	-2229
्य	-2230
▁!	-2231
▁同	-2232
▁梅	-2233
▁火	-2234
▁雷	-2235
不能	-2236
代嗰	-2237
位嘚	-2238
係有	-2239
入嗰	-2240
全書	-2241
出身	-2242
分宜	-2243
利亞	-2244
創辦	-2245
勳章	-2246
另一	-2247
唱片	-2248
學生	-2249
安成	-2250
就叫	-2251
期嗰	-2252
東鄉	-2253
溪乡	-2254
照磨	-2255
牌坊	-2256
直接	-2257
第年	-2258
自家	-2259
舉行	-2260
萬萬	-2261
軌道	-2262
過程	-2263
金剛	-2264
風琴	-2265
首嗰	-2266
(),	-2267
589	-2268
raz	-2269
ris	-2270
▁21	-2271
▁An	-2272
▁七月	-2273
佢係宋	-2274
古時間	-2275
合情報	-2276
孟加拉	-2277
2009	-2278
世界大戰	-2279
佢嗰人口	-2280
元首行省	-2281
到江西設立	-2282
加利福尼亞	-2283
▁36090	-2284
韓國歷代人物	-2285
係倫敦地鐵嗰必卡底利線嗰一隻站	-2286
(7	-2287
1.	-2288
ho	-2289
up	-2290
्र	-2291
▁&	-2292
▁後	-2293
一起	-2294
上係	-2295
事件	-2296
到哩	-2297
協會	-2298
同時	-2299
君主	-2300
多數	-2301
學嗰	-2302
廣泛	-2303
東山	-2304
樣式	-2305
歩格	-2306
歸到	-2307
瑞金	-2308
產品	-2309
知縣	-2310
紅軍	-2311
結果	-2312
舞蹈	-2313
行為	-2314
記載	-2315
諮議	-2316
讀音	-2317
資源	-2318
起來	-2319
近代	-2320
通片	-2321
都拕	-2322
開發	-2323
音節	-2324
頭嗰	-2325
,16	-2326
123	-2327
air	-2328
ake	-2329
low	-2330
ous	-2331
—19	-2332
▁25	-2333
▁it	-2334
▁佢嗰	-2335
係隋朝	-2336
十二月	-2337
同性戀	-2338
屆人大	-2339
羅馬字	-2340
設置嗰	-2341
重要嗰	-2342
1989	-2343
tern	-2344
▁Mar	-2345
▁col	-2346
大調鋼琴	-2347
年嗰時間	-2348
政治委員	-2349
,204,	-2350
II	-2351
In	-2352
ci	-2353
ts	-2354
yl	-2355
▁原	-2356
▁土	-2357
▁林	-2358
以上	-2359
以來	-2360
做為	-2361
加拿	-2362
包到	-2363
十月	-2364
喜劇	-2365
地下	-2366
女性	-2367
峽江	-2368
年後	-2369
廣信	-2370
建設	-2371
性理	-2372
我俚	-2373
朋友	-2374
波斯	-2375
淵明	-2376
溪镇	-2377
玉山	-2378
盤子	-2379
紐約	-2380
維亞	-2381
縣嗰	-2382
翻譯	-2383
茶片	-2384
萬安	-2385
謂之	-2386
鄉試	-2387
銅鼓	-2388
陰去	-2389
鳳凰	-2390
130	-2391
ict	-2392
iss	-2393
ubl	-2394
▁//	-2395
▁an	-2396
▁li	-2397
▁re	-2398
▁se	-2399
▁三月	-2400
▁泰和	-2401
先頭係	-2402
嗰一類	-2403
宋應昇	-2404
法隆寺	-2405
省會係	-2406
管風琴	-2407
諮議局	-2408
1999	-2409
orth	-2410
▁(17	-2411
▁You	-2412
▁十一月	-2413
▁紙本墨	-2414
土地大小	-2415
大嗰城市	-2416
好有名嗰	-2417
江西行省	-2418
▁行政規劃	-2419
南昌嗰建築	-2420
嗰貨幣價值	-2421
07	-2422
Th	-2423
cy	-2424
|2	-2425
|《	-2426
”。	-2427
▁É	-2428
▁–	-2429
▁家	-2430
▁漢	-2431
▁許	-2432
▁龙	-2433
」;	-2434
』(	-2435
元票	-2436
共有	-2437
冇有	-2438
利斯	-2439
刺史	-2440
北宋	-2441
北鄉	-2442
南極	-2443
南豐	-2444
嗰門	-2445
學堂	-2446
學術	-2447
小組	-2448
小調	-2449
成員	-2450
控制	-2451
改叫	-2452
政權	-2453
教授	-2454
數嗰	-2455
普通	-2456
最多	-2457
會拕	-2458
東湖	-2459
格蘭	-2460
王國	-2461
現象	-2462
監察	-2463
盤古	-2464
直隸	-2465
省長	-2466
箇裡	-2467
記念	-2468
調查	-2469
運輸	-2470
酒店	-2471
關於	-2472
雩都	-2473
飲食	-2474
240	-2475
eed	-2476
iah	-2477
mer	-2478
pxC	-2479
▁23	-2480
▁九月	-2481
▁五月	-2482
▁撫州	-2483
佢係由	-2484
係佢嗰	-2485
南美洲	-2486
尋陽郡	-2487
希臘文	-2488
月改名	-2489
發行嗰	-2490
管到嗰	-2491
興福寺	-2492
舊金山	-2493
),18	-2494
),19	-2495
)200	-2496
1000	-2497
|180	-2498
▁Gre	-2499
▁大件事	-2500
,106,	-2501
▁ISBN	-2502
▁紙本著色	-2503
佢嗰人口有	-2504
話係贛語嗰	-2505
佢嗰地方話係贛語嗰	-2506
0.	-2507
kh	-2508
ua	-2509
ən	-2510
▁何	-2511
▁搦	-2512
▁郷	-2513
三國	-2514
不可	-2515
冇幾	-2516
分別	-2517
分類	-2518
北部	-2519
古典	-2520
嗰主	-2521
嗰崽	-2522
城門	-2523
基礎	-2524
太子	-2525
常見	-2526
情況	-2527
拼音	-2528
改革	-2529
有關	-2530
李氏	-2531
江镇	-2532
法律	-2533
波羅	-2534
滅亡	-2535
爆發	-2536
瑞州	-2537
田鄉	-2538
田镇	-2539
相對	-2540
石城	-2541
祠堂	-2542
萬元	-2543
計劃	-2544
話法	-2545
諺文	-2546
變成	-2547
贛粵	-2548
雅溪	-2549
210	-2550
280	-2551
Mon	-2552
ana	-2553
ane	-2554
aul	-2555
eng	-2556
ike	-2557
ild	-2558
rad	-2559
×10	-2560
▁Po	-2561
▁Re	-2562
▁at	-2563
▁by	-2564
▁da	-2565
▁ph	-2566
▁ال	-2567
▁上饒	-2568
▁臨川	-2569
」。《	-2570
世紀嗰	-2571
十八縣	-2572
卡䋎斯	-2573
哲學家	-2574
奈良市	-2575
安時代	-2576
文化嗰	-2577
特別區	-2578
英國人	-2579
語言學	-2580
諡號文	-2581
護國寺	-2582
豫章十	-2583
Best	-2584
|112	-2585
▁11、	-2586
▁Égl	-2587
▁詠嘆調	-2588
伊斯蘭教	-2589
共產主義	-2590
市嗰一間	-2591
有限公司	-2592
,205,	-2593
Naver	-2594
▁外部連接	-2595
嗰一隻國家	-2596
佢位到今下嗰	-2597
▁Église	-2598
係倫敦地鐵嗰所科線	-2599
-4	-2600
-5	-2601
01	-2602
04	-2603
eh	-2604
uo	-2605
▁,	-2606
▁哥	-2607
▁寧	-2608
▁日	-2609
▁汪	-2610
▁淮	-2611
▁肖	-2612
▁鄭	-2613
▁陽	-2614
三角	-2615
上最	-2616
中部	-2617
之外	-2618
人家	-2619
企業	-2620
但佢	-2621
佢同	-2622
傳說	-2623
分支	-2624
名物	-2625
喫嗰	-2626
嗰生	-2627
團近	-2628
境內	-2629
大會	-2630
奢侈	-2631
安義	-2632
山脈	-2633
年箇	-2634
幾何	-2635
张诺	-2636
擦音	-2637
改為	-2638
教王	-2639
族鄉	-2640
日爾	-2641
明代	-2642
概念	-2643
模特	-2644
武寧	-2645
江乡	-2646
法蘭	-2647
海峽	-2648
瑞典	-2649
環境	-2650
甚至	-2651
盛頓	-2652
科舉	-2653
第八	-2654
等級	-2655
職務	-2656
莽嗰	-2657
表達	-2658
貿易	-2659
跟得	-2660
醍醐	-2661
金融	-2662
電腦	-2663
首詩	-2664
黨嗰	-2665
(13	-2666
ior	-2667
ohn	-2668
ork	-2669
ose	-2670
ove	-2671
▁別嗰	-2672
▁最佳	-2673
。」"	-2674
分之一	-2675
化合物	-2676
嗰一款	-2677
拕劃到	-2678
拕改為	-2679
末後拕	-2680
步舞曲	-2681
民族鄉	-2682
物理學	-2683
研究所	-2684
裡頭排	-2685
贛州市	-2686
1982	-2687
1985	-2688
iver	-2689
raph	-2690
span	-2691
一段時間	-2692
中國大陸	-2693
保護單位	-2694
嗰同位素	-2695
建起來嗰	-2696
町嗰一間	-2697
10000	-2698
:3300	-2699
土地大小有	-2700
▁明朝嗰時間	-2701
京都國立博物館	-2702
大調小提琴奏鳴曲	-2703
▁University	-2704
漢朝時間江西嗰行政規劃	-2705
-6	-2706
Ge	-2707
oy	-2708
pr	-2709
xt	-2710
▁Q	-2711
▁Z	-2712
▁七	-2713
▁洪	-2714
作用	-2715
例如	-2716
信州	-2717
先後	-2718
加上	-2719
南宋	-2720
口镇	-2721
史記	-2722
合併	-2723
哈拉	-2724
喫價	-2725
嗰原	-2726
嘚嗰	-2727
坊鎮	-2728
塘鎮	-2729
大約	-2730
好幾	-2731
娛樂	-2732
安全	-2733
希伯	-2734
本殿	-2735
材料	-2736
殘巻	-2737
母斯	-2738
毛澤	-2739
猶太	-2740
田乡	-2741
病毒	-2742
確定	-2743
空氣	-2744
華經	-2745
萬載	-2746
規模	-2747
資本	-2748
起先	-2749
超過	-2750
遷到	-2751
長度	-2752
黎川	-2753
-),	-2754
140	-2755
800	-2756
aja	-2757
ash	-2758
ean	-2759
enn	-2760
lan	-2761
per	-2762
roc	-2763
the	-2764
▁22	-2765
▁Me	-2766
▁my	-2767
▁no	-2768
▁佢係	-2769
▁地下	-2770
▁武寧	-2771
▁生平	-2772
▁短刀	-2773
、13	-2774
一隻姓	-2775
嗰一部	-2776
张诺连	-2777
故係佢	-2778
日本嗰	-2779
時期嗰	-2780
有好多	-2781
東西線	-2782
毛澤東	-2783
真言宗	-2784
總面積	-2785
自治區	-2786
藩王系	-2787
这首歌	-2788
銀座線	-2789
,000	-2790
1983	-2791
aste	-2792
eats	-2793
fraz	-2794
olog	-2795
outh	-2796
》,19	-2797
化學元素	-2798
意大利嗰	-2799
臨時議會	-2800
豫章十景	-2801
▁Hill	-2802
▁that	-2803
▁紙本墨畫	-2804
教王護國寺	-2805
加利福尼亞州	-2806
文物保護單位	-2807
frazione	-2808
到江西設立豫章郡	-2809
);	-2810
-3	-2811
:)	-2812
La	-2813
ye	-2814
̍t	-2815
▁X	-2816
▁前	-2817
▁女	-2818
▁孫	-2819
▁市	-2820
▁建	-2821
▁攷	-2822
▁沙	-2823
▁河	-2824
▁箇	-2825
一百	-2826
上高	-2827
中原	-2828
人名	-2829
侍郎	-2830
內文	-2831
各地	-2832
商業	-2833
嗰交	-2834
嗰形	-2835
嚴經	-2836
四年	-2837
埠镇	-2838
夫人	-2839
就拕	-2840
尼閣	-2841
層石	-2842
山東	-2843
崇禎	-2844
慧遠	-2845
扁頭	-2846
挪威	-2847
搬到	-2848
李珥	-2849
根透	-2850
條件	-2851
樂器	-2852
樣子	-2853
正月	-2854
民居	-2855
民間	-2856
清江	-2857
瀏片	-2858
男子	-2859
畅销	-2860
結束	-2861
緬甸	-2862
耶穌	-2863
般若	-2864
藤原	-2865
表演	-2866
詩節	-2867
贛省	-2868
遂川	-2869
都尉	-2870
重塔	-2871
重量	-2872
鎌倉	-2873
集團	-2874
電話	-2875
首府	-2876
,14	-2877
-12	-2878
115	-2879
117	-2880
600	-2881
ase	-2882
ays	-2883
ese	-2884
rid	-2885
son	-2886
ust	-2887
▁Is	-2888
▁la	-2889
▁we	-2890
▁元月	-2891
▁南康	-2892
▁新喻	-2893
▁興國	-2894
▁鄱陽	-2895
係歐洲	-2896
先前嗰	-2897
嗰字母	-2898
委書記	-2899
扁頭風	-2900
放射性	-2901
朝鮮嗰	-2902
根透斯	-2903
江西通	-2904
波兰语	-2905
篇小說	-2906
聯合國	-2907
郡治係	-2908
金尼閣	-2909
3,00	-2910
360÷	-2911
ence	-2912
ever	-2913
▁100	-2914
▁sty	-2915
▁奧婁斯	-2916
官方網站	-2917
性理學者	-2918
日比谷線	-2919
百科全書	-2920
豫章郡嗰	-2921
erman	-2922
▁from	-2923
▁Press	-2924
係到拉丁字母	-2925
▁360428	-2926
▁360730	-2927
第二次世界大戰	-2928
丸之內線嗰一隻站	-2929
係到拉丁字母裡頭排	-2930
美絕波利頓線嗰一隻站	-2931
▁漢朝到江西設立豫章郡	-2932
係東京地鐵嗰丸之內線嗰一隻站	-2933
(,	-2934
-0	-2935
-7	-2936
4.	-2937
Un	-2938
ru	-2939
▁丁	-2940
▁不	-2941
▁名	-2942
▁塞	-2943
▁左	-2944
▁程	-2945
▁章	-2946
一日	-2947
一級	-2948
上猶	-2949
中子	-2950
中山	-2951
五代	-2952
五隻	-2953
以為	-2954
係種	-2955
冰島	-2956
冰洋	-2957
出嗰	-2958
分析	-2959
利用	-2960
原本	-2961
合成	-2962
嗰女	-2963
國內	-2964
墨蹟	-2965
大使	-2966
大社	-2967
天子	-2968
娘係	-2969
宇宙	-2970
定南	-2971
宜豐	-2972
宜黃	-2973
宣佈	-2974
家人	-2975
崇仁	-2976
平原	-2977
年被	-2978
建正	-2979
後頭	-2980
得嗰	-2981
描述	-2982
斯塔	-2983
早先	-2984
月光	-2985
東亞	-2986
桥镇	-2987
法文	-2988
泰國	-2989
湖鎮	-2990
潯陽	-2991
特徵	-2992
狀元	-2993
珍珠	-2994
珠江	-2995
白話	-2996
細嗰	-2997
而不	-2998
舉人	-2999
行詩	-3000
許多	-3001
讀書	-3002
變化	-3003
週期	-3004
都片	-3005
鐵器	-3006
長短	-3007
願寺	-3008
風景	-3009
首爾	-3010
조선	-3011
ani	-3012
cel	-3013
for	-3014
itt	-3015
lex	-3016
ott	-3017
pxP	-3018
pxS	-3019
uan	-3020
▁1、	-3021
▁29	-3022
▁2、	-3023
▁3、	-3024
▁4、	-3025
▁5、	-3026
▁6、	-3027
▁7、	-3028
▁Or	-3029
▁Sc	-3030
▁世系	-3031
▁印度	-3032
、11	-3033
、53	-3034
一隻人	-3035
世界頭	-3036
加拿大	-3037
吉安市	-3038
嗰語言	-3039
寺本堂	-3040
東京都	-3041
澳大利	-3042
華盛頓	-3043
設立嗰	-3044
阿彌陀	-3045
1949	-3046
Naja	-3047
ough	-3048
ustr	-3049
|160	-3050
▁des	-3051
和歌山縣	-3052
大型水庫	-3053
江南西道	-3054
江西巡撫	-3055
組成部門	-3056
豫章太守	-3057
豫章郡人	-3058
隻村盤子	-3059
https	-3060
obert	-3061
▁2009	-3062
▁Coun	-3063
人民解放軍	-3064
係日本東京	-3065
箇滴子地方	-3066
裡頭嗰一隻	-3067
鋼琴協奏曲	-3068
▁36068	-3069
▁style	-3070
古羅馬嗰貨幣	-3071
▁360827	-3072
▁360830	-3073
係倫敦地鐵嗰的斯集庫杜線嗰一隻站	-3074
-8	-3075
2"	-3076
2.	-3077
AR	-3078
Le	-3079
az	-3080
ks	-3081
▁:	-3082
▁→	-3083
▁夏	-3084
▁梁	-3085
▁歌	-3086
▁湖	-3087
▁神	-3088
▁罗	-3089
▁花	-3090
一年	-3091
三大	-3092
中正	-3093
中的	-3094
佢哈	-3095
佢在	-3096
佢話	-3097
係大	-3098
信息	-3099
兩個	-3100
出生	-3101
前頭	-3102
加州	-3103
千年	-3104
升任	-3105
只有	-3106
嗰二	-3107
嗰水	-3108
天文	-3109
天然	-3110
學科	-3111
就得	-3112
嶺鎮	-3113
嶽片	-3114
年份	-3115
年版	-3116
御史	-3117
意義	-3118
憑得	-3119
抗日	-3120
晚期	-3121
有隻	-3122
杉美	-3123
村係	-3124
村鄉	-3125
條約	-3126
死亡	-3127
浪漫	-3128
源頭	-3129
澳門	-3130
畵家	-3131
白鹿	-3132
目的	-3133
第九	-3134
經常	-3135
考生	-3136
者也	-3137
耳其	-3138
聲氣	-3139
育德	-3140
背景	-3141
自己	-3142
航空	-3143
虔州	-3144
衰變	-3145
規定	-3146
距離	-3147
車站	-3148
都不	-3149
金堂	-3150
長沙	-3151
陽鎮	-3152
鹼土	-3153
龍興	-3154
(12	-3155
les	-3156
ume	-3157
urn	-3158
▁(;	-3159
▁44	-3160
▁8、	-3161
▁9、	-3162
▁Ph	-3163
▁kh	-3164
▁sh	-3165
▁吉水	-3166
▁萍鄉	-3167
▁袁州	-3168
▁青瓷	-3169
▁青銅	-3170
、35	-3171
。18	-3172
一滴子	-3173
不同嗰	-3174
佢屋裡	-3175
分陰陽	-3176
嗰技術	-3177
婺源縣	-3178
懷嶽片	-3179
新建人	-3180
杉美斯	-3181
氧化碳	-3182
管理局	-3183
而今嗰	-3184
舊石器	-3185
通常係	-3186
1955	-3187
2002	-3188
2012	-3189
="2"	-3190
ings	-3191
ream	-3192
ward	-3193
▁10、	-3194
▁滋賀縣	-3195
嗰一隻省	-3196
布政使司	-3197
拕認為係	-3198
澳大利亞	-3199
箇段時間	-3200
羅馬帝國	-3201
鹼土金屬	-3202
,107,	-3203
,206,	-3204
▁John	-3205
▁Sōsh	-3206
▁have	-3207
十八縣之一	-3208
特別區之一	-3209
ograph	-3210
韓國嗰政治家	-3211
▁360826	-3212
係日本東京特別區之一	-3213
江西省人民政府嗰組成部門	-3214
)0	-3215
GB	-3216
IV	-3217
do	-3218
▁[	-3219
▁न	-3220
▁余	-3221
▁佛	-3222
▁傅	-3223
▁城	-3224
▁本	-3225
▁甲	-3226
▁米	-3227
▁紅	-3228
▁郭	-3229
▁開	-3230
一定	-3231
一行	-3232
中海	-3233
丹麥	-3234
人員	-3235
低地	-3236
使司	-3237
元璋	-3238
光緒	-3239
六隻	-3240
具有	-3241
分子	-3242
創始	-3243
十里	-3244
千米	-3245
印歐	-3246
又拕	-3247
叭呔	-3248
司令	-3249
司馬	-3250
吉州	-3251
名稱	-3252
嗰許	-3253
地图	-3254
官員	-3255
寺廟	-3256
就話	-3257
島縣	-3258
州市	-3259
幾乎	-3260
後生	-3261
惰性	-3262
憑到	-3263
應用	-3264
採用	-3265
提出	-3266
斯杜	-3267
斯林	-3268
日拕	-3269
普遍	-3270
柴桑	-3271
江鄉	-3272
湖區	-3273
火星	-3274
特色	-3275
現在	-3276
級別	-3277
義門	-3278
聖經	-3279
職業	-3280
能源	-3281
舍利	-3282
薩斯	-3283
處理	-3284
西路	-3285
觀察	-3286
角色	-3287
評傳	-3288
通寶	-3289
連到	-3290
達到	-3291
重複	-3292
金溪	-3293
金銅	-3294
銅礦	-3295
阿爾	-3296
陽去	-3297
音字	-3298
體嗰	-3299
高速	-3300
(10	-3301
116	-3302
605	-3303
:18	-3304
arm	-3305
che	-3306
div	-3307
ene	-3308
ics	-3309
inc	-3310
out	-3311
rod	-3312
uch	-3313
▁27	-3314
▁30	-3315
▁40	-3316
▁廬陵	-3317
▁建昌	-3318
、42	-3319
》:「	-3320
一號線	-3321
三等開	-3322
主要係	-3323
也就係	-3324
佢也係	-3325
佢係在	-3326
係位到	-3327
係因為	-3328
係西方	-3329
北美洲	-3330
嗰大崽	-3331
天主教	-3332
奢侈品	-3333
尼亞語	-3334
平方米	-3335
建立嗰	-3336
日爾曼	-3337
朱元璋	-3338
東大寺	-3339
穆斯林	-3340
細伢子	-3341
聲母字	-3342
鹼金屬	-3343
111,	-3344
1986	-3345
ello	-3346
ford	-3347
▁13、	-3348
▁Com	-3349
▁Man	-3350
▁chh	-3351
▁man	-3352
▁撫廣片	-3353
▁波兰语	-3354
印歐語系	-3355
參考資料	-3356
江南西路	-3357
裡頭嗰第	-3358
贛粵運河	-3359
▁2010	-3360
中國國民黨	-3361
大調交響曲	-3362
celand	-3363
▁World	-3364
地鐵嗰一號線	-3365
▁360825	-3366
管到嗰隻村盤子	-3367
贛州府嗰一隻縣	-3368
佢係許時間有名嗰朝鮮	-3369
Im	-3370
ca	-3371
za	-3372
̍k	-3373
▁全	-3374
▁初	-3375
▁可	-3376
▁岛	-3377
▁正	-3378
▁沈	-3379
▁泰	-3380
▁潘	-3381
▁用	-3382
▁秋	-3383
▁等	-3384
▁艾	-3385
▁蘇	-3386
▁趙	-3387
一部	-3388
三苗	-3389
上任	-3390
下來	-3391
五行	-3392
交界	-3393
仁和	-3394
仔子	-3395
以及	-3396
位於	-3397
作曲	-3398
佢也	-3399
係對	-3400
內部	-3401
六月	-3402
前田	-3403
力嗰	-3404
功能	-3405
半衰	-3406
印刷	-3407
受到	-3408
喇隻	-3409
嗰上	-3410
嗰場	-3411
嗰州	-3412
地利	-3413
坪鄉	-3414
城縣	-3415
報告	-3416
報紙	-3417
多人	-3418
夜裡	-3419
大院	-3420
宗譜	-3421
密度	-3422
就搦	-3423
展斯	-3424
工人	-3425
帶得	-3426
度量	-3427
弋片	-3428
強調	-3429
戰國	-3430
批准	-3431
拕設	-3432
時候	-3433
林寺	-3434
標誌	-3435
決定	-3436
海岸	-3437
淮王	-3438
港鎮	-3439
熊氏	-3440
版本	-3441
王后	-3442
王妃	-3443
用做	-3444
百萬	-3445
監獄	-3446
眼睛	-3447
禪寺	-3448
程式	-3449
箇類	-3450
線路	-3451
總值	-3452
聯繫	-3453
舌尖	-3454
著書	-3455
表面	-3456
西晉	-3457
要係	-3458
語法	-3459
賓語	-3460
過後	-3461
邊界	-3462
部隊	-3463
野苑	-3464
金星	-3465
青山	-3466
體系	-3467
黎明	-3468
-13	-3469
.50	-3470
ara	-3471
ile	-3472
ons	-3473
tem	-3474
umi	-3475
urt	-3476
▁1.	-3477
▁24	-3478
▁26	-3479
▁Ur	-3480
▁Wh	-3481
▁so	-3482
▁岛式	-3483
▁歐陽	-3484
▁永新	-3485
化學家	-3486
半衰期	-3487
古希臘	-3488
嗰政治	-3489
地中海	-3490
拕封為	-3491
朝鮮語	-3492
育德會	-3493
色情片	-3494
藝術家	-3495
辦公室	-3496
霍利斯	-3497
鷹弋片	-3498
鹿野苑	-3499
1130	-3500
ater	-3501
link	-3502
ould	-3503
▁(18	-3504
▁12、	-3505
▁Con	-3506
▁Eng	-3507
▁Rev	-3508
▁not	-3509
▁法隆寺	-3510
一般來話	-3511
佔得宋朝	-3512
北鄉雅溪	-3513
原子序號	-3514
層石塔第	-3515
生產總值	-3516
ction	-3517
▁line	-3518
一段時間係	-3519
前田育德會	-3520
▁36080	-3521
佢就係今下嗰	-3522
▁361030	-3523
實第線嗰一隻站	-3524
年箇一段時間係	-3525
日比谷線嗰一隻站	-3526
酒比利線嗰一隻站	-3527
#8	-3528
(5	-3529
(?	-3530
,4	-3531
gu	-3532
ih	-3533
yō	-3534
्त	-3535
▁°	-3536
▁下	-3537
▁和	-3538
▁牛	-3539
▁福	-3540
▁約	-3541
▁葉	-3542
一帶	-3543
中期	-3544
主义	-3545
九年	-3546
他的	-3547
伊朗	-3548
伓同	-3549
來源	-3550
係在	-3551
光祖	-3552
光院	-3553
入侵	-3554
八幡	-3555
分成	-3556
加入	-3557
加坡	-3558
千戶	-3559
南楚	-3560
即係	-3561
各種	-3562
合稱	-3563
含到	-3564
哈冇	-3565
嗰新	-3566
嗰總	-3567
因此	-3568
學派	-3569
完全	-3570
宮位	-3571
實行	-3572
寫做	-3573
居住	-3574
年生	-3575
年起	-3576
廣昌	-3577
建於	-3578
抵得	-3579
政協	-3580
昆斯	-3581
本山	-3582
武帝	-3583
比例	-3584
流感	-3585
演唱	-3586
爭議	-3587
王氏	-3588
產業	-3589
电影	-3590
番茄	-3591
當時	-3592
發表	-3593
發音	-3594
直轄	-3595
示例	-3596
編輯	-3597
纪念	-3598
色氣	-3599
萬喇	-3600
解釋	-3601
詩文	-3602
變得	-3603
資溪	-3604
軍隊	-3605
辦事	-3606
邊嗰	-3607
醫學	-3608
長嗰	-3609
電車	-3610
韻腳	-3611
頭回	-3612
餘江	-3613
馬來	-3614
體育	-3615
일보	-3616
erm	-3617
erv	-3618
ery	-3619
igh	-3620
ium	-3621
now	-3622
oth	-3623
ows	-3624
ret	-3625
rop	-3626
ted	-3627
way	-3628
▁31	-3629
▁45	-3630
▁</	-3631
▁Al	-3632
▁Br	-3633
▁Le	-3634
▁Mc	-3635
▁Se	-3636
▁Sp	-3637
▁si	-3638
▁大調	-3639
▁宜黃	-3640
▁臺灣	-3641
▁都昌	-3642
▁靖安	-3643
▁香港	-3644
▁高安	-3645
三等合	-3646
主要嗰	-3647
係印度	-3648
叭呔語	-3649
名字係	-3650
嗰一站	-3651
嗰中間	-3652
嗰江西	-3653
嗰重要	-3654
國家嗰	-3655
土耳其	-3656
大部份	-3657
太陽系	-3658
將軍銜	-3659
形容詞	-3660
滴子嗰	-3661
美利堅	-3662
群昆斯	-3663
面積係	-3664
1991	-3665
able	-3666
ally	-3667
erne	-3668
ical	-3669
▁was	-3670
佢係朝鮮	-3671
係日本嗰	-3672
係許時間	-3673
南昌地图	-3674
南昌大學	-3675
官方語言	-3676
工業革命	-3677
意大利人	-3678
民國銀行	-3679
站係南昌	-3680
▁2006	-3681
▁平安時代	-3682
京都市東山	-3683
北鄉雅溪人	-3684
地鐵一號線	-3685
宋應星評傳	-3686
江西嗰文學	-3687
清朝嗰時間	-3688
美術館保管	-3689
2,101,	-3690
▁36040	-3691
▁36050	-3692
▁36088	-3693
▁360829	-3694
▁▁▁▁▁▁▁	-3695
係江西嗰一隻姓	-3696
大調鋼琴奏鳴曲	-3697
奉新北鄉雅溪人	-3698
東西線嗰一隻站	-3699
南昌地鐵嗰一號線	-3700
韓國嗰獨立運動家	-3701
係美國加利福尼亞州	-3702
站係南昌地鐵一號線	-3703
係東京地鐵嗰東西線嗰一隻站	-3704
▁▁▁▁▁▁▁▁▁▁▁▁▁▁	-3705
(1	-3706
(6	-3707
IS	-3708
ae	-3709
eu	-3710
ni	-3711
oi	-3712
ов	-3713
بن	-3714
▁≈	-3715
▁万	-3716
▁以	-3717
▁兩	-3718
▁千	-3719
▁圓	-3720
▁年	-3721
▁望	-3722
▁演	-3723
▁蔣	-3724
▁達	-3725
▁오	-3726
不多	-3727
世纪	-3728
主簿	-3729
之父	-3730
五大	-3731
人有	-3732
伓係	-3733
佛華	-3734
光明	-3735
全集	-3736
公眾	-3737
分相	-3738
分頭	-3739
制嗰	-3740
加勒	-3741
北道	-3742
區域	-3743
印尼	-3744
口呼	-3745
合眾	-3746
同盟	-3747
唐書	-3748
嗰外	-3749
國師	-3750
坊镇	-3751
型嗰	-3752
埔寨	-3753
埠鄉	-3754
基金	-3755
塘乡	-3756
塘鄉	-3757
天理	-3758
姓嗰	-3759
子孫	-3760
安仁	-3761
安石	-3762
官話	-3763
專輯	-3764
對於	-3765
少數	-3766
屠殺	-3767
工農	-3768
年升	-3769
弟子	-3770
後嗰	-3771
性別	-3772
悲劇	-3773
意識	-3774
應該	-3775
懷林	-3776
成熟	-3777
戰役	-3778
提供	-3779
政策	-3780
文書	-3781
方廣	-3782
最末	-3783
朝嗰	-3784
村鎮	-3785
村镇	-3786
東部	-3787
構成	-3788
橫峰	-3789
歌劇	-3790
淡水	-3791
特點	-3792
瓶第	-3793
男性	-3794
白色	-3795
目前	-3796
相互	-3797
祭祀	-3798
稱為	-3799
箇兮	-3800
經營	-3801
羅曼	-3802
老弟	-3803
能力	-3804
能量	-3805
萬曆	-3806
蒔繪	-3807
螺鈿	-3808
製造	-3809
西藏	-3810
詩作	-3811
變做	-3812
財政	-3813
輿圖	-3814
辛亥	-3815
進入	-3816
銀錢	-3817
限制	-3818
陰入	-3819
首小	-3820
(17	-3821
.25	-3822
211	-3823
212	-3824
:20	-3825
Ode	-3826
acc	-3827
ald	-3828
amp	-3829
ata	-3830
eld	-3831
ree	-3832
rie	-3833
ual	-3834
ull	-3835
uri	-3836
—16	-3837
▁3.	-3838
▁90	-3839
▁Cl	-3840
▁II	-3841
▁It	-3842
▁qu	-3843
▁te	-3844
▁卡農	-3845
▁國際	-3846
▁文化	-3847
▁新淦	-3848
▁相關	-3849
▁而今	-3850
▁街道	-3851
▁鉛山	-3852
、18	-3853
世界上	-3854
主義者	-3855
九江市	-3856
係朝鮮	-3857
冇什哩	-3858
南昌城	-3859
南昌話	-3860
參加嗰	-3861
嗰中心	-3862
嗰城市	-3863
嗰所在	-3864
國將軍	-3865
基斯坦	-3866
奧地利	-3867
安徽嗰	-3868
安徽省	-3869
年之間	-3870
德國人	-3871
最多嗰	-3872
柬埔寨	-3873
江西官	-3874
法蘭克	-3875
特別係	-3876
王朝嗰	-3877
發現嗰	-3878
白鹿洞	-3879
箇也係	-3880
箇隻詞	-3881
纪念馆	-3882
許懷林	-3883
110,	-3884
1928	-3885
1996	-3886
211,	-3887
:[])	-3888
Will	-3889
cast	-3890
ouis	-3891
rain	-3892
rist	-3893
▁14、	-3894
▁300	-3895
▁吉茶片	-3896
人嗰名字	-3897
代表大會	-3898
佛教寺院	-3899
佛華嚴經	-3900
佢係韓國	-3901
如來坐像	-3902
美國總統	-3903
,108,	-3904
,1912	-3905
▁2007	-3906
▁Part	-3907
佢嗰郡治係	-3908
嗰人口普查	-3909
次會議選舉	-3910
江西嗰列表	-3911
2,100,	-3912
2,102,	-3913
2,200,	-3914
▁36028	-3915
▁36048	-3916
嗰一隻市轄區	-3917
方廣佛華嚴經	-3918
:330046	-3919
▁360726	-3920
celandic	-3921
▁360981,	-3922
江西省人民政府嗰直屬單位	-3923
站係南昌地鐵一號線嗰一站	-3924
!」	-3925
#5	-3926
%、	-3927
,1	-3928
-1	-3929
BB	-3930
Pr	-3931
Wh	-3932
ga	-3933
gr	-3934
iɛ	-3935
ke	-3936
ym	-3937
yu	-3938
”(	-3939
▁。	-3940
▁乾	-3941
▁嚴	-3942
▁在	-3943
▁提	-3944
▁斯	-3945
▁甘	-3946
▁紫	-3947
▁自	-3948
▁通	-3949
▁里	-3950
▁雙	-3951
▁馮	-3952
▁马	-3953
▁黎	-3954
▁鼻	-3955
、1	-3956
、4	-3957
主題	-3958
九隻	-3959
二百	-3960
五十	-3961
五年	-3962
人工	-3963
仙女	-3964
以下	-3965
傷嘍	-3966
先祖	-3967
兵部	-3968
分為	-3969
北極	-3970
南海	-3971
參軍	-3972
友諒	-3973
吉他	-3974
和平	-3975
嗰分	-3976
嗰自	-3977
外國	-3978
大家	-3979
大庾	-3980
天干	-3981
太宗	-3982
字號	-3983
實數	-3984
專業	-3985
導演	-3986
居民	-3987
山水	-3988
巴西	-3989
年號	-3990
幾多	-3991
建安	-3992
得佢	-3993
德川	-3994
感情	-3995
手法	-3996
打仗	-3997
教會	-3998
新吳	-3999
曹掾	-4000
最早	-4001
最終	-4002
月份	-4003
末期	-4004
村乡	-4005
武昌	-4006
氣候	-4007
永樂	-4008
沙漠	-4009
漢人	-4010
灣區	-4011
特區	-4012
狀態	-4013
現璠	-4014
石頭	-4015
第十	-4016
紀錄	-4017
紅色	-4018
綜合	-4019
維埃	-4020
縣令	-4021
總管	-4022
而且	-4023
耒資	-4024
臨汝	-4025
舞出	-4026
色板	-4027
虎山	-4028
號至	-4029
衛星	-4030
袖付	-4031
西斯	-4032
貢獻	-4033
遺跡	-4034
餘汗	-4035
駐贛	-4036
高校	-4037
高野	-4038
齊賢	-4039
마이	-4040
.12	-4041
215	-4042
301	-4043
313	-4044
680	-4045
RGB	-4046
epp	-4047
ime	-4048
lor	-4049
mon	-4050
oll	-4051
▁Mo	-4052
▁Vi	-4053
▁cl	-4054
▁du	-4055
▁en	-4056
▁ko	-4057
▁or	-4058
▁sp	-4059
▁上高	-4060
▁分宜	-4061
▁南城	-4062
▁彭澤	-4063
▁永修	-4064
▁美國	-4065
▁贛州	-4066
▁金剛	-4067
、21	-4068
。15	-4069
亚行省	-4070
佢自簡	-4071
係法國	-4072
係湖南	-4073
保加利	-4074
加勒比	-4075
原子核	-4076
大洋洲	-4077
大阪府	-4078
最早嗰	-4079
白話字	-4080
直轄市	-4081
科學家	-4082
紀念館	-4083
老字號	-4084
耒資片	-4085
蘇格蘭	-4086
趙光祖	-4087
陳友諒	-4088
icha	-4089
ords	-4090
orge	-4091
ouse	-4092
uman	-4093
▁Ind	-4094
▁昌都片	-4095
中央駐贛	-4096
主義人民	-4097
佢攏共有	-4098
南方文物	-4099
宗嗰寺院	-4100
州係元朝	-4101
惰性氣體	-4102
抗日戰爭	-4103
江西通志	-4104
江西進行	-4105
物理學家	-4106
箇時間嗰	-4107
菩薩立像	-4108
辛亥革命	-4109
,207,	-4110
12345	-4111
ander	-4112
arles	-4113
ridge	-4114
▁都潘州斯	-4115
名子羅馬字	-4116
羅馬帝國嗰	-4117
首小步舞曲	-4118
2,103,	-4119
2,105,	-4120
ington	-4121
▁36020	-4122
▁36022	-4123
▁色斯特州斯	-4124
中央駐贛單位	-4125
中華民國政府	-4126
日拕建起來嗰	-4127
民主主義人民	-4128
吉安府嗰一隻縣	-4129
豫章郡嗰一隻縣	-4130
▁pickled	-4131
江西進行人口普查	-4132
係東京地鐵嗰日比谷線嗰一隻站	-4133
%3	-4134
(8	-4135
02	-4136
09	-4137
3.	-4138
;"	-4139
</	-4140
?」	-4141
He	-4142
OC	-4143
ji	-4144
oe	-4145
wo	-4146
xx	-4147
ɔŋ	-4148
ता	-4149
ार	-4150
▁।	-4151
▁亞	-4152
▁屋	-4153
▁愛	-4154
▁或	-4155
▁月	-4156
▁省	-4157
▁經	-4158
▁行	-4159
▁赤	-4160
▁黑	-4161
一次	-4162
三間	-4163
上古	-4164
上帝	-4165
不正	-4166
中得	-4167
人數	-4168
佢做	-4169
係家	-4170
個俚	-4171
優秀	-4172
兄弟	-4173
全省	-4174
兪吉	-4175
冕冠	-4176
分之	-4177
加到	-4178
動畫	-4179
北伐	-4180
北邊	-4181
占得	-4182
口鄉	-4183
史書	-4184
史稱	-4185
史稿	-4186
合金	-4187
嗰四	-4188
嗰姓	-4189
嗰字	-4190
國會	-4191
國華	-4192
地址	-4193
坊鄉	-4194
塘镇	-4195
大哩	-4196
安縣	-4197
宋氏	-4198
工具	-4199
市場	-4200
常数	-4201
復興	-4202
意志	-4203
技巧	-4204
持續	-4205
指示	-4206
支持	-4207
文件	-4208
日期	-4209
日語	-4210
星體	-4211
更加	-4212
桥乡	-4213
橋鄉	-4214
機器	-4215
每年	-4216
湖鄉	-4217
源鄉	-4218
準備	-4219
滕王	-4220
演奏	-4221
漢城	-4222
特拉	-4223
獲得	-4224
瑞士	-4225
畫像	-4226
當過	-4227
疆域	-4228
發達	-4229
監督	-4230
秋冬	-4231
科技	-4232
等地	-4233
箇部	-4234
米亞	-4235
縣名	-4236
義縣	-4237
聯盟	-4238
裏面	-4239
裝飾	-4240
許莽	-4241
註冊	-4242
評論	-4243
證明	-4244
象嵌	-4245
象徵	-4246
質子	-4247
農場	-4248
通用	-4249
連得	-4250
邊上	-4251
長城	-4252
長安	-4253
陽曆	-4254
隆武	-4255
集合	-4256
需要	-4257
類嗰	-4258
高祖	-4259
齒音	-4260
龍鎮	-4261
.16	-4262
111	-4263
221	-4264
And	-4265
She	-4266
arg	-4267
ars	-4268
ges	-4269
iam	-4270
inn	-4271
maz	-4272
mes	-4273
net	-4274
png	-4275
que	-4276
ral	-4277
sai	-4278
tes	-4279
use	-4280
▁En	-4281
▁Ro	-4282
▁le	-4283
▁po	-4284
▁pr	-4285
▁tr	-4286
▁安福	-4287
▁弋陽	-4288
▁星子	-4289
▁樂安	-4290
▁浮梁	-4291
、33	-4292
。13	-4293
。14	-4294
。16	-4295
」,「	-4296
係九江	-4297
係亞洲	-4298
兪吉濬	-4299
共樣嗰	-4300
到箇裡	-4301
南北朝	-4302
南昌縣	-4303
嗰一個	-4304
嗰交叉	-4305
嗰影響	-4306
嗰社會	-4307
四隻縣	-4308
大袖付	-4309
崽朱常	-4310
德國嗰	-4311
或者係	-4312
政府嗰	-4313
數學家	-4314
生物學	-4315
第一次	-4316
行政建	-4317
裡頭有	-4318
醍醐寺	-4319
銅元票	-4320
1980	-4321
2017	-4322
Bate	-4323
Nela	-4324
ania	-4325
lish	-4326
olut	-4327
▁250	-4328
▁New	-4329
▁Pro	-4330
▁Vol	-4331
▁興國縣	-4332
佢面積有	-4333
保加利亞	-4334
別嗰滴子	-4335
原子序數	-4336
江西史稿	-4337
鍾合情報	-4338
隻鎮同到	-4339
,208,	-4340
North	-4341
ensis	-4342
rocod	-4343
▁Song	-4344
▁York	-4345
▁奎那留斯	-4346
中國嗰朝代	-4347
佢係今下嗰	-4348
嗰一隻語言	-4349
美利堅合眾	-4350
萬平方公里	-4351
1,104,	-4352
2,104,	-4353
:33000	-4354
ameter	-4355
京都市東山區	-4356
奈良縣奈良市	-4357
江西嗰博物館	-4358
韋庫拖里阿線	-4359
olution	-4360
▁360124	-4361
▁360425	-4362
▁360426	-4363
▁360725	-4364
▁360828	-4365
▁361130	-4366
▁County	-4367
▁到箇年死嗰人	-4368
設置嗰十八縣之一	-4369
Navercast	-4370
▁Icelandic	-4371
韓國歷代人物鍾合情報	-4372
區係日本東京特別區之一	-4373
話佢嗰人主要住到湖南嗰	-4374
江西省人民政府嗰直屬機構	-4375
係倫敦地鐵嗰酒比利線嗰一隻站	-4376
江西省人民政府嗰中央駐贛單位	-4377
(3	-4378
,5	-4379
--	-4380
BA	-4381
Re	-4382
ST	-4383
fr	-4384
go	-4385
ky	-4386
we	-4387
ze	-4388
▁ü	-4389
▁九	-4390
▁公	-4391
▁富	-4392
▁州	-4393
▁普	-4394
▁曾	-4395
▁梵	-4396
▁溫	-4397
▁玉	-4398
▁珠	-4399
▁理	-4400
▁瑪	-4401
▁縮	-4402
▁腳	-4403
▁葛	-4404
▁麻	-4405
▁이	-4406
》【	-4407
一逕	-4408
下子	-4409
之中	-4410
也是	-4411
也話	-4412
人之	-4413
人話	-4414
位子	-4415
作為	-4416
傳播	-4417
光嗰	-4418
內外	-4419
兩種	-4420
公主	-4421
到嘞	-4422
勞動	-4423
北面	-4424
區分	-4425
南邊	-4426
南面	-4427
占星	-4428
原道	-4429
參與	-4430
反對	-4431
叢書	-4432
吥嘚	-4433
唐代	-4434
嗰事	-4435
嗰各	-4436
嗰書	-4437
嗰詞	-4438
地震	-4439
坊乡	-4440
城區	-4441
城镇	-4442
基地	-4443
天祥	-4444
女嗰	-4445
如此	-4446
姜曰	-4447
媒體	-4448
子係	-4449
學位	-4450
學士	-4451
寧鎮	-4452
寫嘚	-4453
封做	-4454
對象	-4455
尹致	-4456
局長	-4457
山海	-4458
山西	-4459
市區	-4460
市镇	-4461
度嗰	-4462
式嗰	-4463
弗裏	-4464
成就	-4465
戲劇	-4466
接受	-4467
擺嘚	-4468
改過	-4469
教派	-4470
春天	-4471
智利	-4472
木星	-4473
本身	-4474
村嗰	-4475
柏林	-4476
機關	-4477
次宗	-4478
正宗	-4479
氏族	-4480
氧氣	-4481
永平	-4482
法院	-4483
海拔	-4484
漢族	-4485
漢書	-4486
火山	-4487
火藥	-4488
牌樓	-4489
獅子	-4490
王子	-4491
琉璃	-4492
生命	-4493
用得	-4494
电视	-4495
當地	-4496
發動	-4497
秋天	-4498
秦朝	-4499
納米	-4500
組合	-4501
經典	-4502
繪畫	-4503
红歌	-4504
羅漢	-4505
美国	-4506
能斯	-4507
至於	-4508
舷上	-4509
茶陵	-4510
莎士	-4511
裕民	-4512
西首	-4513
要求	-4514
詹姆	-4515
譯文	-4516
質嗰	-4517
起源	-4518
身份	-4519
遷都	-4520
遺產	-4521
鄰舍	-4522
里斯	-4523
鐘頭	-4524
長格	-4525
長野	-4526
陝西	-4527
陽明	-4528
階級	-4529
雕本	-4530
雖然	-4531
頭髮	-4532
鹵素	-4533
黑人	-4534
뉴스	-4535
%)、	-4536
105	-4537
108	-4538
270	-4539
FEA	-4540
FEC	-4541
FED	-4542
New	-4543
ail	-4544
gen	-4545
ico	-4546
ire	-4547
olf	-4548
own	-4549
ush	-4550
vis	-4551
▁2.	-4552
▁33	-4553
▁80	-4554
▁do	-4555
▁et	-4556
▁gu	-4557
▁pl	-4558
▁人口	-4559
▁崇仁	-4560
▁末後	-4561
▁箇隻	-4562
▁饒州	-4563
、22	-4564
一般係	-4565
三十六	-4566
三隻縣	-4567
任總統	-4568
係地球	-4569
係英國	-4570
係贛州	-4571
可能係	-4572
嗰傳統	-4573
嗰北首	-4574
四天王	-4575
地級市	-4576
基本上	-4577
基金會	-4578
好幾隻	-4579
客家話	-4580
居委會	-4581
崽朱覲	-4582
州級別	-4583
布政司	-4584
希伯來	-4585
所有者	-4586
拉哈拉	-4587
授予嗰	-4588
文化名	-4589
新加坡	-4590
曹掾吏	-4591
最高嗰	-4592
根線路	-4593
正式開	-4594
湖北嗰	-4595
畬族鄉	-4596
省政府	-4597
細大哩	-4598
萬年前	-4599
藥師寺	-4600
蘇維埃	-4601
辦事處	-4602
非常多	-4603
黃現璠	-4604
1995	-4605
Song	-4606
West	-4607
ella	-4608
iano	-4609
ited	-4610
ters	-4611
usic	-4612
▁(16	-4613
▁136	-4614
▁15、	-4615
▁24、	-4616
▁780	-4617
▁All	-4618
▁Har	-4619
▁Not	-4620
▁don	-4621
▁got	-4622
▁初雕本	-4623
▁利瑪竇	-4624
▁오마이	-4625
二氧化碳	-4626
京都市右	-4627
係世界上	-4628
係古羅馬	-4629
同性戀者	-4630
嗰交叉口	-4631
巴基斯坦	-4632
年升嗰州	-4633
底下管到	-4634
莎士比亞	-4635
鎭國將軍	-4636
,1993	-4637
Image	-4638
Louis	-4639
South	-4640
mazon	-4641
▁1949	-4642
▁City	-4643
▁name	-4644
▁what	-4645
▁your	-4646
▁德拿留斯	-4647
▁阿根透斯	-4648
係隻英國嗰	-4649
白鹿洞書院	-4650
箇滴子領域	-4651
1,101,	-4652
1,102,	-4653
1,103,	-4654
1,201,	-4655
2,201,	-4656
2,202,	-4657
entral	-4658
▁Peter	-4659
▁오마이뉴스	-4660
人民代表大會	-4661
箇段時間裡頭	-4662
豫章郡南昌人	-4663
▁361024	-4664
▁361025	-4665
▁361128	-4666
▁German	-4667
▁Volume	-4668
係東吳豫章郡嗰	-4669
入嗰中國共產黨	-4670
地鐵嗰一根線路	-4671
銀座線嗰一隻站	-4672
lexander	-4673
北柯露線嗰一隻站	-4674
100000000	-4675
係佢設置嗰十八縣之一	-4676
韋庫拖里阿線嗰一隻站	-4677
係東京地鐵嗰銀座線嗰一隻站	-4678
係倫敦地鐵嗰北柯露線嗰一隻站	-4679
係倫敦地鐵嗰美絕波利頓線嗰一隻站	-4680
,)	-4681
,7	-4682
08	-4683
:(	-4684
CT	-4685
ER	-4686
FF	-4687
ax	-4688
ha	-4689
so	-4690
|3	-4691
ич	-4692
ज्	-4693
▁)	-4694
▁स	-4695
▁•	-4696
▁乙	-4697
▁善	-4698
▁布	-4699
▁延	-4700
▁戴	-4701
▁是	-4702
▁杜	-4703
▁桃	-4704
▁横	-4705
▁民	-4706
▁益	-4707
▁線	-4708
▁老	-4709
▁荷	-4710
▁謝	-4711
▁长	-4712
▁魏	-4713
▁한	-4714
》:	-4715
一人	-4716
一本	-4717
一道	-4718
一首	-4719
不知	-4720
五帝	-4721
五經	-4722
人生	-4723
人都	-4724
佢搦	-4725
係中	-4726
促進	-4727
俄打	-4728
信仰	-4729
信豐	-4730
假名	-4731
公共	-4732
六年	-4733
共樣	-4734
初名	-4735
利門	-4736
到了	-4737
則天	-4738
協商	-4739
发行	-4740
各國	-4741
合作	-4742
同佢	-4743
同年	-4744
吏部	-4745
含得	-4746
吳語	-4747
哺乳	-4748
唇音	-4749
商務	-4750
嗰下	-4751
嗰前	-4752
嗰古	-4753
嗰單	-4754
嗰黃	-4755
嘉靖	-4756
嘍隻	-4757
四月	-4758
回族	-4759
国家	-4760
國旗	-4761
土星	-4762
多寶	-4763
天地	-4764
孝廉	-4765
宸翰	-4766
寧州	-4767
工藝	-4768
差別	-4769
干支	-4770
平面	-4771
廣豐	-4772
彌勒	-4773
後背	-4774
得自	-4775
德興	-4776
情節	-4777
或係	-4778
拉斯	-4779
拕人	-4780
拕升	-4781
搦佢	-4782
改變	-4783
教堂	-4784
文武	-4785
斯拉	-4786
日日	-4787
春夏	-4788
春日	-4789
書籍	-4790
有幾	-4791
有滴	-4792
本土	-4793
本地	-4794
母音	-4795
毫米	-4796
江陵	-4797
法令	-4798
洛克	-4799
海外	-4800
海洋	-4801
湖乡	-4802
湖区	-4803
源乡	-4804
瀘溪	-4805
熱帶	-4806
瑞昌	-4807
町駅	-4808
當麻	-4809
百家	-4810
皇室	-4811
益王	-4812
相反	-4813
省嗰	-4814
眼下	-4815
知府	-4816
神奈	-4817
私人	-4818
移民	-4819
箇場	-4820
粉米	-4821
粵語	-4822
紅谷	-4823
維持	-4824
編纂	-4825
考官	-4826
考試	-4827
而後	-4828
臺北	-4829
舉為	-4830
英雄	-4831
薩爾	-4832
號嗰	-4833
西人	-4834
要素	-4835
記者	-4836
許隻	-4837
話事	-4838
豐富	-4839
貴州	-4840
贛南	-4841
過嗰	-4842
邵武	-4843
都鎮	-4844
里鎮	-4845
銀元	-4846
錢幣	-4847
鑄造	-4848
雲南	-4849
青年	-4850
頭鄉	-4851
龍南	-4852
龍江	-4853
,12	-4854
-17	-4855
.2%	-4856
.48	-4857
103	-4858
114	-4859
FEE	-4860
Mac	-4861
Nak	-4862
ade	-4863
aku	-4864
app	-4865
ble	-4866
bur	-4867
con	-4868
htm	-4869
ife	-4870
int	-4871
ler	-4872
lie	-4873
ner	-4874
ney	-4875
▁34	-4876
▁35	-4877
▁78	-4878
▁Ed	-4879
▁go	-4880
▁un	-4881
▁up	-4882
▁信州	-4883
▁化學	-4884
▁十二	-4885
▁吉州	-4886
▁廬山	-4887
▁新建	-4888
▁無銘	-4889
▁瑞金	-4890
▁縮圖	-4891
▁英語	-4892
▁著作	-4893
▁進賢	-4894
▁陰平	-4895
▁電郵	-4896
世紀初	-4897
九江人	-4898
些吥嘚	-4899
仁和寺	-4900
到中國	-4901
可以用	-4902
嗰文化	-4903
嗰東首	-4904
嗰西首	-4905
大屠殺	-4906
姜曰廣	-4907
宜春市	-4908
寫正嗰	-4909
就過身	-4910
尼西亞	-4911
屋裡嗰	-4912
差不多	-4913
市政府	-4914
幾何學	-4915
影響力	-4916
成立嗰	-4917
拉丁語	-4918
拕用做	-4919
故係叫	-4920
故係咁	-4921
方言誌	-4922
時代嗰	-4923
本願寺	-4924
歐洲嗰	-4925
江原道	-4926
滕王閣	-4927
直隸州	-4928
符號係	-4929
第五屆	-4930
總管府	-4931
聲母嗰	-4932
裡頭最	-4933
隻街道	-4934
電視台	-4935
高麗人	-4936
.4%。	-4937
1600	-4938
1914	-4939
1994	-4940
2011	-4941
Fran	-4942
apan	-4943
ator	-4944
aure	-4945
icus	-4946
text	-4947
wood	-4948
▁16、	-4949
▁Bro	-4950
▁Che	-4951
▁Col	-4952
▁Sea	-4953
▁Wal	-4954
▁all	-4955
▁are	-4956
▁she	-4957
▁南昌話	-4958
▁大通片	-4959
▁宜瀏片	-4960
▁泰和縣	-4961
▁陶淵明	-4962
▁鷹弋片	-4963
人民政治	-4964
到江西嗰	-4965
協商會議	-4966
嗰一隻市	-4967
國民政府	-4968
市博物馆	-4969
師範大學	-4970
廣西壯族	-4971
政府單位	-4972
派嗰寺院	-4973
裕民銀行	-4974
西班牙語	-4975
,1914	-4976
ience	-4977
ition	-4978
ondon	-4979
▁2013	-4980
▁Line	-4981
▁Stre	-4982
▁here	-4983
▁所利都斯	-4984
係西方詩歌	-4985
係隻美國嗰	-4986
大調管風琴	-4987
明朝十三府	-4988
時裝設計師	-4989
本山嗰寺院	-4990
歷史文化名	-4991
江西嗰文化	-4992
路嗰一隻州	-4993
1,105,	-4994
1,200,	-4995
ations	-4996
eedham	-4997
ichard	-4998
▁Keats	-4999
虔州嗰一隻縣	-5000
:0791-6	-5001
rocodyl	-5002
▁360724	-5003
中國人民解放軍	-5004
廣西壯族自治區	-5005
時期嗰貨幣價值	-5006
ographic	-5007
人民政治協商會議	-5008
係江西嗰政府單位	-5009
▁Crocodyl	-5010
▁National	-5011
▁▁▁▁▁▁▁▁▁▁▁	-5012
係倫敦地鐵嗰的斯集庫杜線	-5013
(2	-5014
9.	-5015
?)	-5016
Am	-5017
Ed	-5018
ON	-5019
Or	-5020
Tr	-5021
af	-5022
ix	-5023
yr	-5024
āi	-5025
īn	-5026
на	-5027
्व	-5028
‐2	-5029
▁̄	-5030
▁—	-5031
▁光	-5032
▁冇	-5033
▁刀	-5034
▁姚	-5035
▁室	-5036
▁封	-5037
▁常	-5038
▁廖	-5039
▁摩	-5040
▁於	-5041
▁毛	-5042
▁洞	-5043
▁盧	-5044
▁禾	-5045
▁納	-5046
▁莫	-5047
▁諧	-5048
▁道	-5049
▁韋	-5050
▁韓	-5051
丁目	-5052
七年	-5053
三井	-5054
三尊	-5055
三日	-5056
不到	-5057
主張	-5058
乾隆	-5059
人均	-5060
人士	-5061
佛陀	-5062
信徒	-5063
做官	-5064
備註	-5065
傳教	-5066
儒學	-5067
儒家	-5068
光學	-5069
兩星	-5070
出自	-5071
利夸	-5072
劉邦	-5073
十隻	-5074
南贛	-5075
南路	-5076
原始	-5077
史前	-5078
和尚	-5079
品嗰	-5080
商代	-5081
嗰手	-5082
地質	-5083
執行	-5084
場合	-5085
塞爾	-5086
外交	-5087
大型	-5088
大洲	-5089
天台	-5090
太刀	-5091
好嗰	-5092
威鎧	-5093
季節	-5094
學名	-5095
安源	-5096
宗族	-5097
宗祠	-5098
官制	-5099
宣傳	-5100
宣布	-5101
導致	-5102
就像	-5103
尹拯	-5104
尼斯	-5105
展示	-5106
島嶼	-5107
崗鎮	-5108
巨儒	-5109
幾年	-5110
廢除	-5111
廣韻	-5112
建武	-5113
引用	-5114
引起	-5115
弘緒	-5116
形狀	-5117
影片	-5118
從事	-5119
德化	-5120
承認	-5121
把子	-5122
拍攝	-5123
招提	-5124
收入	-5125
放出	-5126
散文	-5127
文集	-5128
新疆	-5129
日記	-5130
月裁	-5131
月餅	-5132
東方	-5133
森林	-5134
歴史	-5135
殿第	-5136
比賽	-5137
水鎮	-5138
洪武	-5139
流通	-5140
海南	-5141
海水	-5142
涂紹	-5143
消失	-5144
淨土	-5145
港镇	-5146
湖镇	-5147
源地	-5148
準確	-5149
溫度	-5150
滅吥	-5151
爾斯	-5152
物什	-5153
特式	-5154
率係	-5155
王佐	-5156
現場	-5157
用途	-5158
申報	-5159
町站	-5160
留得	-5161
百姓	-5162
石刻	-5163
確立	-5164
秦始	-5165
程度	-5166
第壓	-5167
等人	-5168
等到	-5169
等於	-5170
箇就	-5171
箇年	-5172
簡單	-5173
署理	-5174
翰林	-5175
老早	-5176
舌面	-5177
英语	-5178
著名	-5179
蓝调	-5180
虔南	-5181
號係	-5182
號拕	-5183
行業	-5184
街鎮	-5185
製作	-5186
複數	-5187
西安	-5188
西蘭	-5189
西面	-5190
話明	-5191
謔曲	-5192
講學	-5193
貢區	-5194
贏得	-5195
起自	-5196
身高	-5197
通行	-5198
逢到	-5199
道德	-5200
邀請	-5201
里面	-5202
野議	-5203
防止	-5204
附廓	-5205
階段	-5206
隻州	-5207
雍正	-5208
頭鎮	-5209
顎音	-5210
顯示	-5211
飲料	-5212
首縣	-5213
馬克	-5214
體現	-5215
黃河	-5216
點係	-5217
點鐘	-5218
,13	-5219
.26	-5220
.29	-5221
.8%	-5222
125	-5223
146	-5224
202	-5225
290	-5226
:16	-5227
?),	-5228
FEB	-5229
Hen	-5230
Que	-5231
Rep	-5232
Val	-5233
add	-5234
ami	-5235
arr	-5236
aum	-5237
ber	-5238
chh	-5239
chn	-5240
ett	-5241
idd	-5242
iki	-5243
ola	-5244
ost	-5245
ova	-5246
pxG	-5247
pxM	-5248
rav	-5249
uff	-5250
ult	-5251
ute	-5252
ज्ञ	-5253
▁42	-5254
▁Am	-5255
▁Te	-5256
▁To	-5257
▁bo	-5258
▁上猶	-5259
▁南吳	-5260
▁巻第	-5261
▁會昌	-5262
▁梵鐘	-5263
▁樂平	-5264
▁湖口	-5265
▁示例	-5266
▁第一	-5267
▁貴溪	-5268
▁金溪	-5269
▁銅造	-5270
▁餘干	-5271
中間嗰	-5272
以上嗰	-5273
作曲家	-5274
佢主要	-5275
佢嗰首	-5276
係為到	-5277
全名係	-5278
出土品	-5279
創始人	-5280
印度洋	-5281
印書館	-5282
同音字	-5283
嗰作品	-5284
嗰叫法	-5285
嗰基本	-5286
嗰定義	-5287
嗰門人	-5288
國憲法	-5289
墳時代	-5290
大量嗰	-5291
希臘人	-5292
常見嗰	-5293
年期間	-5294
意思係	-5295
按察使	-5296
政治部	-5297
文化庁	-5298
早已叫	-5299
月裁府	-5300
東南首	-5301
民國嗰	-5302
江西新	-5303
沙群島	-5304
波蘭球	-5305
涂紹煃	-5306
畅销曲	-5307
社會嗰	-5308
美利阿	-5309
義大利	-5310
萍鄉市	-5311
裡頭分	-5312
計算機	-5313
話佢係	-5314
詹姆斯	-5315
起頭係	-5316
道駐地	-5317
都督府	-5318
鄱陽人	-5319
鎌倉市	-5320
龍光院	-5321
////	-5322
1930	-5323
1933	-5324
1945	-5325
1962	-5326
1984	-5327
1992	-5328
2013	-5329
itsu	-5330
omen	-5331
size	-5332
zumi	-5333
▁But	-5334
▁Mon	-5335
▁acc	-5336
▁but	-5337
▁rue	-5338
▁sen	-5339
▁副主任	-5340
▁副主席	-5341
▁副省長	-5342
▁张诺连	-5343
、213	-5344
中央政府	-5345
佢係公元	-5346
佢先頭係	-5347
佢嗰娘係	-5348
加勒比海	-5349
化學性質	-5350
嗰時間就	-5351
國際音標	-5352
天皇宸翰	-5353
奈良時代	-5354
工農紅軍	-5355
年嗰樣子	-5356
攏共管到	-5357
縣嗰縣城	-5358
行政建置	-5359
裔美國人	-5360
觀音立像	-5361
阿拉伯語	-5362
點鐘方向	-5363
,2008	-5364
,209,	-5365
James	-5366
artin	-5367
ittle	-5368
ology	-5369
ystem	-5370
▁2008	-5371
▁That	-5372
▁thee	-5373
▁南唐設立	-5374
▁淮藩王系	-5375
係東吳廬陵	-5376
係隻法國嗰	-5377
最大嗰城市	-5378
江西嗰銀行	-5379
特別行政區	-5380
美利阿能斯	-5381
頂大嗰城市	-5382
1,100,	-5383
1,202,	-5384
1,203,	-5385
2,001,	-5386
2,106,	-5387
Robert	-5388
eppers	-5389
▁Award	-5390
▁Green	-5391
▁Night	-5392
京都市右京區	-5393
年嗰人口普查	-5394
江州嗰一隻縣	-5395
江西嗰市轄區	-5396
▁360430	-5397
▁360727	-5398
▁360824	-5399
▁361027	-5400
▁361029	-5401
▁361124	-5402
▁361126	-5403
▁Street	-5404
▁picked	-5405
城市土地大小有	-5406
廣信府嗰一隻縣	-5407
廬陵郡嗰一隻縣	-5408
臨川郡嗰一隻縣	-5409
饒州府嗰一隻縣	-5410
▁361128,	-5411
美利堅合眾國憲法	-5412
▁▁▁▁▁▁▁▁▁	-5413
係贛州管到嗰一隻縣	-5414
係晉朝豫章郡嗰一隻縣	-5415
%;	-5416
)2	-5417
,9	-5418
03	-5419
2(	-5420
:《	-5421
AN	-5422
As	-5423
Fr	-5424
NA	-5425
Ne	-5426
PS	-5427
nh	-5428
si	-5429
sl	-5430
ระ	-5431
ệt	-5432
‐1	-5433
▁प	-5434
▁乐	-5435
▁利	-5436
▁參	-5437
▁哈	-5438
▁壬	-5439
▁奧	-5440
▁庫	-5441
▁康	-5442
▁社	-5443
▁舒	-5444
▁袁	-5445
▁鄒	-5446
▁사	-5447
▁여	-5448
。(	-5449
》、	-5450
』。	-5451
一場	-5452
一齊	-5453
三皇	-5454
主持	-5455
之下	-5456
之地	-5457
二級	-5458
互聯	-5459
五世	-5460
五千	-5461
亨利	-5462
仙人	-5463
佔領	-5464
佛寺	-5465
佢最	-5466
係以	-5467
做係	-5468
做正	-5469
克蘭	-5470
內戰	-5471
公開	-5472
共同	-5473
分裂	-5474
初期	-5475
前鎮	-5476
創造	-5477
勢力	-5478
南非	-5479
印第	-5480
卷一	-5481
原因	-5482
反射	-5483
古墓	-5484
名勝	-5485
哥倫	-5486
喇萬	-5487
國號	-5488
園城	-5489
圓唇	-5490
垃哩	-5491
埠乡	-5492
增加	-5493
大夫	-5494
大門	-5495
太后	-5496
失敗	-5497
姓係	-5498
字子	-5499
字文	-5500
安邦	-5501
完個	-5502
完美	-5503
定居	-5504
家法	-5505
家譜	-5506
實驗	-5507
寫成	-5508
寫有	-5509
寺三	-5510
專家	-5511
專門	-5512
對話	-5513
尚奎	-5514
山市	-5515
山郷	-5516
岡縣	-5517
嶺鄉	-5518
州府	-5519
布利	-5520
帶兵	-5521
年佢	-5522
年的	-5523
年至	-5524
年齡	-5525
幸福	-5526
廳長	-5527
建成	-5528
弘法	-5529
後世	-5530
後來	-5531
後期	-5532
必要	-5533
情感	-5534
戶籍	-5535
所落	-5536
承宣	-5537
押韻	-5538
拜殿	-5539
指數	-5540
捷克	-5541
接近	-5542
搦得	-5543
政事	-5544
数论	-5545
整個	-5546
方形	-5547
旅行	-5548
明清	-5549
星期	-5550
時烈	-5551
最後	-5552
月係	-5553
月嗰	-5554
服務	-5555
服裝	-5556
末年	-5557
東寺	-5558
根本	-5559
格式	-5560
榮獲	-5561
權嗰	-5562
歷任	-5563
歷山	-5564
水星	-5565
江右	-5566
河北	-5567
河鎮	-5568
治係	-5569
法華	-5570
洛陽	-5571
流派	-5572
淡彩	-5573
清末	-5574
湘贛	-5575
漫畫	-5576
澎湖	-5577
澳洲	-5578
熱天	-5579
爵士	-5580
爺娘	-5581
王院	-5582
瓜达	-5583
甘肅	-5584
產物	-5585
發射	-5586
發電	-5587
百越	-5588
直到	-5589
直徑	-5590
神像	-5591
神宮	-5592
章紋	-5593
箇也	-5594
粒子	-5595
精神	-5596
經驗	-5597
繼續	-5598
美元	-5599
考察	-5600
而已	-5601
耳曼	-5602
臺南	-5603
色列	-5604
華人	-5605
華北	-5606
著嗰	-5607
藍色	-5608
衝突	-5609
西語	-5610
觀點	-5611
設有	-5612
詩集	-5613
財產	-5614
資謙	-5615
走向	-5616
車輛	-5617
部落	-5618
都要	-5619
金字	-5620
鑄錢	-5621
離開	-5622
音乐	-5623
項目	-5624
類型	-5625
高音	-5626
鱉屬	-5627
黨員	-5628
)、《	-5629
.10	-5630
.17	-5631
.28	-5632
.33	-5633
.39	-5634
118	-5635
203	-5636
255	-5637
3.6	-5638
380	-5639
:30	-5640
ady	-5641
aes	-5642
aki	-5643
amm	-5644
ank	-5645
arb	-5646
aur	-5647
eck	-5648
its	-5649
men	-5650
ock	-5651
oup	-5652
pxV	-5653
shi	-5654
sus	-5655
tel	-5656
uai	-5657
uel	-5658
web	-5659
▁28	-5660
▁De	-5661
▁He	-5662
▁am	-5663
▁ro	-5664
▁|-	-5665
▁بن	-5666
▁一隻	-5667
▁北宋	-5668
▁南安	-5669
▁地理	-5670
▁宗室	-5671
▁德興	-5672
▁王室	-5673
▁經歷	-5674
▁豫章	-5675
▁鷹潭	-5676
、10	-5677
主義嗰	-5678
互聯網	-5679
佢哈係	-5680
係而今	-5681
係越南	-5682
係韓國	-5683
做正嗰	-5684
入聲調	-5685
兩隻縣	-5686
出現嘞	-5687
到佢嗰	-5688
到箇首	-5689
創立嗰	-5690
十一年	-5691
千戶所	-5692
南母斯	-5693
印第安	-5694
嗰全部	-5695
嗰形態	-5696
嗰數量	-5697
嗰東西	-5698
嗰源頭	-5699
地圖集	-5700
地方嗰	-5701
大學嗰	-5702
天文學	-5703
山文化	-5704
島神社	-5705
年生人	-5706
年美國	-5707
年開始	-5708
招提寺	-5709
擔任過	-5710
改名做	-5711
時裝週	-5712
末後佢	-5713
末後到	-5714
東南亞	-5715
東南部	-5716
武則天	-5717
氧化鉀	-5718
江南道	-5719
江西到	-5720
沙利門	-5721
科學院	-5722
第一隻	-5723
縣城係	-5724
蠻多嗰	-5725
變奏曲	-5726
週期表	-5727
銀錢總	-5728
雷次宗	-5729
電影嗰	-5730
非金屬	-5731
高級訂	-5732
龍虎山	-5733
1819	-5734
1912	-5735
1993	-5736
1998	-5737
2015	-5738
anel	-5739
aves	-5740
avid	-5741
edia	-5742
erse	-5743
iper	-5744
irst	-5745
istr	-5746
mani	-5747
rant	-5748
reat	-5749
reen	-5750
tell	-5751
|120	-5752
ज्ञा	-5753
▁160	-5754
▁178	-5755
▁17、	-5756
▁500	-5757
▁978	-5758
▁map	-5759
▁pro	-5760
▁und	-5761
▁南母斯	-5762
▁永豐縣	-5763
全國重點	-5764
兩星所落	-5765
南部都尉	-5766
嗰一部分	-5767
大調第二	-5768
子嗰名字	-5769
少將軍銜	-5770
州嗰首府	-5771
師範學院	-5772
春日大社	-5773
正式開業	-5774
江西高校	-5775
神奈川縣	-5776
路係元朝	-5777
鄱陽郡嗰	-5778
高速公路	-5779
ather	-5780
urtis	-5781
▁1948	-5782
▁East	-5783
▁Hist	-5784
▁Việt	-5785
▁left	-5786
▁like	-5787
▁thou	-5788
商務印書館	-5789
清朝十三府	-5790
瓜达拉哈拉	-5791
省政府大院	-5792
舊石器文化	-5793
舊金山灣區	-5794
1,106,	-5795
1,204,	-5796
2,002,	-5797
▁36070	-5798
▁color	-5799
兩星所落宮位	-5800
縣裡頭嗰一隻	-5801
aureate	-5802
ustrial	-5803
▁360429	-5804
▁360734	-5805
▁360924	-5806
▁361026	-5807
▁361127	-5808
江西高校出版社	-5809
▁colspan	-5810
縣裡頭嗰一隻城市	-5811
ternational	-5812
▁Crocodylus	-5813
▁Revolution	-5814
;「	-5815
CA	-5816
Do	-5817
El	-5818
En	-5819
Gu	-5820
LC	-5821
RI	-5822
Rn	-5823
Sc	-5824
Se	-5825
__	-5826
ao	-5827
bi	-5828
bl	-5829
cc	-5830
dz	-5831
fi	-5832
li	-5833
ny	-5834
ws	-5835
zo	-5836
{0	-5837
▁ع	-5838
▁于	-5839
▁伊	-5840
▁出	-5841
▁双	-5842
▁合	-5843
▁咸	-5844
▁嗰	-5845
▁多	-5846
▁如	-5847
▁寶	-5848
▁尹	-5849
▁干	-5850
▁心	-5851
▁春	-5852
▁松	-5853
▁注	-5854
▁相	-5855
▁耶	-5856
▁蔡	-5857
▁話	-5858
▁邊	-5859
▁饒	-5860
▁김	-5861
、6	-5862
」)	-5863
一名	-5864
一族	-5865
一話	-5866
七十	-5867
三代	-5868
上面	-5869
下嗰	-5870
下游	-5871
不斷	-5872
丘陵	-5873
中學	-5874
中東	-5875
主牌	-5876
主角	-5877
之所	-5878
九日	-5879
亞語	-5880
享年	-5881
人文	-5882
仍然	-5883
以南	-5884
係宋	-5885
係正	-5886
俄國	-5887
保存	-5888
保羅	-5889
假期	-5890
像第	-5891
克氣	-5892
兒子	-5893
內嗰	-5894
公公	-5895
其實	-5896
冷戰	-5897
分區	-5898
前國	-5899
前身	-5900
努斯	-5901
勝利	-5902
區係	-5903
千萬	-5904
卷八	-5905
原名	-5906
参考	-5907
及兩	-5908
及其	-5909
史上	-5910
同知	-5911
含量	-5912
命名	-5913
哆啦	-5914
哈話	-5915
嗰兩	-5916
嗰天	-5917
嗰稱	-5918
嗰聖	-5919
嘉堂	-5920
因素	-5921
因跟	-5922
固玲	-5923
在校	-5924
堪的	-5925
墾殖	-5926
壺第	-5927
夜曲	-5928
大和	-5929
大致	-5930
奠基	-5931
她的	-5932
好有	-5933
婁都	-5934
婚姻	-5935
字典	-5936
宋代	-5937
宣戰	-5938
富汗	-5939
實星	-5940
寧王	-5941
封建	-5942
射線	-5943
將領	-5944
尊寺	-5945
尋鄔	-5946
對應	-5947
少年	-5948
山地	-5949
巴比	-5950
平等	-5951
年第	-5952
幾日	-5953
廣場	-5954
建國	-5955
張銘	-5956
形態	-5957
後天	-5958
心寺	-5959
恢復	-5960
成衣	-5961
所謂	-5962
承繼	-5963
提督	-5964
搖滾	-5965
摇滚	-5966
撫河	-5967
敘事	-5968
教科	-5969
教諭	-5970
整體	-5971
斯卡	-5972
新嗰	-5973
方便	-5974
方案	-5975
日嗰	-5976
書法	-5977
最初	-5978
有司	-5979
有四	-5980
有效	-5981
服飾	-5982
朝廷	-5983
本名	-5984
東路	-5985
東面	-5986
校長	-5987
核心	-5988
楚國	-5989
樂團	-5990
樂隊	-5991
機械	-5992
權力	-5993
武漢	-5994
氫氣	-5995
水果	-5996
沙門	-5997
沿革	-5998
法人	-5999
洪都	-6000
混合	-6001
溪郷	-6002
潭鎮	-6003
為主	-6004
為之	-6005
為大	-6006
烏爾	-6007
烏色	-6008
牟尼	-6009
牡丹	-6010
牢監	-6011
特性	-6012
玉第	-6013
現實	-6014
琉球	-6015
用於	-6016
田郷	-6017
男嗰	-6018
留縣	-6019
畫作	-6020
畫記	-6021
百年	-6022
百花	-6023
真空	-6024
眾多	-6025
神護	-6026
種族	-6027
等處	-6028
箇段	-6029
算係	-6030
節目	-6031
米蘭	-6032
羽衣	-6033
翼弼	-6034
老人	-6035
芭蕾	-6036
若係	-6037
華蟲	-6038
萬垓	-6039
蝦蟆	-6040
衙門	-6041
衛生	-6042
西部	-6043
視覺	-6044
觀測	-6045
角度	-6046
設備	-6047
許裡	-6048
誕生	-6049
讓佢	-6050
貞觀	-6051
資訊	-6052
購買	-6053
贛北	-6054
超吥	-6055
路德	-6056
路易	-6057
轉運	-6058
辭彙	-6059
道人	-6060
還係	-6061
郡縣	-6062
金地	-6063
錢票	-6064
鎮壓	-6065
開口	-6066
閏年	-6067
間諜	-6068
附近	-6069
陸地	-6070
陽郡	-6071
音系	-6072
順化	-6073
頻道	-6074
風水	-6075
飛行	-6076
馬里	-6077
高等	-6078
龍泉	-6079
일자	-6080
.00	-6081
.13	-6082
.15	-6083
.27	-6084
.30	-6085
.36	-6086
104	-6087
107	-6088
165	-6089
176	-6090
177	-6091
184	-6092
209	-6093
216	-6094
306	-6095
700	-6096
:),	-6097
:60	-6098
Ben	-6099
Jul	-6100
Nor	-6101
den	-6102
der	-6103
edy	-6104
elf	-6105
eth	-6106
iak	-6107
ilm	-6108
ily	-6109
ois	-6110
omb	-6111
ony	-6112
res	-6113
ron	-6114
tyl	-6115
uon	-6116
▁Co	-6117
▁Ge	-6118
▁Gr	-6119
▁No	-6120
▁中古	-6121
▁交通	-6122
▁修水	-6123
▁動詞	-6124
▁南豐	-6125
▁原文	-6126
▁國寶	-6127
▁外部	-6128
▁天干	-6129
▁奉新	-6130
▁朱厚	-6131
▁樟樹	-6132
▁永豐	-6133
▁江州	-6134
▁玉山	-6135
▁萬載	-6136
▁註腳	-6137
▁譯文	-6138
▁越南	-6139
、45	-6140
、55	-6141
三十三	-6142
三國志	-6143
不送氣	-6144
也可以	-6145
二等開	-6146
五重塔	-6147
人口有	-6148
仙人洞	-6149
佢歸到	-6150
佢通常	-6151
係一類	-6152
係南唐	-6153
偉大嗰	-6154
做代表	-6155
傳佛教	-6156
冕服嗰	-6157
分得正	-6158
到地球	-6159
十一路	-6160
十三日	-6161
吉安府	-6162
嗰二崽	-6163
嗰形式	-6164
嗰後背	-6165
嗰東頭	-6166
嗰發展	-6167
嗰許日	-6168
因為佢	-6169
園城寺	-6170
團近嗰	-6171
堪垃哩	-6172
安邦俊	-6173
實際上	-6174
就係話	-6175
就係隻	-6176
山時代	-6177
年秋冬	-6178
張銘清	-6179
後漢書	-6180
拕設到	-6181
撫州市	-6182
新西蘭	-6183
日耳曼	-6184
是猫王	-6185
月政協	-6186
有一個	-6187
村舞曲	-6188
東北首	-6189
東西嗰	-6190
根據地	-6191
法華經	-6192
派建築	-6193
特拉科	-6194
王安石	-6195
研究院	-6196
福建嗰	-6197
箇首詩	-6198
自由嗰	-6199
茲酒店	-6200
贛州府	-6201
進行曲	-6202
阿爾巴	-6203
陶淵明	-6204
陸萬垓	-6205
陽曆年	-6206
隻韻文	-6207
麥琨嗰	-6208
,199	-6209
.04.	-6210
.2%。	-6211
1180	-6212
1295	-6213
1939	-6214
1960	-6215
1990	-6216
1997	-6217
1×10	-6218
2016	-6219
210,	-6220
255,	-6221
5000	-6222
Nott	-6223
OCLC	-6224
Shin	-6225
ando	-6226
arol	-6227
ashi	-6228
ench	-6229
form	-6230
ican	-6231
ines	-6232
iong	-6233
itch	-6234
omas	-6235
ooks	-6236
usai	-6237
|220	-6238
▁149	-6239
▁18、	-6240
▁19、	-6241
▁20、	-6242
▁Cal	-6243
▁Cor	-6244
▁Gen	-6245
▁Rec	-6246
▁San	-6247
▁Tra	-6248
▁her	-6249
▁thy	-6250
▁兵庫縣	-6251
▁懷嶽片	-6252
▁武寧縣	-6253
▁贛語嗰	-6254
世界頭上	-6255
佢有人口	-6256
內文註腳	-6257
八一大道	-6258
公眾假期	-6259
北京西路	-6260
又拕叫做	-6261
古時間嗰	-6262
同到一隻	-6263
嗰大通片	-6264
國家公園	-6265
天理大學	-6266
家人屋裡	-6267
少數民族	-6268
就過身嘍	-6269
府嗰附廓	-6270
民族宗教	-6271
江西議會	-6272
神社本殿	-6273
羅曼語族	-6274
調查報告	-6275
釋迦牟尼	-6276
金堂安置	-6277
隻韻文叫	-6278
(360÷	-6279
,1998	-6280
Monte	-6281
oseph	-6282
▁1912	-6283
▁1997	-6284
▁2003	-6285
▁2012	-6286
▁Paul	-6287
▁than	-6288
▁they	-6289
▁參考文獻	-6290
中華民國嗰	-6291
中華蘇維埃	-6292
佢嗰省會係	-6293
係話一隻人	-6294
係隻德國嗰	-6295
全贛攏共有	-6296
區政府網站	-6297
參加嗰中國	-6298
市政府網站	-6299
月係陽曆年	-6300
月裁府留縣	-6301
民主共和國	-6302
江西嗰城市	-6303
特拉科斯塔	-6304
畬族村小組	-6305
銀行發行嗰	-6306
3,101,	-6307
3,102,	-6308
indows	-6309
·12345	-6310
▁36062	-6311
▁Japan	-6312
▁Piper	-6313
▁State	-6314
▁which	-6315
一隻行政建置	-6316
地區嗰一隻省	-6317
府嗰附廓首縣	-6318
級歷史文化名	-6319
Charles	-6320
▁360313	-6321
▁360925	-6322
▁361180	-6323
▁Amazon	-6324
係古羅馬嗰一款	-6325
南昌府嗰一隻縣	-6326
大調弦樂四重奏	-6327
奈良國立博物館	-6328
授予嗰少將軍銜	-6329
撫州府嗰一隻縣	-6330
鄱陽郡嗰一隻縣	-6331
National	-6332
▁peppers	-6333
佢嗰地方話係贛語	-6334
朝鮮民主主義人民	-6335
Alexander	-6336
▁Sōshitsu	-6337
江西嗰歷史行政規劃	-6338
全國重點文物保護單位	-6339
佢嗰地方話係贛語嗰大通片	-6340
#6	-6341
).	-6342
,3	-6343
.)	-6344
?"	-6345
At	-6346
Bl	-6347
Br	-6348
Em	-6349
No	-6350
Qu	-6351
TO	-6352
aŋ	-6353
bs	-6354
da	-6355
ii	-6356
sk	-6357
uɛ	-6358
éd	-6359
és	-6360
ów	-6361
əŋ	-6362
वि	-6363
▁ɿ	-6364
▁̆	-6365
▁依	-6366
▁含	-6367
▁呂	-6368
▁單	-6369
▁孝	-6370
▁托	-6371
▁杨	-6372
▁樟	-6373
▁橫	-6374
▁流	-6375
▁浮	-6376
▁湯	-6377
▁癸	-6378
▁科	-6379
▁穀	-6380
▁范	-6381
▁觀	-6382
▁辛	-6383
▁郡	-6384
▁陸	-6385
▁雪	-6386
▁香	-6387
。"	-6388
々斎	-6389
一到	-6390
一條	-6391
一路	-6392
三種	-6393
上下	-6394
上蔡	-6395
久嗰	-6396
之服	-6397
也會	-6398
亡者	-6399
亦係	-6400
人係	-6401
以降	-6402
估計	-6403
佛羅	-6404
作嗰	-6405
作田	-6406
佢娘	-6407
係淮	-6408
保證	-6409
保障	-6410
元衡	-6411
光寺	-6412
全名	-6413
全羅	-6414
兩人	-6415
八卦	-6416
八年	-6417
具體	-6418
出門	-6419
分布	-6420
分鐘	-6421
刊印	-6422
列傳	-6423
到一	-6424
到嘍	-6425
劃分	-6426
劇集	-6427
功臣	-6428
加哥	-6429
加爾	-6430
勒斯	-6431
勝門	-6432
區號	-6433
千克	-6434
南人	-6435
占到	-6436
印地	-6437
取消	-6438
只係	-6439
叫法	-6440
召開	-6441
吉星	-6442
名詞	-6443
哈會	-6444
喇年	-6445
嗰封	-6446
嗰正	-6447
嗰電	-6448
國光	-6449
國寶	-6450
圓嗰	-6451
圩鎮	-6452
地面	-6453
地點	-6454
坪乡	-6455
坪鎮	-6456
堂漥	-6457
塞音	-6458
士弘	-6459
壯學	-6460
大冶	-6461
大君	-6462
大細	-6463
大維	-6464
太祖	-6465
女子	-6466
妙淸	-6467
始榮	-6468
始祖	-6469
字係	-6470
字源	-6471
孫文	-6472
學係	-6473
學報	-6474
孺子	-6475
宗彝	-6476
宣言	-6477
家庭	-6478
家鄉	-6479
宸濠	-6480
尙夏	-6481
就到	-6482
山路	-6483
岩手	-6484
已消	-6485
已知	-6486
市鄉	-6487
布朗	-6488
平江	-6489
庭堅	-6490
建筑	-6491
強烈	-6492
彌撒	-6493
形嗰	-6494
後裔	-6495
德文	-6496
德里	-6497
志純	-6498
愛情	-6499
慢慢	-6500
慶尙	-6501
成份	-6502
戶口	-6503
打敗	-6504
拉克	-6505
排到	-6506
接連	-6507
推翻	-6508
教義	-6509
數十	-6510
文嗰	-6511
文献	-6512
文藝	-6513
斯洛	-6514
新宿	-6515
新添	-6516
新羅	-6517
族人	-6518
日常	-6519
日華	-6520
昆蟲	-6521
昌北	-6522
明嗰	-6523
星盤	-6524
是故	-6525
景泰	-6526
景點	-6527
暴動	-6528
曺植	-6529
曼荼	-6530
會蔵	-6531
會試	-6532
月拕	-6533
有三	-6534
有所	-6535
木縣	-6536
李白	-6537
東郡	-6538
棟材	-6539
武夷	-6540
比如	-6541
水面	-6542
永遠	-6543
江網	-6544
汽車	-6545
沒有	-6546
法国	-6547
洲鄉	-6548
涉及	-6549
清兵	-6550
渝水	-6551
渡鎮	-6552
湖廣	-6553
滅絕	-6554
演變	-6555
灘鎮	-6556
為止	-6557
物嗰	-6558
特試	-6559
王星	-6560
玻璃	-6561
理事	-6562
理數	-6563
瑠璃	-6564
生共	-6565
生駒	-6566
畢業	-6567
百貨	-6568
目標	-6569
相到	-6570
真君	-6571
睏覺	-6572
知事	-6573
石門	-6574
破壞	-6575
碑第	-6576
碳酸	-6577
磷酸	-6578
祖籍	-6579
票房	-6580
立方	-6581
第日	-6582
等佢	-6583
箇種	-6584
節度	-6585
索沃	-6586
綠色	-6587
網球	-6588
編號	-6589
緯度	-6590
縮寫	-6591
美金	-6592
者嗰	-6593
而下	-6594
而為	-6595
聚眾	-6596
聲部	-6597
脇侍	-6598
艱難	-6599
茨堡	-6600
萬嗰	-6601
薩克	-6602
藏書	-6603
蘭語	-6604
表述	-6605
西域	-6606
設定	-6607
許穆	-6608
註釋	-6609
詞彙	-6610
語音	-6611
諧之	-6612
諸侯	-6613
講究	-6614
變動	-6615
贛縣	-6616
贛鄱	-6617
農民	-6618
近音	-6619
逐漸	-6620
通山	-6621
運算	-6622
選區	-6623
選民	-6624
都用	-6625
重嗰	-6626
重新	-6627
量詞	-6628
鐸尼	-6629
链接	-6630
長官	-6631
阳镇	-6632
陂鎮	-6633
陳列	-6634
陶瓷	-6635
陽入	-6636
隻字	-6637
集中	-6638
青原	-6639
韓文	-6640
額係	-6641
顏色	-6642
類別	-6643
馬丁	-6644
馬拉	-6645
騒斯	-6646
骨文	-6647
體制	-6648
黃帝	-6649
黃金	-6650
龙镇	-6651
#00	-6652
,29	-6653
,58	-6654
.37	-6655
.45	-6656
0.5	-6657
1.6	-6658
102	-6659
122	-6660
128	-6661
135	-6662
185	-6663
258	-6664
267	-6665
622	-6666
678	-6667
75°	-6668
:40	-6669
:80	-6670
:90	-6671
Har	-6672
Pan	-6673
San	-6674
You	-6675
act	-6676
erl	-6677
ero	-6678
ful	-6679
hon	-6680
isc	-6681
ona	-6682
osh	-6683
oud	-6684
ple	-6685
por	-6686
rac	-6687
sch	-6688
sin	-6689
tos	-6690
ube	-6691
uck	-6692
ugh	-6693
uit	-6694
ves	-6695
्या	-6696
▁38	-6697
▁4.	-6698
▁AV	-6699
▁Bl	-6700
▁Ex	-6701
▁us	-6702
▁乾漆	-6703
▁傳真	-6704
▁南宋	-6705
▁大庾	-6706
▁太平	-6707
▁安源	-6708
▁安遠	-6709
▁寧都	-6710
▁工程	-6711
▁德安	-6712
▁東鄉	-6713
▁照磨	-6714
▁第二	-6715
▁箇下	-6716
▁羅斯	-6717
▁萬年	-6718
▁蒙古	-6719
▁金製	-6720
▁銘備	-6721
、16	-6722
一等開	-6723
中國人	-6724
之後嗰	-6725
也有人	-6726
佢一生	-6727
佢係到	-6728
佢係話	-6729
佢同得	-6730
係人類	-6731
係撫州	-6732
係話搦	-6733
克薩斯	-6734
全贛嗰	-6735
冇註冊	-6736
到美國	-6737
動物嗰	-6738
去聲字	-6739
又叫做	-6740
各地嗰	-6741
吉安縣	-6742
吉茶片	-6743
同其他	-6744
喬伊斯	-6745
嗰一本	-6746
嗰場化	-6747
嗰方法	-6748
嗰疆域	-6749
嗰範圍	-6750
嗰軍事	-6751
國之一	-6752
堪薩斯	-6753
多年嗰	-6754
大城市	-6755
始建於	-6756
宋翼弼	-6757
小提琴	-6758
就叫做	-6759
工學院	-6760
已消亡	-6761
年上任	-6762
或者叫	-6763
按察司	-6764
斯拉夫	-6765
方言片	-6766
時常拕	-6767
普通話	-6768
曼荼羅	-6769
朝鮮話	-6770
李資謙	-6771
李齊賢	-6772
權尙夏	-6773
法人蔵	-6774
电视台	-6775
發源地	-6776
的歌曲	-6777
石山寺	-6778
秦始皇	-6779
穩定嗰	-6780
第一屆	-6781
第十一	-6782
箇都係	-6783
紅谷灘	-6784
老婆係	-6785
芝加哥	-6786
記念館	-6787
購買力	-6788
起義軍	-6789
過身後	-6790
都指揮	-6791
銀元票	-6792
阿富汗	-6793
音消失	-6794
首德國	-6795
香港人	-6796
黑龍江	-6797
),17	-6798
1,00	-6799
1636	-6800
1637	-6801
1904	-6802
1927	-6803
1978	-6804
1981	-6805
2014	-6806
2019	-6807
360°	-6808
Daum	-6809
achi	-6810
ance	-6811
anch	-6812
angu	-6813
aris	-6814
atch	-6815
clop	-6816
ctor	-6817
ento	-6818
erry	-6819
ette	-6820
evel	-6821
illy	-6822
ique	-6823
ison	-6824
omme	-6825
yuht	-6826
|240	-6827
▁133	-6828
▁199	-6829
▁Bar	-6830
▁Des	-6831
▁Han	-6832
▁Mal	-6833
▁War	-6834
▁Yet	-6835
▁der	-6836
▁did	-6837
▁had	-6838
▁同位素	-6839
▁哥特式	-6840
▁景德鎮	-6841
▁東大寺	-6842
▁鄱陽湖	-6843
一隻人嗰	-6844
不共樣嗰	-6845
不分陰陽	-6846
係今下嗰	-6847
及兩脇侍	-6848
吳城遺址	-6849
嗰十一路	-6850
嚴島神社	-6851
國立中央	-6852
國際機場	-6853
在校生共	-6854
弗裏西語	-6855
弘法大師	-6856
意大利文	-6857
意大利語	-6858
戰爭時期	-6859
搾得美國	-6860
有人覺得	-6861
李氏朝鮮	-6862
村嗰簡介	-6863
歐洲國家	-6864
歷史學家	-6865
流感病毒	-6866
清聲母字	-6867
科學技術	-6868
總面積為	-6869
薩爾茨堡	-6870
表示得正	-6871
解放勳章	-6872
青銅文化	-6873
馬來西亞	-6874
,109,	-6875
,1963	-6876
Henry	-6877
Keats	-6878
actyl	-6879
eless	-6880
eslie	-6881
ublic	-6882
ument	-6883
urate	-6884
▁1945	-6885
▁2019	-6886
▁Fran	-6887
▁King	-6888
▁Poet	-6889
▁Road	-6890
▁Serv	-6891
▁Sōsa	-6892
▁古墳時代	-6893
▁相關網站	-6894
佢嗰面積係	-6895
佢拕認為係	-6896
元素週期表	-6897
冇註冊水庫	-6898
委員會委員	-6899
弦樂奏鳴曲	-6900
新石器時代	-6901
江西嗰企業	-6902
江西領導人	-6903
管到嗰一隻	-6904
英國嗰歷史	-6905
裔美國人有	-6906
裡頭嗰一種	-6907
1,107,	-6908
1,206,	-6909
2,203,	-6910
2,204,	-6911
3,103,	-6912
3,104,	-6913
3,200,	-6914
3,201,	-6915
cyclop	-6916
ersace	-6917
▁36030	-6918
▁36052	-6919
▁China	-6920
▁Sōshu	-6921
▁could	-6922
▁never	-6923
▁there	-6924
》,1999	-6925
吉州嗰一隻縣	-6926
嗰十一路之一	-6927
國內生產總值	-6928
巨儒性理學者	-6929
康特拉科斯塔	-6930
Needham	-6931
Notting	-6932
Windows	-6933
▁360427	-6934
▁361129	-6935
▁Island	-6936
係湖南嗰一隻縣	-6937
神奈川縣鎌倉市	-6938
舊石器時代遺址	-6939
chnology	-6940
▁361002,	-6941
▁English	-6942
▁Service	-6943
係中華人民共和國	-6944
話佢嗰人主要住嘚	-6945
路係元朝江西行省	-6946
▁accurate	-6947
中華人民共和國成立	-6948
參加嗰中國工農紅軍	-6949
月係陽曆年裡頭嗰第	-6950
江西嗰一隻行政建置	-6951
Geographic	-6952
係倫敦地鐵嗰一根線路	-6953
時間江西嗰行政規劃係話	-6954
Geographically	-6955
康特拉科斯塔縣裡頭嗰一隻城市	-6956
路係元朝江西行省嗰十一路之一	-6957
箇段時間裡頭江西嗰一隻行政建置	-6958
",	-6959
#4	-6960
#9	-6961
%)	-6962
1(	-6963
1。	-6964
2+	-6965
Ab	-6966
OH	-6967
SI	-6968
])	-6969
ba	-6970
mi	-6971
pa	-6972
uæ	-6973
ʨh	-6974
ир	-6975
ла	-6976
ос	-6977
ना	-6978
स्	-6979
‐3	-6980
▁>	-6981
▁‘	-6982
▁俄	-6983
▁墓	-6984
▁外	-6985
▁孔	-6986
▁宮	-6987
▁崔	-6988
▁庚	-6989
▁得	-6990
▁慈	-6991
▁按	-6992
▁核	-6993
▁歐	-6994
▁池	-6995
▁港	-6996
▁潭	-6997
▁炒	-6998
▁烏	-6999
▁田	-7000
▁監	-7001
▁知	-7002
▁禪	-7003
▁秦	-7004
▁群	-7005
▁良	-7006
▁莲	-7007
▁董	-7008
▁過	-7009
▁銀	-7010
▁隋	-7011
▁隻	-7012
▁雨	-7013
▁雩	-7014
▁麥	-7015
▁黨	-7016
▁龔	-7017
、「	-7018
、『	-7019
一係	-7020
一切	-7021
一大	-7022
一幅	-7023
一類	-7024
七里	-7025
三世	-7026
三人	-7027
三百	-7028
上游	-7029
上的	-7030
不會	-7031
不足	-7032
不達	-7033
中野	-7034
丰县	-7035
之道	-7036
九龍	-7037
也冇	-7038
于同	-7039
亞書	-7040
京畿	-7041
人到	-7042
人權	-7043
代王	-7044
任期	-7045
佔據	-7046
佢又	-7047
佢對	-7048
係北	-7049
係叫	-7050
係拕	-7051
係益	-7052
俄文	-7053
保留	-7054
修譜	-7055
元老	-7056
內華	-7057
八隻	-7058
公安	-7059
公式	-7060
公斤	-7061
共振	-7062
兵馬	-7063
功曹	-7064
加工	-7065
化石	-7066
區別	-7067
升格	-7068
半徑	-7069
南亞	-7070
又譯	-7071
古墳	-7072
古老	-7073
另寫	-7074
召集	-7075
司法	-7076
各省	-7077
各隻	-7078
吉尼	-7079
同一	-7080
同升	-7081
吥哩	-7082
周本	-7083
和鎮	-7084
咖啡	-7085
品秩	-7086
哩隻	-7087
商朝	-7088
喇嘛	-7089
單就	-7090
嗰反	-7091
嗰孫	-7092
嗰王	-7093
嗰音	-7094
嚴格	-7095
四十	-7096
四方	-7097
團體	-7098
在位	-7099
在銘	-7100
地名	-7101
坑村	-7102
埃塞	-7103
城中	-7104
士禍	-7105
多過	-7106
大山	-7107
大廈	-7108
大裘	-7109
大過	-7110
大韓	-7111
天體	-7112
头镇	-7113
女裝	-7114
奴隸	-7115
妻子	-7116
姆媽	-7117
字仲	-7118
學習	-7119
宇記	-7120
安東	-7121
安遠	-7122
完整	-7123
宗守	-7124
宗室	-7125
官報	-7126
官歸	-7127
定五	-7128
定宇	-7129
家嗰	-7130
實錄	-7131
寧岡	-7132
專刊	-7133
少將	-7134
尤其	-7135
就冇	-7136
就跟	-7137
尹鑴	-7138
局嗰	-7139
屏風	-7140
山口	-7141
山嗰	-7142
山王	-7143
岐阜	-7144
岭镇	-7145
峯寺	-7146
川市	-7147
川鎮	-7148
工會	-7149
左衛	-7150
巴馬	-7151
市嗰	-7152
帥府	-7153
平省	-7154
平聲	-7155
年就	-7156
年由	-7157
幻想	-7158
康熙	-7159
建城	-7160
弆到	-7161
式平	-7162
弘治	-7163
強弱	-7164
得過	-7165
德寺	-7166
心理	-7167
感冒	-7168
成为	-7169
或曰	-7170
戲臺	-7171
房間	-7172
扮演	-7173
投入	-7174
拕併	-7175
指導	-7176
掌治	-7177
探險	-7178
推官	-7179
揚州	-7180
攻擊	-7181
文華	-7182
斯科	-7183
新區	-7184
於天	-7185
日光	-7186
日善	-7187
昌孫	-7188
明治	-7189
昨日	-7190
時華	-7191
暦寺	-7192
曾經	-7193
會員	-7194
月亮	-7195
有上	-7196
有五	-7197
有好	-7198
杉磯	-7199
李瑞	-7200
東邊	-7201
校區	-7202
桓玄	-7203
樂史	-7204
檢查	-7205
權利	-7206
歡迎	-7207
歸屬	-7208
民俗	-7209
民系	-7210
水南	-7211
水嗰	-7212
水平	-7213
水槎	-7214
水系	-7215
江淮	-7216
法係	-7217
津市	-7218
活躍	-7219
派嗰	-7220
海昏	-7221
減少	-7222
漢代	-7223
澤相	-7224
激烈	-7225
燃燒	-7226
爾語	-7227
物語	-7228
特定	-7229
特殊	-7230
特魯	-7231
玄衣	-7232
現任	-7233
生嗰	-7234
生態	-7235
田市	-7236
畫嗰	-7237
當上	-7238
白瓷	-7239
皇后	-7240
相信	-7241
相望	-7242
省份	-7243
眼鏡	-7244
督上	-7245
督師	-7246
督府	-7247
神話	-7248
秘密	-7249
秘書	-7250
程序	-7251
章江	-7252
簡做	-7253
細鬼	-7254
結合	-7255
統共	-7256
綏片	-7257
緣起	-7258
編制	-7259
縣人	-7260
縣學	-7261
縱隊	-7262
繪製	-7263
纖維	-7264
美索	-7265
而上	-7266
自身	-7267
至今	-7268
至高	-7269
興寺	-7270
華網	-7271
萬壽	-7272
萬隻	-7273
落雨	-7274
蓮華	-7275
西奧	-7276
西山	-7277
西鄉	-7278
觀眾	-7279
記憶	-7280
調值	-7281
論者	-7282
謚號	-7283
議院	-7284
豆腐	-7285
資格	-7286
質數	-7287
越國	-7288
足利	-7289
足球	-7290
路線	-7291
进入	-7292
通史	-7293
通電	-7294
逝世	-7295
速度	-7296
造成	-7297
連接	-7298
週年	-7299
進位	-7300
道治	-7301
選擇	-7302
邏輯	-7303
那州	-7304
部副	-7305
部首	-7306
鄡陽	-7307
重唱	-7308
重陽	-7309
金子	-7310
金門	-7311
長崎	-7312
開元	-7313
陀羅	-7314
陶侃	-7315
陸軍	-7316
隔到	-7317
雕刻	-7318
雙方	-7319
雲譜	-7320
雷義	-7321
面係	-7322
韓語	-7323
韻律	-7324
頂替	-7325
項羽	-7326
領地	-7327
頭係	-7328
頭先	-7329
類似	-7330
飛鳥	-7331
食物	-7332
香水	-7333
高原	-7334
鬥爭	-7335
黃色	-7336
黑海	-7337
黨首	-7338
齒齦	-7339
龍門	-7340
#68	-7341
):(	-7342
)、「	-7343
,00	-7344
-22	-7345
.23	-7346
.24	-7347
.34	-7348
.38	-7349
.40	-7350
.60	-7351
079	-7352
149	-7353
197	-7354
2.8	-7355
20'	-7356
279	-7357
282	-7358
337	-7359
4.8	-7360
450	-7361
644	-7362
910	-7363
:50	-7364
:70	-7365
Chi	-7366
Com	-7367
Den	-7368
Don	-7369
ISO	-7370
agn	-7371
ago	-7372
cis	-7373
eel	-7374
eli	-7375
fer	-7376
iau	-7377
iew	-7378
ika	-7379
inh	-7380
ipp	-7381
ita	-7382
nal	-7383
ode	-7384
ole	-7385
oss	-7386
pxT	-7387
rey	-7388
umm	-7389
une	-7390
uro	-7391
uth	-7392
win	-7393
—15	-7394
▁2,	-7395
▁32	-7396
▁5,	-7397
▁5.	-7398
▁60	-7399
▁7,	-7400
▁Ad	-7401
▁Ap	-7402
▁IV	-7403
▁My	-7404
▁Qu	-7405
▁Tr	-7406
▁We	-7407
▁XP	-7408
▁ab	-7409
▁fr	-7410
▁mo	-7411
▁一括	-7412
▁個人	-7413
▁六曲	-7414
▁其他	-7415
▁北京	-7416
▁南朝	-7417
▁古今	-7418
▁太陽	-7419
▁宋士	-7420
▁宗左	-7421
▁廣昌	-7422
▁張國	-7423
▁根據	-7424
▁清江	-7425
▁瑞昌	-7426
▁省長	-7427
▁紐約	-7428
▁縣丞	-7429
▁自由	-7430
▁英國	-7431
▁西漢	-7432
▁豐城	-7433
▁鄧元	-7434
▁銘吉	-7435
▁騒斯	-7436
、19	-7437
。17	-7438
』、『	-7439
一等合	-7440
九江郡	-7441
人民幣	-7442
係上饒	-7443
係天干	-7444
係宜春	-7445
係湖北	-7446
係為得	-7447
係香港	-7448
俄比亞	-7449
元老院	-7450
內華達	-7451
兩隻人	-7452
八幡宮	-7453
分別係	-7454
到排名	-7455
到箇隻	-7456
副主席	-7457
勳章同	-7458
南康郡	-7459
古文明	-7460
同別嗰	-7461
名勝區	-7462
名字嗰	-7463
嗰一家	-7464
嗰地理	-7465
嗰大姓	-7466
嗰干支	-7467
嗰後頭	-7468
嗰成員	-7469
嗰概念	-7470
嗰生長	-7471
嗰著作	-7472
嗰過程	-7473
塔斯塔	-7474
墾殖場	-7475
大多係	-7476
大概有	-7477
太平寰	-7478
安成郡	-7479
宋朝嗰	-7480
宜瀏片	-7481
寧大君	-7482
尋到嗰	-7483
尹元衡	-7484
巴比倫	-7485
年努斯	-7486
年春夏	-7487
廣東嗰	-7488
建安王	-7489
戸時代	-7490
拕升做	-7491
新喻市	-7492
新石器	-7493
方言嗰	-7494
李始榮	-7495
楊尚奎	-7496
殖民地	-7497
江西拕	-7498
河流域	-7499
波羅的	-7500
洛杉磯	-7501
清朝嗰	-7502
猫王在	-7503
猶太人	-7504
瑞州府	-7505
町時代	-7506
當地嗰	-7507
百花洲	-7508
皇帝嗰	-7509
神主牌	-7510
科索沃	-7511
第十二	-7512
箇下嗰	-7513
箇就係	-7514
箇裡頭	-7515
聯合會	-7516
自然界	-7517
與地圖	-7518
舊唐書	-7519
英文名	-7520
荷蘭語	-7521
蔣中正	-7522
被稱為	-7523
裡頭歸	-7524
諧謔曲	-7525
邵式平	-7526
都非常	-7527
陰陽學	-7528
革命家	-7529
饒州府	-7530
.7%。	-7531
.8%。	-7532
112,	-7533
1901	-7534
1911	-7535
1950	-7536
1952	-7537
1987	-7538
2020	-7539
3000	-7540
680'	-7541
:160	-7542
Brit	-7543
Jean	-7544
aceb	-7545
alia	-7546
asab	-7547
cean	-7548
cles	-7549
eath	-7550
eral	-7551
hile	-7552
html	-7553
iamb	-7554
ideo	-7555
iend	-7556
ille	-7557
ists	-7558
ivil	-7559
loom	-7560
ness	-7561
orse	-7562
port	-7563
rada	-7564
ried	-7565
▁10−	-7566
▁137	-7567
▁168	-7568
▁21、	-7569
▁Art	-7570
▁Sch	-7571
▁Ste	-7572
▁can	-7573
▁put	-7574
▁see	-7575
▁sin	-7576
▁中國嗰	-7577
▁南昌市	-7578
▁婺源縣	-7579
▁宜黃縣	-7580
▁法華經	-7581
▁韋斯杜	-7582
不達米亞	-7583
中共中央	-7584
佢到方向	-7585
係南昌嗰	-7586
係宋應星	-7587
公分許莽	-7588
兵部尚書	-7589
化學反應	-7590
可以用來	-7591
同得佢嗰	-7592
嗰一滴子	-7593
嗰時間佢	-7594
國際單位	-7595
國際標準	-7596
如來立像	-7597
寺三重塔	-7598
希伯來語	-7599
平方千米	-7600
年吉安市	-7601
年拕改做	-7602
年設立嗰	-7603
年贛州市	-7604
拉丁美洲	-7605
月江西省	-7606
有時間會	-7607
江西教育	-7608
湖北方言	-7609
湘贛邊界	-7610
漢語拼音	-7611
濁聲母字	-7612
獨立自由	-7613
監察御史	-7614
縣名重複	-7615
臨川郡嗰	-7616
華北軍區	-7617
葡萄牙語	-7618
西人黨嗰	-7619
豫章叢書	-7620
軌道交通	-7621
郡治所在	-7622
部分地區	-7623
):(18	-7624
,1933	-7625
,1962	-7626
,1996	-7627
,2003	-7628
360°÷	-7629
:680'	-7630
Anton	-7631
Queen	-7632
astel	-7633
icial	-7634
igris	-7635
onnet	-7636
pxSan	-7637
▁2000	-7638
▁2001	-7639
▁80%;	-7640
▁West	-7641
▁With	-7642
▁this	-7643
▁中華民國	-7644
▁奈良時代	-7645
▁官方網站	-7646
。1949	-7647
世紀嗰時間	-7648
中國嗰歷史	-7649
五行裡頭歸	-7650
人民出版社	-7651
今下嗰江蘇	-7652
位到江西嗰	-7653
元老院行省	-7654
嗰一隻分支	-7655
嗰一隻朝代	-7656
嗰生長週期	-7657
圖書館保管	-7658
埃塞俄比亞	-7659
塔斯塔西奧	-7660
太平寰宇記	-7661
年人口普查	-7662
府下頭管到	-7663
東晉尋陽郡	-7664
江原道江陵	-7665
江西嗰旅遊	-7666
編纂委員會	-7667
話嗰人主要	-7668
語言研究所	-7669
軍嗰一隻縣	-7670
鐸尼年努斯	-7671
風景名勝區	-7672
1,108,	-7673
1,205,	-7674
3,100,	-7675
3,105,	-7676
:1120'	-7677
George	-7678
London	-7679
ground	-7680
ongest	-7681
▁River	-7682
、24、35	-7683
係隻意大利嗰	-7684
如來及兩脇侍	-7685
承宣布政使司	-7686
細伢子嗰名字	-7687
羅馬共和國嗰	-7688
美索不達米亞	-7689
表示得正植物	-7690
饒州嗰一隻縣	-7691
Richard	-7692
acebook	-7693
ization	-7694
pxMonte	-7695
ristian	-7696
▁360729	-7697
▁360926	-7698
▁Robert	-7699
九江府嗰一隻縣	-7700
係東吳廬陵郡嗰	-7701
係東吳臨川郡嗰	-7702
南康郡嗰一隻縣	-7703
獨立自由勳章同	-7704
設置嗰行政規劃	-7705
ambridge	-7706
▁Records	-7707
▁大方廣佛華嚴經	-7708
中華蘇維埃共和國	-7709
加入嗰中國共產黨	-7710
大調小提琴協奏曲	-7711
湖北方言調查報告	-7712
係明朝贛州府嗰一隻縣	-7713
係晉朝廬陵郡嗰一隻縣	-7714
係晉朝臨川郡嗰一隻縣	-7715
▁Technology	-7716
南唐時間江西嗰行政規劃	-7717
南朝時間江西嗰行政規劃	-7718
表示得正植物嗰生長週期	-7719
#2	-7720
#3	-7721
%2	-7722
(「	-7723
)3	-7724
)·	-7725
)」	-7726
,6	-7727
:,	-7728
>0	-7729
AA	-7730
CO	-7731
DE	-7732
Er	-7733
Go	-7734
It	-7735
Mo	-7736
NO	-7737
NT	-7738
On	-7739
Rh	-7740
Su	-7741
VI	-7742
fu	-7743
my	-7744
wa	-7745
ên	-7746
ón	-7747
āh	-7748
āu	-7749
ēn	-7750
œ̃	-7751
ʦh	-7752
ск	-7753
क्	-7754
मा	-7755
शू	-7756
ूप	-7757
▁م	-7758
▁“	-7759
▁丙	-7760
▁丹	-7761
▁係	-7762
▁做	-7763
▁嘉	-7764
▁固	-7765
▁塑	-7766
▁妙	-7767
▁子	-7768
▁孟	-7769
▁尼	-7770
▁島	-7771
▁己	-7772
▁慶	-7773
▁懷	-7774
▁戊	-7775
▁我	-7776
▁手	-7777
▁打	-7778
▁撒	-7779
▁數	-7780
▁施	-7781
▁曹	-7782
▁板	-7783
▁柳	-7784
▁桂	-7785
▁沃	-7786
▁爺	-7787
▁生	-7788
▁真	-7789
▁硬	-7790
▁竹	-7791
▁粉	-7792
▁索	-7793
▁紺	-7794
▁興	-7795
▁著	-7796
▁詹	-7797
▁賀	-7798
▁賴	-7799
▁邱	-7800
▁陰	-7801
▁인	-7802
▁주	-7803
▁중	-7804
。)	-7805
》—	-7806
一个	-7807
一些	-7808
一塊	-7809
三個	-7810
三寶	-7811
下鄉	-7812
不動	-7813
丕平	-7814
世凱	-7815
中南	-7816
主事	-7817
主人	-7818
之事	-7819
之以	-7820
之王	-7821
亚细	-7822
交流	-7823
人心	-7824
人龍	-7825
代田	-7826
代詞	-7827
任內	-7828
任職	-7829
伓多	-7830
位嗰	-7831
佢一	-7832
例外	-7833
係人	-7834
係任	-7835
係從	-7836
係明	-7837
保持	-7838
修建	-7839
修訂	-7840
做得	-7841
僖王	-7842
允許	-7843
先王	-7844
克斯	-7845
克羅	-7846
兌換	-7847
內亞	-7848
全境	-7849
全美	-7850
八九	-7851
八角	-7852
公報	-7853
兰教	-7854
兵器	-7855
兵團	-7856
利桑	-7857
到西	-7858
剛果	-7859
力量	-7860
加熱	-7861
務院	-7862
化縣	-7863
十國	-7864
千手	-7865
半球	-7866
南縣	-7867
即位	-7868
卷十	-7869
原理	-7870
县主	-7871
古今	-7872
可見	-7873
各式	-7874
各自	-7875
吉林	-7876
名人	-7877
名做	-7878
名士	-7879
吖子	-7880
吳國	-7881
吳姓	-7882
吸收	-7883
吻鱷	-7884
告示	-7885
周邊	-7886
哈叫	-7887
哥拉	-7888
唐草	-7889
商人	-7890
喊做	-7891
單詞	-7892
單質	-7893
嗰內	-7894
嗰小	-7895
嗰屋	-7896
嗰爺	-7897
嗰用	-7898
嗰祖	-7899
嗰紅	-7900
嗰縣	-7901
嗰老	-7902
嗰花	-7903
固定	-7904
國歌	-7905
圓周	-7906
地支	-7907
地殼	-7908
坑鄉	-7909
坦克	-7910
城鄉	-7911
埼玉	-7912
堂聯	-7913
場化	-7914
外縣	-7915
多年	-7916
多芬	-7917
大成	-7918
大氣	-7919
天守	-7920
太公	-7921
太和	-7922
如果	-7923
姓名	-7924
威爾	-7925
孔子	-7926
字元	-7927
安平	-7928
完工	-7929
官正	-7930
定為	-7931
宮嗰	-7932
家村	-7933
密蘇	-7934
實收	-7935
將來	-7936
尹任	-7937
局面	-7938
居士	-7939
山之	-7940
峰乡	-7941
峰鎮	-7942
崽女	-7943
布什	-7944
布林	-7945
常用	-7946
平年	-7947
年係	-7948
年又	-7949
廈門	-7950
廣告	-7951
建嗰	-7952
弱強	-7953
形象	-7954
影响	-7955
德甫	-7956
快速	-7957
恩院	-7958
戲曲	-7959
戶市	-7960
抒情	-7961
抗戰	-7962
抵達	-7963
拜倫	-7964
捉到	-7965
排位	-7966
排列	-7967
排行	-7968
接壤	-7969
推薦	-7970
插圖	-7971
摩訶	-7972
擱擱	-7973
攏攏	-7974
改回	-7975
文身	-7976
斯坎	-7977
新世	-7978
新昌	-7979
於是	-7980
旌表	-7981
晉書	-7982
曆法	-7983
書寫	-7984
書紀	-7985
曾任	-7986
最低	-7987
會用	-7988
望到	-7989
木造	-7990
末茶	-7991
朱德	-7992
李滉	-7993
李玉	-7994
東經	-7995
林鎮	-7996
林镇	-7997
样子	-7998
格魯	-7999
梁朝	-8000
棋盤	-8001
樞紐	-8002
模式	-8003
歐亞	-8004
正北	-8005
武裝	-8006
歷陵	-8007
死嘚	-8008
母語	-8009
民政	-8010
水牛	-8011
永興	-8012
江東	-8013
江郷	-8014
污染	-8015
沙特	-8016
河口	-8017
泉鄉	-8018
洛林	-8019
洲鎮	-8020
浄土	-8021
液體	-8022
清山	-8023
湘東	-8024
溫泉	-8025
演出	-8026
為人	-8027
無所	-8028
無色	-8029
照宮	-8030
熊姓	-8031
爆炸	-8032
爱国	-8033
爵位	-8034
父親	-8035
物種	-8036
獄司	-8037
王莽	-8038
珠寶	-8039
瓷器	-8040
生寺	-8041
由來	-8042
當任	-8043
當選	-8044
百六	-8045
盆地	-8046
相同	-8047
短短	-8048
石寺	-8049
石鄉	-8050
祖師	-8051
神明	-8052
神聖	-8053
福州	-8054
科西	-8055
稀有	-8056
稱呼	-8057
稱帝	-8058
箇些	-8059
管得	-8060
結婚	-8061
結棍	-8062
縣金	-8063
總嗰	-8064
總部	-8065
纁裳	-8066
罷工	-8067
羅姓	-8068
老公	-8069
而成	-8070
耒陽	-8071
聚落	-8072
肌肉	-8073
肯色	-8074
脫離	-8075
臨湘	-8076
舊居	-8077
舌音	-8078
舞者	-8079
舞臺	-8080
芙蓉	-8081
芬蘭	-8082
花押	-8083
英国	-8084
萬張	-8085
蒲圻	-8086
蒸汽	-8087
藤田	-8088
蘇區	-8089
街镇	-8090
裝置	-8091
製備	-8092
西區	-8093
西西	-8094
見濂	-8095
解決	-8096
討論	-8097
許塊	-8098
評價	-8099
說文	-8100
說明	-8101
諸將	-8102
諾曼	-8103
謂語	-8104
譯本	-8105
議長	-8106
豎版	-8107
豫國	-8108
資興	-8109
贊元	-8110
跟佢	-8111
軍到	-8112
轨道	-8113
辛旽	-8114
辭典	-8115
运动	-8116
這些	-8117
這個	-8118
通判	-8119
連續	-8120
進去	-8121
逼得	-8122
選集	-8123
遺失	-8124
遼寧	-8125
邊鎮	-8126
重修	-8127
重慶	-8128
量嗰	-8129
鏡第	-8130
長史	-8131
長同	-8132
長壽	-8133
長征	-8134
長船	-8135
開國	-8136
開通	-8137
閩南	-8138
陂镇	-8139
附屬	-8140
陡然	-8141
陽新	-8142
陽縣	-8143
陽鄉	-8144
隻鐵	-8145
雜誌	-8146
電站	-8147
靈頓	-8148
面积	-8149
順序	-8150
頒佈	-8151
頭到	-8152
顯祖	-8153
飛機	-8154
首回	-8155
首鄉	-8156
首隻	-8157
體忠	-8158
高中	-8159
高宗	-8160
麟趾	-8161
點嗰	-8162
鼻祖	-8163
鼻韻	-8164
우동	-8165
𠵹就	-8166
,30	-8167
-11	-8168
-39	-8169
.01	-8170
.05	-8171
.14	-8172
.18	-8173
.20	-8174
.46	-8175
10,	-8176
101	-8177
106	-8178
127	-8179
134	-8180
136	-8181
147	-8182
154	-8183
192	-8184
196	-8185
2.5	-8186
201	-8187
214	-8188
233	-8189
249	-8190
25)	-8191
277	-8192
284	-8193
3.5	-8194
406	-8195
CTV	-8196
Col	-8197
Die	-8198
Ind	-8199
[],	-8200
ada	-8201
aid	-8202
ais	-8203
alk	-8204
ama	-8205
cer	-8206
col	-8207
dom	-8208
ebs	-8209
els	-8210
erg	-8211
eta	-8212
etr	-8213
gan	-8214
gei	-8215
hik	-8216
iao	-8217
ias	-8218
isp	-8219
mao	-8220
oot	-8221
ors	-8222
oul	-8223
rab	-8224
tet	-8225
tro	-8226
uen	-8227
unk	-8228
uən	-8229
van	-8230
शून	-8231
▁()	-8232
▁00	-8233
▁Ab	-8234
▁Gi	-8235
▁If	-8236
▁On	-8237
▁Si	-8238
▁Ze	-8239
▁bl	-8240
▁	-8241
嗰	-8242
,	-8243
e	-8244
1	-8245
0	-8246
a	-8247
。	-8248
t	-8249
o	-8250
r	-8251
、	-8252
2	-8253
年	-8254
係	-8255
:	-8256
i	-8257
人	-8258
n	-8259
g	-8260
)	-8261
(	-8262
到	-8263
3	-8264
y	-8265
C	-8266
6	-8267
大	-8268
h	-8269
9	-8270
一	-8271
s	-8272
5	-8273
u	-8274
4	-8275
l	-8276
8	-8277
出	-8278
國	-8279
西	-8280
江	-8281
箇	-8282
7	-8283
世	-8284
月	-8285
佢	-8286
隻	-8287
m	-8288
p	-8289
|	-8290
南	-8291
d	-8292
朝	-8293
.	-8294
事	-8295
中	-8296
c	-8297
過	-8298
有	-8299
時	-8300
間	-8301
「	-8302
」	-8303
b	-8304
縣	-8305
得	-8306
號	-8307
-	-8308
同	-8309
地	-8310
文	-8311
節	-8312
之	-8313
語	-8314
x	-8315
《	-8316
》	-8317
學	-8318
俗	-8319
家	-8320
話	-8321
生	-8322
風	-8323
第	-8324
子	-8325
日	-8326
政	-8327
十	-8328
行	-8329
頭	-8330
慶	-8331
部	-8332
東	-8333
方	-8334
習	-8335
都	-8336
慣	-8337
鄉	-8338
身	-8339
元	-8340
上	-8341
鎮	-8342
發	-8343
分	-8344
州	-8345
山	-8346
f	-8347
市	-8348
名	-8349
三	-8350
斯	-8351
k	-8352
昌	-8353
本	-8354
物	-8355
代	-8356
會	-8357
公	-8358
府	-8359
安	-8360
下	-8361
明	-8362
拕	-8363
為	-8364
王	-8365
S	-8366
外	-8367
民	-8368
寺	-8369
二	-8370
贛	-8371
後	-8372
v	-8373
w	-8374
就	-8375
北	-8376
宋	-8377
口	-8378
A	-8379
新	-8380
字	-8381
利	-8382
法	-8383
以	-8384
天	-8385
主	-8386
線	-8387
區	-8388
金	-8389
位	-8390
音	-8391
城	-8392
化	-8393
站	-8394
B	-8395
道	-8396
水	-8397
平	-8398
·	-8399
不	-8400
接	-8401
立	-8402
建	-8403
考	-8404
自	-8405
做	-8406
多	-8407
成	-8408
作	-8409
姓	-8410
/	-8411
參	-8412
史	-8413
也	-8414
來	-8415
的	-8416
言	-8417
族	-8418
美	-8419
裡	-8420
共	-8421
省	-8422
K	-8423
劃	-8424
五	-8425
用	-8426
四	-8427
正	-8428
萬	-8429
類	-8430
清	-8431
和	-8432
長	-8433
等	-8434
在	-8435
數	-8436
陽	-8437
書	-8438
镇	-8439
高	-8440
教	-8441
前	-8442
I	-8443
京	-8444
T	-8445
要	-8446
德	-8447
首	-8448
羅	-8449
古	-8450
M	-8451
英	-8452
N	-8453
最	-8454
者	-8455
"	-8456
規	-8457
經	-8458
P	-8459
湖	-8460
院	-8461
別	-8462
所	-8463
郡	-8464
理	-8465
九	-8466
管	-8467
面	-8468
叫	-8469
乡	-8470
治	-8471
華	-8472
開	-8473
而	-8474
今	-8475
通	-8476
星	-8477
D	-8478
軍	-8479
E	-8480
=	-8481
相	-8482
全	-8483
亞	-8484
;	-8485
八	-8486
漢	-8487
色	-8488
歷	-8489
石	-8490
韻	-8491
章	-8492
鏈	-8493
好	-8494
或	-8495
調	-8496
路	-8497
里	-8498
洲	-8499
總	-8500
動	-8501
義	-8502
G	-8503
吉	-8504
H	-8505
馬	-8506
科	-8507
F	-8508
門	-8509
太	-8510
常	-8511
爾	-8512
合	-8513
鐵	-8514
釋	-8515
z	-8516
加	-8517
期	-8518
小	-8519
海	-8520
宗	-8521
拉	-8522
於	-8523
R	-8524
官	-8525
起	-8526
—	-8527
六	-8528
吳	-8529
L	-8530
>	-8531
電	-8532
唐	-8533
注	-8534
界	-8535
社	-8536
廣	-8537
<	-8538
李	-8539
聲	-8540
村	-8541
%	-8542
定	-8543
像	-8544
重	-8545
可	-8546
特	-8547
表	-8548
度	-8549
師	-8550
母	-8551
原	-8552
哈	-8553
兩	-8554
曲	-8555
七	-8556
式	-8557
記	-8558
紀	-8559
故	-8560
內	-8561
嘚	-8562
阿	-8563
光	-8564
許	-8565
設	-8566
先	-8567
性	-8568
詩	-8569
樂	-8570
任	-8571
種	-8572
由	-8573
歌	-8574
黃	-8575
溪	-8576
體	-8577
其	-8578
末	-8579
資	-8580
館	-8581
指	-8582
河	-8583
滴	-8584
鮮	-8585
傳	-8586
著	-8587
應	-8588
目	-8589
比	-8590
工	-8591
庫	-8592
現	-8593
死	-8594
集	-8595
員	-8596
改	-8597
領	-8598
士	-8599
W	-8600
帝	-8601
'	-8602
張	-8603
詞	-8604
圖	-8605
堂	-8606
統	-8607
司	-8608
神	-8609
條	-8610
龍	-8611
個	-8612
白	-8613
結	-8614
街	-8615
對	-8616
進	-8617
哩	-8618
源	-8619
戰	-8620
倫	-8621
冇	-8622
朱	-8623
產	-8624
寫	-8625
片	-8626
關	-8627
形	-8628
系	-8629
武	-8630
永	-8631
件	-8632
J	-8633
百	-8634
O	-8635
土	-8636
福	-8637
網	-8638
豫	-8639
V	-8640
蘭	-8641
連	-8642
博	-8643
術	-8644
布	-8645
晉	-8646
跟	-8647
陳	-8648
議	-8649
印	-8650
氣	-8651
尼	-8652
林	-8653
基	-8654
但	-8655
入	-8656
又	-8657
器	-8658
寧	-8659
氏	-8660
#	-8661
川	-8662
田	-8663
使	-8664
女	-8665
搦	-8666
敦	-8667
料	-8668
]	-8669
非	-8670
影	-8671
屬	-8672
業	-8673
然	-8674
意	-8675
運	-8676
量	-8677
興	-8678
[	-8679
制	-8680
j	-8681
韓	-8682
始	-8683
豐	-8684
青	-8685
銀	-8686
簡	-8687
品	-8688
排	-8689
波	-8690
實	-8691
宜	-8692
銅	-8693
克	-8694
能	-8695
至	-8696
思	-8697
春	-8698
黨	-8699
佛	-8700
是	-8701
變	-8702
住	-8703
信	-8704
版	-8705
修	-8706
去	-8707
場	-8708
單	-8709
稱	-8710
素	-8711
流	-8712
因	-8713
木	-8714
心	-8715
維	-8716
舞	-8717
周	-8718
島	-8719
米	-8720
交	-8721
老	-8722
巴	-8723
早	-8724
兵	-8725
幾	-8726
達	-8727
丁	-8728
臨	-8729
撫	-8730
無	-8731
級	-8732
嘍	-8733
+	-8734
俚	-8735
格	-8736
花	-8737
劉	-8738
委	-8739
組	-8740
知	-8741
洋	-8742
球	-8743
各	-8744
歐	-8745
當	-8746
千	-8747
保	-8748
力	-8749
次	-8750
論	-8751
底	-8752
畫	-8753
報	-8754
良	-8755
督	-8756
造	-8757
攏	-8758
與	-8759
究	-8760
皇	-8761
港	-8762
塔	-8763
屋	-8764
研	-8765
派	-8766
幣	-8767
邊	-8768
崽	-8769
將	-8770
奉	-8771
手	-8772
咁	-8773
機	-8774
卡	-8775
及	-8776
景	-8777
約	-8778
仁	-8779
型	-8780
香	-8781
程	-8782
似	-8783
袖	-8784
♀	-8785
情	-8786
想	-8787
獎	-8788
聯	-8789
命	-8790
計	-8791
演	-8792
火	-8793
點	-8794
直	-8795
置	-8796
聖	-8797
質	-8798
如	-8799
歸	-8800
諾	-8801
寶	-8802
紅	-8803
客	-8804
我	-8805
沙	-8806
觀	-8807
局	-8808
樣	-8809
泰	-8810
瑞	-8811
U	-8812
奏	-8813
已	-8814
提	-8815
洪	-8816
積	-8817
志	-8818
祖	-8819
蘇	-8820
劇	-8821
佔	-8822
標	-8823
郷	-8824
空	-8825
舊	-8826
貴	-8827
址	-8828
灣	-8829
居	-8830
活	-8831
納	-8832
封	-8833
巻	-8834
希	-8835
根	-8836
卷	-8837
康	-8838
般	-8839
野	-8840
玉	-8841
貝	-8842
陵	-8843
細	-8844
舉	-8845
瑪	-8846
選	-8847
鄱	-8848
列	-8849
從	-8850
?	-8851
解	-8852
放	-8853
權	-8854
吥	-8855
展	-8856
台	-8857
象	-8858
普	-8859
橋	-8860
县	-8861
際	-8862
革	-8863
杜	-8864
真	-8865
紙	-8866
饒	-8867
禮	-8868
伯	-8869
貨	-8870
半	-8871
ō	-8872
宮	-8873
車	-8874
即	-8875
支	-8876
整	-8877
笙	-8878
說	-8879
還	-8880
濟	-8881
編	-8882
越	-8883
角	-8884
近	-8885
反	-8886
畬	-8887
初	-8888
則	-8889
容	-8890
典	-8891
服	-8892
築	-8893
示	-8894
創	-8895
琴	-8896
了	-8897
帶	-8898
!	-8899
奈	-8900
爭	-8901
隋	-8902
塘	-8903
育	-8904
必	-8905
拿	-8906
頁	-8907
尋	-8908
熊	-8909
陰	-8910
留	-8911
臺	-8912
獨	-8913
錢	-8914
威	-8915
夫	-8916
陸	-8917
團	-8918
少	-8919
廬	-8920
打	-8921
藝	-8922
“	-8923
亂	-8924
務	-8925
包	-8926
遺	-8927
茶	-8928
”	-8929
何	-8930
向	-8931
宣	-8932
男	-8933
副	-8934
功	-8935
商	-8936
国	-8937
構	-8938
牙	-8939
見	-8940
守	-8941
左	-8942
響	-8943
念	-8944
農	-8945
遠	-8946
【	-8947
】	-8948
俄	-8949
回	-8950
室	-8951
覺	-8952
夏	-8953
密	-8954
導	-8955
段	-8956
認	-8957
份	-8958
袁	-8959
譜	-8960
銘	-8961
彭	-8962
他	-8963
隆	-8964
令	-8965
哥	-8966
孫	-8967
完	-8968
裝	-8969
谷	-8970
嘞	-8971
腳	-8972
衣	-8973
°	-8974
坊	-8975
監	-8976
收	-8977
Y	-8978
廳	-8979
澤	-8980
伊	-8981
牌	-8982
竇	-8983
製	-8984
極	-8985
駐	-8986
落	-8987
q	-8988
喫	-8989
技	-8990
望	-8991
輔	-8992
्	-8993
刀	-8994
升	-8995
筆	-8996
處	-8997
辦	-8998
雲	-8999
頓	-9000
徑	-9001
黎	-9002
強	-9003
愛	-9004
臘	-9005
專	-9006
秋	-9007
餘	-9008
崇	-9009
短	-9010
胡	-9011
錄	-9012
吖	-9013
域	-9014
賢	-9015
歲	-9016
井	-9017
園	-9018
雷	-9019
『	-9020
』	-9021
干	-9022
曰	-9023
群	-9024
讀	-9025
鐘	-9026
協	-9027
降	-9028
拜	-9029
摩	-9030
奧	-9031
校	-9032
序	-9033
感	-9034
職	-9035
酒	-9036
受	-9037
君	-9038
岡	-9039
查	-9040
幅	-9041
此	-9042
央	-9043
易	-9044
算	-9045
蠻	-9046
值	-9047
梅	-9048
右	-9049
圓	-9050
薩	-9051
黑	-9052
办	-9053
喇	-9054
更	-9055
眾	-9056
泉	-9057
備	-9058
区	-9059
載	-9060
存	-9061
盤	-9062
衛	-9063
視	-9064
具	-9065
墨	-9066
每	-9067
伓	-9068
梁	-9069
毛	-9070
亦	-9071
察	-9072
樹	-9073
益	-9074
嶺	-9075
彙	-9076
町	-9077
萍	-9078
諸	-9079
護	-9080
什	-9081
戶	-9082
曼	-9083
楚	-9084
洞	-9085
牛	-9086
班	-9087
徐	-9088
果	-9089
邦	-9090
陶	-9091
據	-9092
潭	-9093
轉	-9094
價	-9095
圍	-9096
富	-9097
峰	-9098
甲	-9099
雙	-9100
楊	-9101
爺	-9102
病	-9103
被	-9104
遊	-9105
ा	-9106
徽	-9107
照	-9108
蓮	-9109
問	-9110
屆	-9111
律	-9112
蒙	-9113
善	-9114
尾	-9115
符	-9116
絕	-9117
哲	-9118
射	-9119
藥	-9120
友	-9121
尚	-9122
溫	-9123
é	-9124
例	-9125
卓	-9126
精	-9127
冕	-9128
只	-9129
喜	-9130
忠	-9131
丹	-9132
取	-9133
氧	-9134
藏	-9135
隊	-9136
頂	-9137
嘅	-9138
嚴	-9139
未	-9140
珠	-9141
于	-9142
推	-9143
葉	-9144
勒	-9145
滅	-9146
遷	-9147
食	-9148
唱	-9149
埠	-9150
致	-9151
註	-9152
麥	-9153
后	-9154
殿	-9155
營	-9156
試	-9157
轄	-9158
鄧	-9159
麗	-9160
坐	-9161
夜	-9162
榮	-9163
若	-9164
介	-9165
含	-9166
咸	-9167
塞	-9168
荷	-9169
持	-9170
皮	-9171
那	-9172
嘉	-9173
娘	-9174
增	-9175
才	-9176
殺	-9177
草	-9178
雨	-9179
獻	-9180
座	-9181
引	-9182
承	-9183
括	-9184
洛	-9185
竹	-9186
題	-9187
低	-9188
侯	-9189
另	-9190
復	-9191
批	-9192
狀	-9193
蔵	-9194
齊	-9195
層	-9196
巡	-9197
戲	-9198
曉	-9199
樓	-9200
淮	-9201
烏	-9202
範	-9203
織	-9204
–	-9205
熱	-9206
飛	-9207
繪	-9208
𠵹	-9209
並	-9210
曾	-9211
概	-9212
離	-9213
坪	-9214
墓	-9215
準	-9216
耳	-9217
鳴	-9218
仙	-9219
授	-9220
掌	-9221
曆	-9222
植	-9223
獄	-9224
背	-9225
裏	-9226
靖	-9227
魚	-9228
ŋ	-9229
尹	-9230
船	-9231
讓	-9232
較	-9233
亡	-9234
假	-9235
刻	-9236
境	-9237
橫	-9238
票	-9239
講	-9240
識	-9241
郎	-9242
喻	-9243
固	-9244
均	-9245
孝	-9246
弟	-9247
恩	-9248
誌	-9249
譯	-9250
郵	-9251
雅	-9252
埃	-9253
抗	-9254
秦	-9255
送	-9256
鄭	-9257
除	-9258
и	-9259
‐	-9260
盛	-9261
貢	-9262
醫	-9263
模	-9264
烈	-9265
聞	-9266
超	-9267
靈	-9268
核	-9269
眼	-9270
舍	-9271
趙	-9272
順	-9273
佈	-9274
占	-9275
松	-9276
篇	-9277
馆	-9278
儒	-9279
宇	-9280
桓	-9281
確	-9282
勝	-9283
旅	-9284
步	-9285
祭	-9286
端	-9287
籍	-9288
評	-9289
魯	-9290
剛	-9291
嗣	-9292
席	-9293
延	-9294
彌	-9295
懷	-9296
擔	-9297
樟	-9298
述	-9299
东	-9300
再	-9301
尊	-9302
態	-9303
津	-9304
登	-9305
限	-9306
冰	-9307
廉	-9308
曹	-9309
請	-9310
&	-9311
ا	-9312
失	-9313
店	-9314
智	-9315
深	-9316
र	-9317
差	-9318
汝	-9319
浮	-9320
父	-9321
猶	-9322
覽	-9323
賀	-9324
鋼	-9325
冊	-9326
冠	-9327
款	-9328
率	-9329
環	-9330
略	-9331
皆	-9332
絲	-9333
鼓	-9334
*	-9335
告	-9336
岸	-9337
弘	-9338
秀	-9339
索	-9340
肉	-9341
莫	-9342
諡	-9343
语	-9344
酸	-9345
久	-9346
億	-9347
壽	-9348
婆	-9349
板	-9350
繼	-9351
附	-9352
駅	-9353
麻	-9354
X	-9355
孟	-9356
攝	-9357
敬	-9358
湘	-9359
潘	-9360
仔	-9361
池	-9362
湯	-9363
玄	-9364
瓦	-9365
賓	-9366
陀	-9367
이	-9368
微	-9369
菜	-9370
裳	-9371
露	-9372
鳳	-9373
兼	-9374
滿	-9375
聚	-9376
莽	-9377
虎	-9378
这	-9379
鉛	-9380
雄	-9381
鹿	-9382
त	-9383
依	-9384
按	-9385
航	-9386
足	-9387
ā	-9388
为	-9389
佐	-9390
奇	-9391
婚	-9392
氫	-9393
礦	-9394
紹	-9395
舌	-9396
虔	-9397
謂	-9398
財	-9399
願	-9400
鷹	-9401
亚	-9402
廟	-9403
快	-9404
憲	-9405
辛	-9406
閣	-9407
余	-9408
倉	-9409
呼	-9410
往	-9411
柯	-9412
渡	-9413
瓷	-9414
走	-9415
飾	-9416
­	-9417
堅	-9418
幫	-9419
求	-9420
浙	-9421
消	-9422
淦	-9423
看	-9424
絹	-9425
茨	-9426
難	-9427
韋	-9428
а	-9429
・	-9430
乃	-9431
乾	-9432
切	-9433
峽	-9434
弋	-9435
油	-9436
猫	-9437
艾	-9438
莊	-9439
藍	-9440
鏡	-9441
丸	-9442
乘	-9443
亭	-9444
仰	-9445
兄	-9446
句	-9447
塊	-9448
御	-9449
揸	-9450
柏	-9451
桥	-9452
破	-9453
磨	-9454
親	-9455
Q	-9456
न	-9457
斷	-9458
甘	-9459
紫	-9460
續	-9461
茲	-9462
複	-9463
辭	-9464
ل	-9465
供	-9466
坑	-9467
它	-9468
房	-9469
散	-9470
桃	-9471
止	-9472
毒	-9473
淆	-9474
盧	-9475
穀	-9476
鑫	-9477
防	-9478
Z	-9479
些	-9480
婁	-9481
攻	-9482
案	-9483
證	-9484
顯	-9485
廢	-9486
徒	-9487
息	-9488
托	-9489
来	-9490
補	-9491
雜	-9492
坦	-9493
壯	-9494
季	-9495
弦	-9496
申	-9497
盡	-9498
遂	-9499
額	-9500
骨	-9501
仲	-9502
厚	-9503
盟	-9504
終	-9505
互	-9506
候	-9507
孔	-9508
廷	-9509
材	-9510
汗	-9511
燒	-9512
粉	-9513
耶	-9514
飲	-9515
鼻	-9516
乎	-9517
奎	-9518
播	-9519
歡	-9520
禪	-9521
綸	-9522
蔣	-9523
跡	-9524
配	-9525
의	-9526
ɛ	-9527
佳	-9528
唯	-9529
投	-9530
敗	-9531
棟	-9532
決	-9533
澳	-9534
異	-9535
臣	-9536
藩	-9537
負	-9538
赤	-9539
郭	-9540
일	-9541
侍	-9542
儀	-9543
巨	-9544
徵	-9545
敎	-9546
獲	-9547
祠	-9548
粵	-9549
翻	-9550
衰	-9551
週	-9552
項	-9553
且	-9554
夢	-9555
岩	-9556
己	-9557
庭	-9558
桂	-9559
桑	-9560
殖	-9561
策	-9562
菩	-9563
蓋	-9564
藤	-9565
責	-9566
迪	-9567
錫	-9568
闊	-9569
魏	-9570
黄	-9571
坡	-9572
娜	-9573
祥	-9574
肖	-9575
貞	-9576
速	-9577
驗	-9578
龙	-9579
ó	-9580
傷	-9581
冷	-9582
凡	-9583
刊	-9584
刺	-9585
勢	-9586
堡	-9587
妙	-9588
数	-9589
昆	-9590
賽	-9591
這	-9592
ū	-9593
兰	-9594
嶽	-9595
弱	-9596
慧	-9597
揚	-9598
旗	-9599
朗	-9600
灘	-9601
爆	-9602
瓜	-9603
禾	-9604
穆	-9605
聽	-9606
脫	-9607
雞	-9608
ə	-9609
会	-9610
尖	-9611
憑	-9612
森	-9613
淵	-9614
甚	-9615
裁	-9616
輯	-9617
̍	-9618
套	-9619
姆	-9620
张	-9621
擊	-9622
晚	-9623
謝	-9624
飯	-9625
鹽	-9626
俊	-9627
兒	-9628
冬	-9629
吏	-9630
壓	-9631
妃	-9632
征	-9633
惠	-9634
慈	-9635
苗	-9636
蔡	-9637
透	-9638
陂	-9639
階	-9640
á	-9641
о	-9642
併	-9643
判	-9644
唇	-9645
壁	-9646
戴	-9647
拖	-9648
柱	-9649
羽	-9650
豆	-9651
閩	-9652
阳	-9653
م	-9654
傑	-9655
拍	-9656
淡	-9657
混	-9658
菲	-9659
蟲	-9660
雪	-9661
零	-9662
鬥	-9663
ب	-9664
ن	-9665
ि	-9666
便	-9667
劍	-9668
啷	-9669
头	-9670
抵	-9671
汪	-9672
游	-9673
滋	-9674
珍	-9675
硬	-9676
翰	-9677
追	-9678
鑄	-9679
长	-9680
한	-9681
×	-9682
崗	-9683
換	-9684
晏	-9685
穿	-9686
答	-9687
純	-9688
軟	-9689
雖	-9690
齋	-9691
齒	-9692
ī	-9693
予	-9694
婺	-9695
庚	-9696
弗	-9697
燕	-9698
爵	-9699
穩	-9700
葛	-9701
隸	-9702
雕	-9703
鹼	-9704
̄	-9705
म	-9706
亮	-9707
伐	-9708
傅	-9709
勳	-9710
叔	-9711
招	-9712
擁	-9713
染	-9714
芬	-9715
血	-9716
迎	-9717
य	-9718
伢	-9719
冶	-9720
券	-9721
圈	-9722
撒	-9723
秒	-9724
童	-9725
紐	-9726
腦	-9727
輕	-9728
隱	-9729
震	-9730
í	-9731
→	-9732
乐	-9733
優	-9734
庶	-9735
搬	-9736
檢	-9737
沈	-9738
琨	-9739
疆	-9740
碳	-9741
緒	-9742
萄	-9743
葡	-9744
董	-9745
阪	-9746
霍	-9747
靜	-9748
養	-9749
̆	-9750
个	-9751
乙	-9752
卿	-9753
尉	-9754
把	-9755
控	-9756
施	-9757
緣	-9758
署	-9759
萊	-9760
衡	-9761
輪	-9762
隔	-9763
자	-9764
स	-9765
ニ	-9766
ノ	-9767
亥	-9768
助	-9769
午	-9770
廠	-9771
彩	-9772
暴	-9773
沃	-9774
況	-9775
浦	-9776
浪	-9777
电	-9778
稿	-9779
綠	-9780
肅	-9781
虛	-9782
詠	-9783
隨	-9784
马	-9785
～	-9786
偉	-9787
内	-9788
刑	-9789
堪	-9790
搾	-9791
效	-9792
泥	-9793
測	-9794
漫	-9795
燈	-9796
羊	-9797
翁	-9798
脈	-9799
融	-9800
輸	-9801
退	-9802
遍	-9803
鳥	-9804
사	-9805
ü	-9806
ي	-9807
丈	-9808
仗	-9809
勞	-9810
揮	-9811
柳	-9812
梵	-9813
碼	-9814
突	-9815
鱷	-9816
प	-9817
व	-9818
ร	-9819
兆	-9820
尺	-9821
採	-9822
描	-9823
杉	-9824
涂	-9825
禦	-9826
移	-9827
肯	-9828
芳	-9829
該	-9830
距	-9831
遇	-9832
성	-9833
ヲ	-9834
万	-9835
丘	-9836
健	-9837
兮	-9838
发	-9839
味	-9840
姜	-9841
尔	-9842
彈	-9843
戀	-9844
斎	-9845
时	-9846
棋	-9847
欲	-9848
殘	-9849
沿	-9850
番	-9851
疑	-9852
窮	-9853
紋	-9854
絡	-9855
纪	-9856
訂	-9857
訓	-9858
詹	-9859
諧	-9860
辰	-9861
邵	-9862
雩	-9863
享	-9864
侵	-9865
准	-9866
凱	-9867
啟	-9868
圩	-9869
執	-9870
敏	-9871
替	-9872
潮	-9873
私	-9874
買	-9875
貿	-9876
鍾	-9877
麟	-9878
É	-9879
à	-9880
æ	-9881
н	-9882
军	-9883
勇	-9884
喬	-9885
宿	-9886
尤	-9887
悲	-9888
拔	-9889
拼	-9890
旋	-9891
析	-9892
毫	-9893
減	-9894
熟	-9895
碑	-9896
緊	-9897
罗	-9898
苦	-9899
裔	-9900
迦	-9901
銜	-9902
靠	-9903
馮	-9904
_	-9905
企	-9906
伏	-9907
寒	-9908
昭	-9909
束	-9910
淨	-9911
添	-9912
潛	-9913
玲	-9914
璃	-9915
璋	-9916
矣	-9917
秘	-9918
股	-9919
苑	-9920
討	-9921
軌	-9922
輝	-9923
騎	-9924
休	-9925
寨	-9926
枚	-9927
祀	-9928
裕	-9929
銷	-9930
錦	-9931
鱉	-9932
선	-9933
̃	-9934
л	-9935
丰	-9936
亨	-9937
凰	-9938
召	-9939
嘆	-9940
崔	-9941
崖	-9942
待	-9943
急	-9944
恭	-9945
扁	-9946
扤	-9947
毀	-9948
泛	-9949
濁	-9950
甫	-9951
磷	-9952
糧	-9953
红	-9954
茂	-9955
茄	-9956
辣	-9957
鉀	-9958
頻	-9959
동	-9960
ì	-9961
÷	-9962
•	-9963
䋎	-9964
云	-9965
僧	-9966
兜	-9967
宸	-9968
庾	-9969
役	-9970
振	-9971
探	-9972
擦	-9973
架	-9974
粒	-9975
緯	-9976
貫	-9977
輿	-9978
문	-9979
â	-9980
в	-9981
ル	-9982
义	-9983
匯	-9984
吸	-9985
图	-9986
壇	-9987
帥	-9988
并	-9989
很	-9990
救	-9991
斗	-9992
某	-9993
殊	-9994
葬	-9995
謀	-9996
话	-9997
費	-9998
贏	-9999
逢	-10000
鶴	-10001
е	-10002
с	-10003
丞	-10004
姚	-10005
帖	-10006
庵	-10007
旦	-10008
淸	-10009
漆	-10010
潯	-10011
激	-10012
煉	-10013
煙	-10014
燃	-10015
瓶	-10016
緬	-10017
縱	-10018
繁	-10019
范	-10020
遣	-10021
鄰	-10022
鴨	-10023
齡	-10024
è	-10025
ɔ	-10026
佑	-10027
刷	-10028
勤	-10029
塑	-10030
墳	-10031
審	-10032
惡	-10033
朋	-10034
瀏	-10035
螺	-10036
襲	-10037
誠	-10038
談	-10039
蹟	-10040
连	-10041
遜	-10042
邱	-10043
ú	-10044
α	-10045
า	-10046
シ	-10047
佩	-10048
倒	-10049
借	-10050
号	-10051
奠	-10052
妹	-10053
学	-10054
将	-10055
弆	-10056
总	-10057
擺	-10058
斤	-10059
昇	-10060
沖	-10061
災	-10062
熙	-10063
盈	-10064
磚	-10065
禎	-10066
稻	-10067
蛋	-10068
裘	-10069
詔	-10070
諮	-10071
賴	-10072
酉	-10073
销	-10074
顧	-10075
餅	-10076
р	-10077
ر	-10078
ं	-10079
伍	-10080
充	-10081
呂	-10082
幹	-10083
歩	-10084
汽	-10085
灰	-10086
瑤	-10087
癸	-10088
称	-10089
綜	-10090
縮	-10091
罪	-10092
舒	-10093
舟	-10094
訊	-10095
諺	-10096
蹈	-10097
途	-10098
避	-10099
鄂	-10100
顏	-10101
스	-10102
인	-10103
조	-10104
ς	-10105
द	-10106
乳	-10107
咯	-10108
垂	-10109
埔	-10110
奪	-10111
奴	-10112
屠	-10113
床	-10114
怪	-10115
慢	-10116
柴	-10117
涼	-10118
磁	-10119
禁	-10120
累	-10121
賣	-10122
賦	-10123
軒	-10124
鈔	-10125
鋪	-10126
鎂	-10127
閃	-10128
須	-10129
가	-10130
{	-10131
ο	-10132
两	-10133
付	-10134
侈	-10135
倍	-10136
偶	-10137
喺	-10138
堯	-10139
壬	-10140
奢	-10141
娛	-10142
岛	-10143
广	-10144
恐	-10145
晶	-10146
澄	-10147
礎	-10148
稅	-10149
穌	-10150
经	-10151
缺	-10152
翊	-10153
翼	-10154
詳	-10155
诺	-10156
賞	-10157
达	-10158
雀	-10159
鬼	-10160
보	-10161
û	-10162
و	-10163
书	-10164
偏	-10165
努	-10166
卯	-10167
夷	-10168
奶	-10169
她	-10170
巧	-10171
巷	-10172
幸	-10173
沒	-10174
灌	-10175
獅	-10176
琉	-10177
給	-10178
纳	-10179
茅	-10180
蒲	-10181
薄	-10182
蝦	-10183
衙	-10184
裴	-10185
貓	-10186
遼	-10187
邀	-10188
陝	-10189
髮	-10190
鼎	-10191
@	-10192
ス	-10193
丙	-10194
伽	-10195
你	-10196
俱	-10197
劑	-10198
害	-10199
嵌	-10200
廈	-10201
戈	-10202
撤	-10203
攷	-10204
棉	-10205
榜	-10206
殷	-10207
殼	-10208
洗	-10209
濱	-10210
珥	-10211
甸	-10212
畵	-10213
秩	-10214
箱	-10215
簽	-10216
荒	-10217
蒸	-10218
蛇	-10219
諭	-10220
警	-10221
賈	-10222
賜	-10223
頒	-10224
시	-10225
ê	-10226
س	-10227
’	-10228
动	-10229
坳	-10230
培	-10231
岭	-10232
巳	-10233
帕	-10234
开	-10235
录	-10236
彰	-10237
惟	-10238
挪	-10239
捷	-10240
摸	-10241
操	-10242
栗	-10243
槍	-10244
氯	-10245
湛	-10246
筠	-10247
綏	-10248
繩	-10249
繫	-10250
耒	-10251
莎	-10252
蘆	-10253
视	-10254
訪	-10255
謙	-10256
豪	-10257
贊	-10258
赣	-10259
过	-10260
鄒	-10261
醍	-10262
醐	-10263
鉄	-10264
閉	-10265
鞋	-10266
頌	-10267
기	-10268
수	-10269
어	-10270
}	-10271
ô	-10272
壩	-10273
媒	-10274
峯	-10275
幽	-10276
惰	-10277
拯	-10278
揀	-10279
搭	-10280
擬	-10281
敘	-10282
昏	-10283
晝	-10284
毅	-10285
液	-10286
漸	-10287
煤	-10288
爲	-10289
畅	-10290
畢	-10291
睏	-10292
租	-10293
芝	-10294
藻	-10295
贈	-10296
適	-10297
録	-10298
鐸	-10299
门	-10300
鵝	-10301
默	-10302
국	-10303
다	-10304
د	-10305
串	-10306
們	-10307
允	-10308
卑	-10309
叭	-10310
宏	-10311
宙	-10312
寬	-10313
屏	-10314
幕	-10315
幻	-10316
庸	-10317
弼	-10318
徹	-10319
戊	-10320
折	-10321
擴	-10322
旁	-10323
映	-10324
暗	-10325
桐	-10326
氮	-10327
炎	-10328
炒	-10329
牧	-10330
犯	-10331
狂	-10332
现	-10333
疏	-10334
禍	-10335
練	-10336
纂	-10337
腰	-10338
荊	-10339
蕭	-10340
裂	-10341
鎌	-10342
鎭	-10343
需	-10344
霞	-10345
鴻	-10346
김	-10347
주	-10348
ι	-10349
の	-10350
仍	-10351
体	-10352
免	-10353
叉	-10354
双	-10355
吾	-10356
呢	-10357
嘴	-10358
墩	-10359
壞	-10360
宝	-10361
寅	-10362
尙	-10363
悟	-10364
戌	-10365
戸	-10366
押	-10367
掾	-10368
揭	-10369
昂	-10370
朴	-10371
梨	-10372
溝	-10373
炸	-10374
猛	-10375
玩	-10376
睛	-10377
硫	-10378
簿	-10379
粗	-10380
耕	-10381
肚	-10382
肥	-10383
腐	-10384
舷	-10385
节	-10386
課	-10387
譽	-10388
錯	-10389
风	-10390
龔	-10391
대	-10392
도	-10393
신	-10394
아	-10395
에	-10396
을	-10397
정	-10398
ö	-10399
ɑ	-10400
ʨ	-10401
λ	-10402
ρ	-10403
т	-10404
ो	-10405
儲	-10406
割	-10407
卒	-10408
叟	-10409
噸	-10410
埋	-10411
婦	-10412
孤	-10413
崎	-10414
恒	-10415
愚	-10416
扮	-10417
撰	-10418
暦	-10419
杭	-10420
杯	-10421
棄	-10422
氟	-10423
浸	-10424
溶	-10425
滕	-10426
滾	-10427
焉	-10428
瞻	-10429
禹	-10430
綱	-10431
艦	-10432
説	-10433
论	-10434
貶	-10435
进	-10436
郊	-10437
韶	-10438
驛	-10439
마	-10440
명	-10441
오	-10442
ē	-10443
к	-10444
ع	-10445
क	-10446
ज	-10447
श	-10448
ー	-10449
丑	-10450
从	-10451
勸	-10452
卦	-10453
厄	-10454
叢	-10455
否	-10456
呔	-10457
哀	-10458
塗	-10459
塚	-10460
壺	-10461
宅	-10462
幡	-10463
幼	-10464
廖	-10465
彼	-10466
恆	-10467
抄	-10468
插	-10469
斐	-10470
旨	-10471
柔	-10472
柬	-10473
样	-10474
氬	-10475
涉	-10476
漠	-10477
濕	-10478
爐	-10479
碧	-10480
笑	-10481
綴	-10482
芙	-10483
蒂	-10484
衝	-10485
貧	-10486
賊	-10487
購	-10488
赫	-10489
逆	-10490
逐	-10491
逕	-10492
鋒	-10493
间	-10494
險	-10495
預	-10496
鼠	-10497
龜	-10498
고	-10499
과	-10500
년	-10501
리	-10502
지	-10503
î	-10504
ʦ	-10505
ะ	-10506
リ	-10507
乖	-10508
乞	-10509
停	-10510
僅	-10511
兪	-10512
凌	-10513
函	-10514
华	-10515
参	-10516
嘗	-10517
圭	-10518
坎	-10519
屑	-10520
岗	-10521
廊	-10522
怫	-10523
搖	-10524
无	-10525
旺	-10526
朕	-10527
梗	-10528
械	-10529
淳	-10530
湧	-10531
狗	-10532
玻	-10533
珊	-10534
疊	-10535
着	-10536
碗	-10537
磐	-10538
祝	-10539
筑	-10540
罕	-10541
胸	-10542
腔	-10543
虞	-10544
袋	-10545
袞	-10546
襄	-10547
誕	-10548
记	-10549
豊	-10550
跌	-10551
躍	-10552
遮	-10553
鑒	-10554
陷	-10555
鹹	-10556
黻	-10557
은	-10558
하	-10559
화	-10560
π	-10561
י	-10562
ح	-10563
ू	-10564
।	-10565
ิ	-10566
เ	-10567
′	-10568
≈	-10569
ク	-10570
估	-10571
伸	-10572
兌	-10573
兴	-10574
冒	-10575
历	-10576
寸	-10577
帽	-10578
彝	-10579
戒	-10580
既	-10581
横	-10582
汉	-10583
浄	-10584
溴	-10585
煌	-10586
疾	-10587
盆	-10588
祐	-10589
笛	-10590
籌	-10591
统	-10592
肌	-10593
菊	-10594
覲	-10595
諒	-10596
词	-10597
采	-10598
鈣	-10599
鋇	-10600
鑑	-10601
阮	-10602
雍	-10603
霸	-10604
우	-10605
원	-10606
τ	-10607
ة	-10608
ی	-10609
ध	-10610
ु	-10611
ง	-10612
佬	-10613
促	-10614
僑	-10615
冥	-10616
卵	-10617
团	-10618
垓	-10619
堆	-10620
夸	-10621
尿	-10622
嶼	-10623
帳	-10624
廓	-10625
忽	-10626
扶	-10627
披	-10628
拾	-10629
掠	-10630
擱	-10631
斌	-10632
朽	-10633
椒	-10634
欽	-10635
歇	-10636
气	-10637
氙	-10638
璠	-10639
画	-10640
畿	-10641
磯	-10642
网	-10643
艮	-10644
蒔	-10645
蛟	-10646
謚	-10647
譚	-10648
豚	-10649
跨	-10650
迫	-10651
逼	-10652
鈿	-10653
餐	-10654
騰	-10655
鹵	-10656
는	-10657
여	-10658
น	-10659
ト	-10660
与	-10661
创	-10662
危	-10663
吹	-10664
喉	-10665
园	-10666
困	-10667
壤	-10668
壹	-10669
夕	-10670
夾	-10671
妻	-10672
嫡	-10673
孺	-10674
屯	-10675
岳	-10676
拓	-10677
捉	-10678
梓	-10679
浩	-10680
淑	-10681
渝	-10682
温	-10683
湊	-10684
濬	-10685
瀘	-10686
狄	-10687
獸	-10688
眉	-10689
硝	-10690
祿	-10691
稚	-10692
窯	-10693
类	-10694
翟	-10695
胞	-10696
臭	-10697
蓉	-10698
蟆	-10699
豬	-10700
貌	-10701
车	-10702
边	-10703
返	-10704
閏	-10705
閱	-10706
靴	-10707
驚	-10708
魂	-10709
남	-10710
유	-10711
중	-10712
́	-10713
ه	-10714
ः	-10715
ệ	-10716
么	-10717
伴	-10718
佮	-10719
凍	-10720
几	-10721
别	-10722
刮	-10723
勃	-10724
勘	-10725
吊	-10726
哉	-10727
坂	-10728
墾	-10729
奔	-10730
姑	-10731
姻	-10732
媽	-10733
宁	-10734
宰	-10735
寮	-10736
庄	-10737
弓	-10738
当	-10739
循	-10740
恰	-10741
憶	-10742
掛	-10743
援	-10744
撻	-10745
敢	-10746
敵	-10747
旱	-10748
槎	-10749
泊	-10750
涵	-10751
潔	-10752
灶	-10753
炭	-10754
炮	-10755
焦	-10756
牟	-10757
瑟	-10758
睦	-10759
祁	-10760
禽	-10761
競	-10762
紺	-10763
績	-10764
繞	-10765
蓝	-10766
蕾	-10767
蜀	-10768
衫	-10769
褲	-10770
调	-10771
豎	-10772
赴	-10773
跳	-10774
邑	-10775
酥	-10776
鈞	-10777
鈹	-10778
障	-10779
鞍	-10780
頸	-10781
题	-10782
黒	-10783
龕	-10784
경	-10785
뉴	-10786
서	-10787
석	-10788
~	-10789
ʯ	-10790
μ	-10791
й	-10792
ч	-10793
ج	-10794
ว	-10795
々	-10796
ん	-10797
カ	-10798
テ	-10799
关	-10800
冀	-10801
厘	-10802
吃	-10803
呈	-10804
喀	-10805
喊	-10806
坤	-10807
壟	-10808
嫁	-10809
寄	-10810
屈	-10811
庁	-10812
恢	-10813
患	-10814
抱	-10815
捐	-10816
据	-10817
擇	-10818
晨	-10819
柘	-10820
桔	-10821
棠	-10822
楓	-10823
樑	-10824
檳	-10825
欣	-10826
歴	-10827
氡	-10828
氨	-10829
沉	-10830
没	-10831
湾	-10832
濠	-10833
煥	-10834
畜	-10835
稀	-10836
綫	-10837
繡	-10838
纖	-10839
舜	-10840
莉	-10841
薦	-10842
虹	-10843
衍	-10844
许	-10845
軸	-10846
逸	-10847
鍵	-10848
鎖	-10849
鎧	-10850
铁	-10851
阜	-10852
黼	-10853
나	-10854
무	-10855
월	-10856
진	-10857
Ó	-10858
σ	-10859
ञ	-10860
พ	-10861
ั	-10862
‘	-10863
−	-10864
─	-10865
ハ	-10866
ン	-10867
丕	-10868
侃	-10869
倷	-10870
僖	-10871
削	-10872
剪	-10873
勉	-10874
匈	-10875
匠	-10876
匹	-10877
叛	-10878
吴	-10879
吻	-10880
哺	-10881
啦	-10882
圻	-10883
垃	-10884
声	-10885
夠	-10886
娶	-10887
寰	-10888
屍	-10889
属	-10890
岐	-10891
崙	-10892
巾	-10893
忍	-10894
怕	-10895
惑	-10896
惹	-10897
憐	-10898
戚	-10899
抽	-10900
斜	-10901
旒	-10902
棍	-10903
棕	-10904
淺	-10905
渠	-10906
溜	-10907
漥	-10908
漿	-10909
牡	-10910
牢	-10911
甜	-10912
盜	-10913
砂	-10914
竟	-10915
罷	-10916
艱	-10917
蠶	-10918
謔	-10919
賺	-10920
跑	-10921
輩	-10922
辯	-10923
迷	-10924
逝	-10925
遭	-10926
鄔	-10927
鈴	-10928
銓	-10929
阻	-10930
陣	-10931
霖	-10932
顎	-10933
駕	-10934
鵬	-10935
로	-10936
전	-10937
ɕ	-10938
ε	-10939
д	-10940
м	-10941
ה	-10942
ग	-10943
ह	-10944
ส	-10945
业	-10946
仅	-10947
仕	-10948
倪	-10949
倭	-10950
党	-10951
凈	-10952
剌	-10953
吐	-10954
哆	-10955
填	-10956
契	-10957
寿	-10958
峻	-10959
廿	-10960
彬	-10961
怒	-10962
怨	-10963
慕	-10964
憂	-10965
拆	-10966
摇	-10967
撞	-10968
擒	-10969
旭	-10970
昔	-10971
昨	-10972
樞	-10973
沸	-10974
滑	-10975
澎	-10976
濂	-10977
点	-10978
热	-10979
煃	-10980
熔	-10981
爱	-10982
牒	-10983
牯	-10984
献	-10985
瑣	-10986
畈	-10987
畝	-10988
療	-10989
碩	-10990
种	-10991
稽	-10992
箭	-10993
粘	-10994
綿	-10995
维	-10996
翔	-10997
脇	-10998
脊	-10999
膽	-11000
蚊	-11001
諜	-11002
謠	-11003
趣	-11004
趨	-11005
趾	-11006
蹄	-11007
輛	-11008
辨	-11009
运	-11010
还	-11011
邁	-11012
酬	-11013
链	-11014
雌	-11015
鞏	-11016
駒	-11017
제	-11018
천	-11019
ñ	-11020
ò	-11021
ù	-11022
у	-11023
া	-11024
ม	-11025
་	-11026
と	-11027
产	-11028
侗	-11029
側	-11030
傾	-11031
冈	-11032
写	-11033
剿	-11034
勵	-11035
匡	-11036
卜	-11037
吞	-11038
哪	-11039
售	-11040
坛	-11041
塾	-11042
处	-11043
复	-11044
姊	-11045
姐	-11046
媛	-11047
实	-11048
履	-11049
幀	-11050
彥	-11051
徙	-11052
恁	-11053
愈	-11054
懸	-11055
扇	-11056
撮	-11057
敖	-11058
斑	-11059
斧	-11060
暑	-11061
极	-11062
栽	-11063
框	-11064
檀	-11065
檔	-11066
毓	-11067
氖	-11068
氘	-11069
氪	-11070
泡	-11071
涌	-11072
渭	-11073
湓	-11074
滚	-11075
潑	-11076
潢	-11077
潤	-11078
濤	-11079
熹	-11080
燶	-11081
狩	-11082
狹	-11083
盒	-11084
眞	-11085
碘	-11086
窩	-11087
紗	-11088
綬	-11089
纁	-11090
翠	-11091
聶	-11092
脂	-11093
芒	-11094
芭	-11095
莲	-11096
蒼	-11097
蔽	-11098
蟹	-11099
蠟	-11100
觸	-11101
誰	-11102
踐	-11103
遞	-11104
遵	-11105
邪	-11106
針	-11107
鋅	-11108
閑	-11109
閔	-11110
閻	-11111
陡	-11112
顺	-11113
驅	-11114
군	-11115
민	-11116
해	-11117
회	-11118
Ø	-11119
ç	-11120
ɿ	-11121
ʂ	-11122
γ	-11123
η	-11124
В	-11125
х	-11126
ك	-11127
च	-11128
ช	-11129
セ	-11130
仪	-11131
卢	-11132
吧	-11133
唔	-11134
圳	-11135
塢	-11136
塵	-11137
奀	-11138
嫌	-11139
孩	-11140
对	-11141
巖	-11142
廂	-11143
弊	-11144
忙	-11145
懿	-11146
抒	-11147
挑	-11148
挖	-11149
挭	-11150
掉	-11151
掟	-11152
搜	-11153
斬	-11154
旌	-11155
条	-11156
杨	-11157
棨	-11158
櫃	-11159
氚	-11160
汀	-11161
汶	-11162
泗	-11163
渾	-11164
煬	-11165
爛	-11166
爬	-11167
爹	-11168
牽	-11169
琪	-11170
畲	-11171
症	-11172
癌	-11173
眠	-11174
硯	-11175
秉	-11176
积	-11177
稍	-11178
穴	-11179
箋	-11180
籃	-11181
粟	-11182
紳	-11183
緻	-11184
肇	-11185
肩	-11186
膠	-11187
臥	-11188
艇	-11189
荼	-11190
葵	-11191
薯	-11192
藉	-11193
蜜	-11194
訶	-11195
誤	-11196
诸	-11197
跪	-11198
蹤	-11199
躲	-11200
邏	-11201
醴	-11202
釣	-11203
銣	-11204
錐	-11205
鍶	-11206
鐳	-11207
陆	-11208
陈	-11209
雁	-11210
頃	-11211
飄	-11212
餉	-11213
饶	-11214
魔	-11215
鳩	-11216
鸞	-11217
齦	-11218
龐	-11219
감	-11220
들	-11221
양	-11222
연	-11223
Í	-11224
ã	-11225
ä	-11226
ð	-11227
œ	-11228
ɳ	-11229
β	-11230
ν	-11231
С	-11232
ण	-11233
ย	-11234
□	-11235
亲	-11236
们	-11237
仿	-11238
传	-11239
偷	-11240
儘	-11241
勿	-11242
协	-11243
员	-11244
咗	-11245
哋	-11246
啡	-11247
啵	-11248
嗒	-11249
嘎	-11250
嘛	-11251
噶	-11252
圃	-11253
夥	-11254
奖	-11255
奸	-11256
妝	-11257
姫	-11258
嬰	-11259
孙	-11260
宴	-11261
寂	-11262
寇	-11263
寢	-11264
屙	-11265
嵩	-11266
巫	-11267
廚	-11268
忌	-11269
恵	-11270
悉	-11271
慎	-11272
抓	-11273
拱	-11274
挺	-11275
掘	-11276
掩	-11277
握	-11278
損	-11279
曺	-11280
札	-11281
枝	-11282
柿	-11283
楨	-11284
櫻	-11285
沛	-11286
泄	-11287
滩	-11288
燁	-11289
牲	-11290
瑠	-11291
疫	-11292
矢	-11293
禱	-11294
穎	-11295
竺	-11296
筋	-11297
筒	-11298
箕	-11299
籠	-11300
糖	-11301
紛	-11302
线	-11303
细	-11304
翅	-11305
耍	-11306
聘	-11307
脆	-11308
腹	-11309
膏	-11310
膚	-11311
蓄	-11312
蕉	-11313
薛	-11314
蠡	-11315
覆	-11316
誇	-11317
誓	-11318
誥	-11319
諱	-11320
辟	-11321
鑴	-11322
静	-11323
駄	-11324
騒	-11325
鴉	-11326
강	-11327
당	-11328
생	-11329
영	-11330
최	-11331
𠴼	-11332
ά	-11333
δ	-11334
И	-11335
я	-11336
ब	-11337
ก	-11338
บ	-11339
ล	-11340
ุ	-11341
〔	-11342
〜	-11343
き	-11344
ム	-11345
モ	-11346
临	-11347
争	-11348
俘	-11349
傒	-11350
兇	-11351
则	-11352
刪	-11353
剋	-11354
匣	-11355
厥	-11356
咖	-11357
咬	-11358
响	-11359
啊	-11360
坝	-11361
屎	-11362
屢	-11363
岑	-11364
巢	-11365
库	-11366
强	-11367
徳	-11368
忘	-11369
懂	-11370
懋	-11371
戎	-11372
拒	-11373
措	-11374
攸	-11375
旽	-11376
昊	-11377
晦	-11378
晩	-11379
晷	-11380
暫	-11381
曜	-11382
曷	-11383
标	-11384
桶	-11385
棺	-11386
樊	-11387
橡	-11388
污	-11389
泽	-11390
浚	-11391
涅	-11392
涯	-11393
渣	-11394
渥	-11395
滉	-11396
漏	-11397
澗	-11398
濃	-11399
炫	-11400
焰	-11401
燭	-11402
狼	-11403
瑛	-11404
瓢	-11405
盼	-11406
窗	-11407
粹	-11408
糟	-11409
紡	-11410
綉	-11411
綢	-11412
綺	-11413
綾	-11414
緩	-11415
约	-11416
组	-11417
羔	-11418
耀	-11419
联	-11420
肋	-11421
腿	-11422
芫	-11423
芮	-11424
蓬	-11425
蔚	-11426
薨	-11427
蝕	-11428
覚	-11429
见	-11430
觐	-11431
誅	-11432
讚	-11433
让	-11434
豈	-11435
賭	-11436
軀	-11437
轨	-11438
逃	-11439
鄡	-11440
酵	-11441
醉	-11442
醜	-11443
醬	-11444
鉍	-11445
鍋	-11446
鑿	-11447
閘	-11448
闖	-11449
闢	-11450
闻	-11451
队	-11452
霧	-11453
騷	-11454
鬍	-11455
鷺	-11456
麵	-11457
계	-11458
구	-11459
레	-11460
박	-11461
상	-11462
세	-11463
소	-11464
왕	-11465
용	-11466
윤	-11467
재	-11468
청	-11469
ë	-11470
ɒ	-11471
̩	-11472
ό	-11473
К	-11474
М	-11475
з	-11476
ц	-11477
ו	-11478
ר	-11479
ت	-11480
ष	-11481
จ	-11482
ด	-11483
ธ	-11484
์	-11485
ᠠ	-11486
〉	-11487
〕	-11488
う	-11489
ち	-11490
ナ	-11491
ラ	-11492
レ	-11493
乌	-11494
侄	-11495
偽	-11496
儿	-11497
冑	-11498
刁	-11499
划	-11500
勅	-11501
单	-11502
咄	-11503
哦	-11504
哭	-11505
喪	-11506
圣	-11507
圹	-11508
场	-11509
埼	-11510
堤	-11511
奥	-11512
奮	-11513
嬴	-11514
宦	-11515
崬	-11516
嵐	-11517
巽	-11518
带	-11519
庆	-11520
归	-11521
慮	-11522
慰	-11523
扯	-11524
抨	-11525
拌	-11526
捲	-11527
摘	-11528
摧	-11529
撥	-11530
显	-11531
暎	-11532
曠	-11533
曬	-11534
株	-11535
梯	-11536
棚	-11537
椅	-11538
楷	-11539
歧	-11540
毗	-11541
氦	-11542
洙	-11543
浜	-11544
淩	-11545
滂	-11546
澹	-11547
炳	-11548
煩	-11549
煮	-11550
牆	-11551
状	-11552
琦	-11553
琬	-11554
瑜	-11555
璜	-11556
皂	-11557
矩	-11558
砹	-11559
碎	-11560
磺	-11561
窟	-11562
筍	-11563
篡	-11564
絳	-11565
纤	-11566
级	-11567
罰	-11568
羯	-11569
耐	-11570
肆	-11571
膝	-11572
舅	-11573
芑	-11574
芦	-11575
苏	-11576
菴	-11577
蓼	-11578
蔬	-11579
蕪	-11580
蘋	-11581
衆	-11582
衢	-11583
覃	-11584
諶	-11585
计	-11586
貼	-11587
踏	-11588
躬	-11589
迅	-11590
远	-11591
違	-11592
鈁	-11593
鋰	-11594
閒	-11595
闕	-11596
陪	-11597
鞭	-11598
頤	-11599
顛	-11600
飢	-11601
飽	-11602
鲁	-11603
鵠	-11604
간	-11605
겨	-11606
관	-11607
란	-11608
씨	-11609
와	-11610
종	-11611
호	-11612
홍	-11613
ɐ	-11614
ɥ	-11615
Σ	-11616
ί	-11617
φ	-11618
П	-11619
Р	-11620
г	-11621
ב	-11622
ש	-11623
ف	-11624
थ	-11625
ल	-11626
ी	-11627
े	-11628
ต	-11629
ศ	-11630
ี	-11631
↑	-11632
〈	-11633
に	-11634
ア	-11635
タ	-11636
专	-11637
丟	-11638
仇	-11639
伶	-11640
侶	-11641
倡	-11642
偕	-11643
傘	-11644
債	-11645
償	-11646
兔	-11647
凤	-11648
剝	-11649
劣	-11650
匪	-11651
卻	-11652
厊	-11653
厏	-11654
吟	-11655
听	-11656
哒	-11657
喝	-11658
嗅	-11659
墺	-11660
夭	-11661
妖	-11662
娥	-11663
宵	-11664
屁	-11665
帯	-11666
应	-11667
弥	-11668
弧	-11669
弹	-11670
彎	-11671
彪	-11672
恨	-11673
恪	-11674
悅	-11675
悔	-11676
憤	-11677
找	-11678
拇	-11679
拢	-11680
挨	-11681
捕	-11682
撐	-11683
撾	-11684
昪	-11685
术	-11686
杰	-11687
柄	-11688
槐	-11689
泌	-11690
浯	-11691
淹	-11692
満	-11693
溥	-11694
滬	-11695
滮	-11696
漂	-11697
炙	-11698
烒	-11699
爪	-11700
獵	-11701
瑚	-11702
産	-11703
甩	-11704
瞭	-11705
矽	-11706
码	-11707
祇	-11708
祈	-11709
祗	-11710
稟	-11711
竿	-11712
篆	-11713
篤	-11714
簾	-11715
糕	-11716
縉	-11717
縫	-11718
繆	-11719
给	-11720
羣	-11721
胎	-11722
胛	-11723
膨	-11724
臻	-11725
艺	-11726
获	-11727
菌	-11728
萌	-11729
蔥	-11730
薪	-11731
虐	-11732
虜	-11733
襪	-11734
訟	-11735
証	-11736
誘	-11737
誺	-11738
该	-11739
貪	-11740
质	-11741
贵	-11742
跏	-11743
輒	-11744
輻	-11745
遽	-11746
醒	-11747
鈉	-11748
鈏	-11749
鈕	-11750
鋤	-11751
錶	-11752
霜	-11753
霽	-11754
项	-11755
顿	-11756
魁	-11757
麼	-11758
공	-11759
송	-11760
안	-11761
앙	-11762
애	-11763
역	-11764
위	-11765
임	-11766
$	-11767
Đ	-11768
ơ	-11769
ư	-11770
ǎ	-11771
Π	-11772
έ	-11773
ή	-11774
ω	-11775
Б	-11776
Д	-11777
Н	-11778
Ф	-11779
ь	-11780
ְ	-11781
ִ	-11782
א	-11783
ל	-11784
ท	-11785
อ	-11786
ᠬ	-11787
ộ	-11788
―	-11789
■	-11790
が	-11791
く	-11792
こ	-11793
し	-11794
す	-11795
ま	-11796
キ	-11797
サ	-11798
チ	-11799
ッ	-11800
ヘ	-11801
严	-11802
丧	-11803
丩	-11804
举	-11805
侧	-11806
傢	-11807
僉	-11808
僕	-11809
劈	-11810
勁	-11811
勾	-11812
匿	-11813
厲	-11814
变	-11815
呷	-11816
啓	-11817
啞	-11818
喵	-11819
嚼	-11820
埈	-11821
壘	-11822
妳	-11823
婭	-11824
宕	-11825
寻	-11826
峡	-11827
崩	-11828
廻	-11829
弄	-11830
怀	-11831
恣	-11832
惜	-11833
愅	-11834
懐	-11835
懶	-11836
懼	-11837
战	-11838
扬	-11839
抑	-11840
抹	-11841
掃	-11842
揖	-11843
搉	-11844
搞	-11845
搶	-11846
摣	-11847
撲	-11848
擾	-11849
敲	-11850
敷	-11851
旬	-11852
昧	-11853
晃	-11854
暖	-11855
暢	-11856
机	-11857
杀	-11858
杖	-11859
栃	-11860
桌	-11861
棧	-11862
椿	-11863
樁	-11864
櫓	-11865
櫪	-11866
欺	-11867
毳	-11868
氛	-11869
洩	-11870
洽	-11871
淀	-11872
淫	-11873
滸	-11874
漲	-11875
潦	-11876
濫	-11877
炊	-11878
焚	-11879
煞	-11880
熾	-11881
牋	-11882
牘	-11883
犁	-11884
犬	-11885
犹	-11886
玫	-11887
瑩	-11888
瑰	-11889
甌	-11890
甯	-11891
畔	-11892
瘋	-11893
盎	-11894
睡	-11895
睺	-11896
砲	-11897
硃	-11898
礙	-11899
礼	-11900
稲	-11901
笄	-11902
箬	-11903
簷	-11904
粥	-11905
緋	-11906
繹	-11907
缸	-11908
罵	-11909
羹	-11910
翹	-11911
肝	-11912
肺	-11913
脹	-11914
腭	-11915
膀	-11916
茗	-11917
荣	-11918
莘	-11919
莱	-11920
萨	-11921
蕃	-11922
蕙	-11923
薇	-11924
蘿	-11925
虧	-11926
蠅	-11927
衷	-11928
裙	-11929
裨	-11930
褒	-11931
襖	-11932
訴	-11933
誣	-11934
諷	-11935
謄	-11936
譲	-11937
议	-11938
说	-11939
谱	-11940
賠	-11941
賤	-11942
资	-11943
赦	-11944
跋	-11945
踢	-11946
载	-11947
迭	-11948
逑	-11949
酃	-11950
釀	-11951
銫	-11952
錘	-11953
鍍	-11954
鏟	-11955
鑊	-11956
钟	-11957
閥	-11958
际	-11959
陜	-11960
霄	-11961
靚	-11962
靡	-11963
韩	-11964
頗	-11965
颂	-11966
频	-11967
鱼	-11968
鴿	-11969
齶	-11970
교	-11971
규	-11972
그	-11973
길	-11974
내	-11975
니	-11976
더	-11977
데	-11978
람	-11979
비	-11980
산	-11981
음	-11982
적	-11983
책	-11984
충	-11985
친	-11986
트	-11987
학	-11988
행	-11989
후	-11990
ß	-11991
ï	-11992
ǐ	-11993
ʐ	-11994
Ε	-11995
Μ	-11996
κ	-11997
Л	-11998
О	-11999
Т	-12000
б	-12001
ָ	-12002
ד	-12003
מ	-12004
أ	-12005
ذ	-12006
ش	-12007
ط	-12008
ق	-12009
ّ	-12010
़	-12011
ृ	-12012
্	-12013
ข	-12014
ạ	-12015
ố	-12016
†	-12017
↓	-12018
〇	-12019
い	-12020
る	-12021
両	-12022
乍	-12023
乔	-12024
乜	-12025
佚	-12026
俐	-12027
俠	-12028
偈	-12029
偗	-12030
儼	-12031
冤	-12032
决	-12033
凝	-12034
劫	-12035
匾	-12036
呵	-12037
咦	-12038
哇	-12039
啲	-12040
啼	-12041
嗱	-12042
嚇	-12043
堈	-12044
堎	-12045
堵	-12046
妾	-12047
姿	-12048
孛	-12049
宾	-12050
岁	-12051
峨	-12052
庖	-12053
庙	-12054
怎	-12055
慌	-12056
懲	-12057
戍	-12058
扭	-12059
报	-12060
拙	-12061
挾	-12062
揣	-12063
搏	-12064
撿	-12065
擅	-12066
擋	-12067
擢	-12068
攜	-12069
攢	-12070
晓	-12071
曳	-12072
朵	-12073
杌	-12074
枋	-12075
枫	-12076
棗	-12077
棲	-12078
椎	-12079
楑	-12080
楼	-12081
橘	-12082
檐	-12083
檬	-12084
檸	-12085
櫥	-12086
欠	-12087
欧	-12088
歳	-12089
残	-12090
氕	-12091
氹	-12092
汁	-12093
沌	-12094
沾	-12095
泳	-12096
济	-12097
涇	-12098
淚	-12099
渼	-12100
溉	-12101
溢	-12102
漁	-12103
澀	-12104
澧	-12105
澱	-12106
瀋	-12107
瀧	-12108
瀨	-12109
烹	-12110
煎	-12111
煜	-12112
燦	-12113
爷	-12114
爸	-12115
狐	-12116
猿	-12117
琛	-12118
瑙	-12119
瑬	-12120
瓊	-12121
畠	-12122
瘦	-12123
皖	-12124
盘	-12125
睿	-12126
瞎	-12127
矇	-12128
砍	-12129
硒	-12130
磬	-12131
礁	-12132
祚	-12133
祺	-12134
禅	-12135
禧	-12136
秤	-12137
筷	-12138
简	-12139
箴	-12140
簧	-12141
糜	-12142
紮	-12143
繒	-12144
纓	-12145
羌	-12146
耆	-12147
聊	-12148
聰	-12149
脅	-12150
脚	-12151
腓	-12152
臂	-12153
臟	-12154
舄	-12155
舖	-12156
艙	-12157
芻	-12158
芽	-12159
苔	-12160
莖	-12161
菁	-12162
蕩	-12163
蘊	-12164
蝶	-12165
褯	-12166
观	-12167
訣	-12168
詑	-12169
詢	-12170
詣	-12171
詮	-12172
詰	-12173
誦	-12174
謁	-12175
謎	-12176
诗	-12177
豹	-12178
貽	-12179
贤	-12180
躯	-12181
軾	-12182
轎	-12183
较	-12184
辜	-12185
迴	-12186
选	-12187
逊	-12188
遗	-12189
邯	-12190
酋	-12191
酪	-12192
釗	-12193
銖	-12194
銳	-12195
鎔	-12196
鑽	-12197
铜	-12198
银	-12199
险	-12200
隍	-12201
隴	-12202
难	-12203
雇	-12204
靑	-12205
餓	-12206
馨	-12207
駭	-12208
驕	-12209
鬆	-12210
鬱	-12211
魄	-12212
鷩	-12213
鸭	-12214
鹅	-12215
麒	-12216
齿	-12217
건	-12218
광	-12219
권	-12220
노	-12221
를	-12222
모	-12223
미	-12224
방	-12225
백	-12226
부	-12227
삼	-12228
숙	-12229
심	-12230
왜	-12231
육	-12232
젠	-12233
준	-12234
참	-12235
창	-12236
춘	-12237
치	-12238
포	-12239
헌	-12240
혜	-12241
¿	-12242
Ö	-12243
ý	-12244
ł	-12245
Ō	-12246
Ś	-12247
Ǿ	-12248
ʼ	-12249
χ	-12250
А	-12251
п	-12252
ֶ	-12253
ע	-12254
خ	-12255
ز	-12256
ص	-12257
ى	-12258
अ	-12259
ন	-12260
ป	-12261
้	-12262
ະ	-12263
າ	-12264
ོ	-12265
ი	-12266
ᠨ	-12267
ễ	-12268
ự	-12269
€	-12270
じ	-12271
た	-12272
び	-12273
も	-12274
ジ	-12275
ド	-12276
ヒ	-12277
ヨ	-12278
丛	-12279
丽	-12280
乏	-12281
仂	-12282
仄	-12283
优	-12284
伙	-12285
佤	-12286
侲	-12287
俵	-12288
俾	-12289
倚	-12290
倬	-12291
倲	-12292
傞	-12293
催	-12294
冢	-12295
剑	-12296
勋	-12297
匐	-12298
匝	-12299
咨	-12300
咭	-12301
喚	-12302
嗎	-12303
嗯	-12304
噴	-12305
囉	-12306
圯	-12307
坮	-12308
奘	-12309
妥	-12310
妲	-12311
姬	-12312
娃	-12313
嫩	-12314
孽	-12315
宛	-12316
宫	-12317
寡	-12318
寵	-12319
导	-12320
尽	-12321
屄	-12322
岱	-12323
崧	-12324
嶠	-12325
巍	-12326
帷	-12327
幢	-12328
庐	-12329
廁	-12330
廨	-12331
弁	-12332
応	-12333
怖	-12334
怜	-12335
恥	-12336
憾	-12337
户	-12338
护	-12339
拳	-12340
拵	-12341
挂	-12342
捆	-12343
捌	-12344
掐	-12345
摔	-12346
摺	-12347
撓	-12348
撣	-12349
攤	-12350
敕	-12351
斫	-12352
晋	-12353
晴	-12354
暇	-12355
暉	-12356
曄	-12357
曇	-12358
杏	-12359
枓	-12360
枕	-12361
枪	-12362
枯	-12363
树	-12364
栖	-12365
桿	-12366
棒	-12367
棵	-12368
棻	-12369
榖	-12370
榨	-12371
槃	-12372
槳	-12373
槽	-12374
樸	-12375
橙	-12376
欄	-12377
欛	-12378
歪	-12379
歿	-12380
汤	-12381
沅	-12382
沫	-12383
洵	-12384
淘	-12385
渚	-12386
渤	-12387
溯	-12388
滄	-12389
滯	-12390
漾	-12391
潟	-12392
澇	-12393
澡	-12394
濞	-12395
瀕	-12396
瀟	-12397
灑	-12398
炬	-12399
烊	-12400
煠	-12401
燽	-12402
爰	-12403
犀	-12404
猜	-12405
琰	-12406
瓣	-12407
痛	-12408
癡	-12409
皓	-12410
盲	-12411
県	-12412
矮	-12413
碟	-12414
碰	-12415
磉	-12416
禿	-12417
秭	-12418
穫	-12419
窖	-12420
窣	-12421
筌	-12422
筐	-12423
筱	-12424
篠	-12425
簕	-12426
縛	-12427
结	-12428
编	-12429
缩	-12430
羂	-12431
羲	-12432
肛	-12433
胤	-12434
腡	-12435
腸	-12436
膳	-12437
苟	-12438
茵	-12439
莆	-12440
菍	-12441
菖	-12442
菱	-12443
营	-12444
葫	-12445
蔭	-12446
薑	-12447
虍	-12448
虽	-12449
蚣	-12450
蚩	-12451
蜂	-12452
螼	-12453
蠲	-12454
袈	-12455
装	-12456
裟	-12457
褐	-12458
襯	-12459
覧	-12460
规	-12461
託	-12462
診	-12463
誉	-12464
謨	-12465
讣	-12466
讳	-12467
设	-12468
谥	-12469
谿	-12470
豌	-12471
豔	-12472
貳	-12473
賄	-12474
赖	-12475
軼	-12476
轻	-12477
辅	-12478
辍	-12479
辱	-12480
迁	-12481
迄	-12482
鄕	-12483
醇	-12484
醮	-12485
釉	-12486
釵	-12487
鈍	-12488
鋁	-12489
錒	-12490
鍛	-12491
鐮	-12492
铅	-12493
问	-12494
頑	-12495
顆	-12496
饭	-12497
馴	-12498
駛	-12499
驍	-12500
鮑	-12501
鯉	-12502
鯨	-12503
鶯	-12504
麦	-12505
黆	-12506
거	-12507
게	-12508
균	-12509
까	-12510
단	-12511
되	-12512
두	-12513
래	-12514
랜	-12515
말	-12516
물	-12517
봉	-12518
순	-12519
실	-12520
요	-12521
죽	-12522
집	-12523
체	-12524
태	-12525
풍	-12526
향	-12527
허	-12528
혁	-12529
현	-12530
형	-12531
희	-12532
¡	-12533
±	-12534
Á	-12535
Â	-12536
Ô	-12537
Ü	-12538
đ	-12539
ɲ	-12540
ʅ	-12541
ʥ	-12542
Α	-12543
Τ	-12544
Χ	-12545
θ	-12546
І	-12547
Г	-12548
ф	-12549
ъ	-12550
ы	-12551
ַ	-12552
ּ	-12553
ׁ	-12554
ת	-12555
ض	-12556
غ	-12557
پ	-12558
इ	-12559
ख	-12560
भ	-12561
॒	-12562
ল	-12563
൹	-12564
ค	-12565
ภ	-12566
ห	-12567
็	-12568
བ	-12569
ᠭ	-12570
ᠲ	-12571
ấ	-12572
ậ	-12573
ồ	-12574
Ἀ	-12575
╱	-12576
で	-12577
や	-12578
ゅ	-12579
り	-12580
を	-12581
ツ	-12582
バ	-12583
フ	-12584
マ	-12585
ャ	-12586
ロ	-12587
ヶ	-12588
㧾	-12589
丝	-12590
习	-12591
亏	-12592
仆	-12593
众	-12594
佘	-12595
俞	-12596
俟	-12597
俸	-12598
傖	-12599
傲	-12600
僭	-12601
僮	-12602
儡	-12603
儸	-12604
兹	-12605
册	-12606
凯	-12607
凳	-12608
凹	-12609
刃	-12610
剧	-12611
励	-12612
卫	-12613
卸	-12614
厅	-12615
厭	-12616
厾	-12617
叙	-12618
叻	-12619
吼	-12620
呆	-12621
呜	-12622
咀	-12623
咆	-12624
咩	-12625
咪	-12626
咳	-12627
咽	-12628
哨	-12629
唆	-12630
喃	-12631
喘	-12632
嗓	-12633
嘶	-12634
嘻	-12635
塅	-12636
墊	-12637
壠	-12638
壮	-12639
夔	-12640
夙	-12641
夹	-12642
姀	-12643
姦	-12644
嫑	-12645
嬉	-12646
孚	-12647
寞	-12648
専	-12649
峙	-12650
巒	-12651
巔	-12652
帙	-12653
庇	-12654
廩	-12655
彦	-12656
径	-12657
徛	-12658
忿	-12659
怡	-12660
悍	-12661
悠	-12662
惱	-12663
惶	-12664
愁	-12665
慨	-12666
慾	-12667
截	-12668
扎	-12669
扣	-12670
拐	-12671
拧	-12672
拽	-12673
挫	-12674
捧	-12675
捺	-12676
揢	-12677
摄	-12678
撇	-12679
撏	-12680
擄	-12681
擎	-12682
擠	-12683
攀	-12684
斛	-12685
斥	-12686
昵	-12687
晞	-12688
曙	-12689
杆	-12690
杵	-12691
杷	-12692
枇	-12693
枉	-12694
梘	-12695
梧	-12696
梭	-12697
棘	-12698
棣	-12699
棱	-12700
楠	-12701
楽	-12702
榆	-12703
樵	-12704
檜	-12705
檯	-12706
檻	-12707
櫛	-12708
欒	-12709
殆	-12710
汊	-12711
汕	-12712
汭	-12713
汾	-12714
沼	-12715
泣	-12716
浔	-12717
浴	-12718
润	-12719
渦	-12720
湄	-12721
溺	-12722
滁	-12723
漕	-12724
漱	-12725
潞	-12726
灵	-12727
燥	-12728
爽	-12729
狮	-12730
猩	-12731
猴	-12732
玕	-12733
玛	-12734
珀	-12735
琳	-12736
琵	-12737
琶	-12738
璐	-12739
璞	-12740
璟	-12741
瓮	-12742
甴	-12743
畀	-12744
畏	-12745
畧	-12746
疇	-12747
痕	-12748
癆	-12749
皈	-12750
皋	-12751
皺	-12752
盂	-12753
盔	-12754
眏	-12755
眯	-12756
瞌	-12757
矛	-12758
矯	-12759
硌	-12760
祟	-12761
秧	-12762
稠	-12763
稣	-12764
稷	-12765
穰	-12766
穹	-12767
窑	-12768
窝	-12769
窪	-12770
筲	-12771
篁	-12772
篩	-12773
簍	-12774
簪	-12775
糾	-12776
絞	-12777
絮	-12778
絺	-12779
綁	-12780
緑	-12781
緞	-12782
緹	-12783
縄	-12784
繳	-12785
纏	-12786
终	-12787
继	-12788
绿	-12789
翡	-12790
耗	-12791
聾	-12792
肱	-12793
胃	-12794
胱	-12795
脯	-12796
腊	-12797
腕	-12798
腺	-12799
膜	-12800
膺	-12801
臬	-12802
舫	-12803
舵	-12804
艷	-12805
芋	-12806
芯	-12807
茹	-12808
荃	-12809
荔	-12810
荘	-12811
荽	-12812
莝	-12813
菢	-12814
萵	-12815
葦	-12816
蒞	-12817
藕	-12818
蚱	-12819
蛙	-12820
蜇	-12821
蝙	-12822
蟠	-12823
蠍	-12824
蠢	-12825
衞	-12826
衽	-12827
衿	-12828
袍	-12829
裸	-12830
襆	-12831
觉	-12832
詒	-12833
詭	-12834
謊	-12835
謹	-12836
请	-12837
读	-12838
販	-12839
貸	-12840
贅	-12841
赞	-12842
趕	-12843
踭	-12844
轅	-12845
辑	-12846
迥	-12847
迹	-12848
遲	-12849
邓	-12850
郴	-12851
鄴	-12852
醋	-12853
釘	-12854
釷	-12855
鈦	-12856
鉑	-12857
鉢	-12858
銥	-12859
鋳	-12860
錆	-12861
鍤	-12862
鎢	-12863
鑭	-12864
镜	-12865
閭	-12866
闔	-12867
闲	-12868
阴	-12869
隅	-12870
随	-12871
雯	-12872
雹	-12873
頰	-12874
飩	-12875
飭	-12876
餑	-12877
餛	-12878
餡	-12879
餾	-12880
饰	-12881
馱	-12882
驁	-12883
驌	-12884
鬃	-12885
魅	-12886
鰍	-12887
鳶	-12888
鹰	-12889
麓	-12890
麾	-12891
黍	-12892
黔	-12893
齣	-12894
龈	-12895
누	-12896
담	-12897
덕	-12898
독	-12899
라	-12900
려	-12901
르	-12902
매	-12903
묘	-12904
배	-12905
범	-12906
변	-12907
북	-12908
설	-12909
속	-12910
승	-12911
완	-12912
운	-12913
으	-12914
익	-12915
있	-12916
작	-12917
족	-12918
차	-12919
추	-12920
터	-12921
투	-12922
파	-12923
항	-12924
혼	-12925
황	-12926
히	-12927
𠱽	-12928
𦑃	-12929
\	-12930
^	-12931
Å	-12932
Æ	-12933
Î	-12934
Ú	-12935
ø	-12936
ĩ	-12937
ż	-12938
ǒ	-12939
ɜ	-12940
ʁ	-12941
ʈ	-12942
ʣ	-12943
ʻ	-12944
ˈ	-12945
̪	-12946
Ζ	-12947
Ι	-12948
Κ	-12949
Λ	-12950
Ω	-12951
ξ	-12952
ύ	-12953
Є	-12954
Е	-12955
З	-12956
Х	-12957
Ц	-12958
Ч	-12959
Ъ	-12960
ё	-12961
ׂ	-12962
ז	-12963
ח	-12964
כ	-12965
ם	-12966
ן	-12967
נ	-12968
צ	-12969
ק	-12970
ئ	-12971
ہ	-12972
ट	-12973
ड	-12974
দ	-12975
ম	-12976
র	-12977
ச	-12978
ி	-12979
்	-12980
ญ	-12981
ษ	-12982
ู	-12983
ຊ	-12984
ປ	-12985
ລ	-12986
ང	-12987
ས	-12988
ე	-12989
ს	-12990
ᆞ	-12991
ᠢ	-12992
ṇ	-12993
ả	-12994
ầ	-12995
∅	-12996
☉	-12997
☿	-12998
♂	-12999
♃	-13000
♄	-13001
♆	-13002
あ	-13003
ご	-13004
は	-13005
み	-13006
む	-13007
ゆ	-13008
ょ	-13009
ら	-13010
わ	-13011
イ	-13012
ガ	-13013
ケ	-13014
パ	-13015
ミ	-13016
㫰	-13017
㴫	-13018
㸅	-13019
亙	-13020
亳	-13021
亿	-13022
仃	-13023
仮	-13024
价	-13025
伉	-13026
伦	-13027
佟	-13028
佯	-13029
侏	-13030
侖	-13031
俏	-13032
俛	-13033
俧	-13034
倶	-13035
傀	-13036
傍	-13037
傣	-13038
傻	-13039
僄	-13040
僚	-13041
僻	-13042
儉	-13043
儷	-13044
儺	-13045
冯	-13046
凑	-13047
処	-13048
击	-13049
刘	-13050
刹	-13051
剃	-13052
剖	-13053
劔	-13054
勛	-13055
勺	-13056
勻	-13057
匙	-13058
匱	-13059
厦	-13060
厨	-13061
吗	-13062
呀	-13063
咏	-13064
哮	-13065
唉	-13066
唦	-13067
啃	-13068
啤	-13069
喙	-13070
喧	-13071
嗜	-13072
嗲	-13073
嘔	-13074
嘟	-13075
嘩	-13076
嘯	-13077
嘰	-13078
噱	-13079
嚟	-13080
嚳	-13081
囑	-13082
囚	-13083
圆	-13084
坞	-13085
坨	-13086
坼	-13087
垢	-13088
垣	-13089
堀	-13090
堶	-13091
堺	-13092
墜	-13093
墮	-13094
墻	-13095
壄	-13096
备	-13097
変	-13098
夬	-13099
妓	-13100
妮	-13101
姙	-13102
姨	-13103
姪	-13104
婉	-13105
婿	-13106
媚	-13107
媳	-13108
嬌	-13109
嬎	-13110
孰	-13111
宓	-13112
寓	-13113
寛	-13114
尬	-13115
尷	-13116
尸	-13117
届	-13118
嶄	-13119
帆	-13120
帛	-13121
帮	-13122
幟	-13123
広	-13124
庯	-13125
异	-13126
弈	-13127
彫	-13128
徊	-13129
徘	-13130
忻	-13131
悶	-13132
惯	-13133
惲	-13134
愓	-13135
慘	-13136
慚	-13137
懇	-13138
懈	-13139
戏	-13140
戟	-13141
戦	-13142
戳	-13143
扒	-13144
扚	-13145
抚	-13146
抛	-13147
担	-13148
拈	-13149
拋	-13150
拗	-13151
挽	-13152
捨	-13153
揞	-13154
搲	-13155
摯	-13156
摹	-13157
撈	-13158
撘	-13159
擟	-13160
擧	-13161
攠	-13162
敝	-13163
斃	-13164
斢	-13165
旃	-13166
旧	-13167
昀	-13168
昉	-13169
昺	-13170
暈	-13171
暠	-13172
暮	-13173
曝	-13174
朔	-13175
权	-13176
杠	-13177
杪	-13178
构	-13179
枧	-13180
柑	-13181
柵	-13182
査	-13183
栓	-13184
梦	-13185
楔	-13186
楞	-13187
榔	-13188
榭	-13189
榴	-13190
榻	-13191
樽	-13192
橢	-13193
檄	-13194
歉	-13195
歹	-13196
殉	-13197
毕	-13198
氈	-13199
汇	-13200
汞	-13201
汴	-13202
沁	-13203
沂	-13204
沱	-13205
沽	-13206
洹	-13207
浊	-13208
浣	-13209
涕	-13210
涮	-13211
涿	-13212
淪	-13213
渴	-13214
湁	-13215
湿	-13216
滔	-13217
滲	-13218
潰	-13219
潽	-13220
澆	-13221
澈	-13222
濡	-13223
瀉	-13224
瀝	-13225
瀲	-13226
瀾	-13227
炱	-13228
煊	-13229
熏	-13230
熨	-13231
燉	-13232
燜	-13233
燾	-13234
爨	-13235
犧	-13236
狎	-13237
狠	-13238
猪	-13239
猾	-13240
玖	-13241
珂	-13242
琅	-13243
瑋	-13244
瑯	-13245
瑶	-13246
璇	-13247
璽	-13248
瓚	-13249
甕	-13250
畑	-13251
疯	-13252
痘	-13253
痧	-13254
瘴	-13255
瘸	-13256
癢	-13257
皿	-13258
监	-13259
盖	-13260
盪	-13261
盾	-13262
眥	-13263
眷	-13264
睇	-13265
睍	-13266
瞄	-13267
瞞	-13268
矶	-13269
砷	-13270
硼	-13271
碌	-13272
碓	-13273
碣	-13274
磕	-13275
礫	-13276
礱	-13277
祓	-13278
禄	-13279
禔	-13280
稼	-13281
窄	-13282
窒	-13283
竊	-13284
笠	-13285
笪	-13286
筵	-13287
籬	-13288
籲	-13289
粤	-13290
糍	-13291
糠	-13292
糯	-13293
糸	-13294
紂	-13295
紘	-13296
絨	-13297
綰	-13298
緝	-13299
繕	-13300
纔	-13301
纬	-13302
纯	-13303
绘	-13304
续	-13305
综	-13306
罐	-13307
罔	-13308
羚	-13309
羡	-13310
耽	-13311
耿	-13312
肢	-13313
肴	-13314
胜	-13315
脩	-13316
腎	-13317
腑	-13318
腥	-13319
腫	-13320
膩	-13321
臉	-13322
臊	-13323
臼	-13324
舁	-13325
舂	-13326
舶	-13327
芾	-13328
茉	-13329
茭	-13330
荻	-13331
菇	-13332
萃	-13333
萎	-13334
萝	-13335
葆	-13336
蔴	-13337
蔸	-13338
蕹	-13339
薸	-13340
虯	-13341
蚌	-13342
蛛	-13343
蜒	-13344
蝠	-13345
蝴	-13346
蝸	-13347
蟾	-13348
袂	-13349
裼	-13350
褥	-13351
襟	-13352
襠	-13353
訛	-13354
詐	-13355
読	-13356
諍	-13357
謬	-13358
謰	-13359
謱	-13360
讃	-13361
认	-13362
训	-13363
谈	-13364
谕	-13365
谜	-13366
豇	-13367
豉	-13368
賬	-13369
贇	-13370
贖	-13371
贡	-13372
趟	-13373
跍	-13374
跛	-13375
踹	-13376
蹀	-13377
蹦	-13378
蹲	-13379
躁	-13380
躺	-13381
軋	-13382
轟	-13383
转	-13384
辺	-13385
逾	-13386
遙	-13387
邸	-13388
郁	-13389
郝	-13390
鄲	-13391
酌	-13392
酷	-13393
醪	-13394
釅	-13395
釜	-13396
鈾	-13397
鉅	-13398
鉞	-13399
鉤	-13400
鉸	-13401
鉻	-13402
鋌	-13403
鋸	-13404
錳	-13405
鍊	-13406
鎬	-13407
鏞	-13408
鑌	-13409
鑲	-13410
鑼	-13411
钢	-13412
锦	-13413
镶	-13414
関	-13415
闆	-13416
闈	-13417
阁	-13418
陋	-13419
隘	-13420
雑	-13421
韭	-13422
韵	-13423
顕	-13424
顫	-13425
颁	-13426
预	-13427
领	-13428
飆	-13429
飪	-13430
餃	-13431
餲	-13432
駁	-13433
駱	-13434
驊	-13435
驥	-13436
骹	-13437
鬩	-13438
魷	-13439
鯀	-13440
鯰	-13441
鰲	-13442
鱗	-13443
鴛	-13444
鴦	-13445
鴷	-13446
鶸	-13447
鷗	-13448
鸡	-13449
麽	-13450
黙	-13451
黜	-13452
黿	-13453
齎	-13454
곤	-13455
굴	-13456
금	-13457
너	-13458
논	-13459
달	-13460
던	-13461
략	-13462
력	-13463
렬	-13464
록	-13465
류	-13466
름	-13467
만	-13468
밀	-13469
밍	-13470
버	-13471
법	-13472
병	-13473
불	-13474
살	-13475
술	-13476
십	-13477
약	-13478
언	-13479
었	-13480
예	-13481
울	-13482
웃	-13483
장	-13484
쟁	-13485
좋	-13486
처	-13487
첨	-13488
츠	-13489
커	-13490
페	-13491
프	-13492
필	-13493
합	-13494
	-13495
𠞭	-13496
𢱑	-13497
𣴅	-13498
𤘅	-13499
𩑃	-13500
𩩍	-13501
𩭽	-13502
À	-13503
Ä	-13504
Ç	-13505
È	-13506
Ê	-13507
Ð	-13508
Ñ	-13509
Þ	-13510
å	-13511
ă	-13512
ę	-13513
ħ	-13514
ś	-13515
š	-13516
ǔ	-13517
ȵ	-13518
ɖ	-13519
ɡ	-13520
ɣ	-13521
ɦ	-13522
ɱ	-13523
ɻ	-13524
ʃ	-13525
ʊ	-13526
ʑ	-13527
ʔ	-13528
ʕ	-13529
Β	-13530
Γ	-13531
Δ	-13532
Η	-13533
Θ	-13534
Ν	-13535
Ξ	-13536
Ο	-13537
Ρ	-13538
΢	-13539
Υ	-13540
Φ	-13541
Ψ	-13542
υ	-13543
Ѕ	-13544
Ж	-13545
У	-13546
Ш	-13547
Щ	-13548
Ь	-13549
Ю	-13550
ж	-13551
ш	-13552
Ѡ	-13553
Ѯ	-13554
Ѱ	-13555
Ѳ	-13556
Ѹ	-13557
ֱ	-13558
ֵ	-13559
ֹ	-13560
־	-13561
ג	-13562
ט	-13563
ס	-13564
פ	-13565
ث	-13566
ظ	-13567
ڭ	-13568
ۇ	-13569
आ	-13570
ए	-13571
घ	-13572
ङ	-13573
छ	-13574
ठ	-13575
ढ	-13576
फ	-13577
ऽ	-13578
ং	-13579
খ	-13580
গ	-13581
ট	-13582
ত	-13583
ব	-13584
ি	-13585
ু	-13586
ਨ	-13587
ં	-13588
દ	-13589
મ	-13590
ા	-13591
க	-13592
ப	-13593
ய	-13594
ர	-13595
ฤ	-13596
โ	-13597
่	-13598
ທ	-13599
ນ	-13600
ད	-13601
ན	-13602
མ	-13603
འ	-13604
ར	-13605
ལ	-13606
ི	-13607
ྱ	-13608
ა	-13609
ბ	-13610
ო	-13611
ᄀ	-13612
ᄂ	-13613
ᄃ	-13614
ᄅ	-13615
ᄆ	-13616
ᄇ	-13617
ᄉ	-13618
ᄋ	-13619
ᄌ	-13620
ᄎ	-13621
ᄏ	-13622
ᄐ	-13623
ᄑ	-13624
ᄒ	-13625
ᅡ	-13626
ᅣ	-13627
ᅥ	-13628
ᅧ	-13629
ᅩ	-13630
ᅭ	-13631
ᅮ	-13632
ᅲ	-13633
ᅳ	-13634
ᅵ	-13635
ᠡ	-13636
ᠣ	-13637
ᠤ	-13638
ᠥ	-13639
ᠦ	-13640
ᠰ	-13641
ᡠ	-13642
ḏ	-13643
ḥ	-13644
ṃ	-13645
ṛ	-13646
ṣ	-13647
ṳ	-13648
ỉ	-13649
ị	-13650
ọ	-13651
ợ	-13652
ử	-13653
ữ	-13654
ὁ	-13655
ῆ	-13656
ῖ	-13657
‰	-13658
∞	-13659
♁	-13660
♅	-13661
♠	-13662
♣	-13663
♥	-13664
♦	-13665
⚳	-13666
⚷	-13667
え	-13668
お	-13669
か	-13670
ざ	-13671
せ	-13672
っ	-13673
つ	-13674
て	-13675
な	-13676
ば	-13677
ひ	-13678
へ	-13679
ぼ	-13680
め	-13681
ゝ	-13682
エ	-13683
グ	-13684
ズ	-13685
ソ	-13686
デ	-13687
ブ	-13688
プ	-13689
ペ	-13690
㡤	-13691
㨘	-13692
㲄	-13693
䐬	-13694
䞀	-13695
䡐	-13696
丐	-13697
丫	-13698
买	-13699
亖	-13700
亜	-13701
亢	-13702
仏	-13703
仑	-13704
仫	-13705
伝	-13706
佗	-13707
佞	-13708
侉	-13709
侠	-13710
侬	-13711
俑	-13712
俯	-13713
俳	-13714
俺	-13715
倌	-13716
倖	-13717
倘	-13718
倢	-13719
倩	-13720
偃	-13721
偰	-13722
傈	-13723
僥	-13724
僳	-13725
儂	-13726
养	-13727
円	-13728
农	-13729
冲	-13730
凄	-13731
凭	-13732
凶	-13733
刨	-13734
剁	-13735
剎	-13736
剣	-13737
劭	-13738
劲	-13739
劾	-13740
势	-13741
募	-13742
匍	-13743
卞	-13744
卮	-13745
却	-13746
厂	-13747
厝	-13748
叄	-13749
叡	-13750
叮	-13751
叶	-13752
吕	-13753
吙	-13754
吵	-13755
吶	-13756
呗	-13757
咍	-13758
咒	-13759
哄	-13760
哏	-13761
哣	-13762
哱	-13763
哼	-13764
唾	-13765
啄	-13766
啑	-13767
啖	-13768
啜	-13769
啥	-13770
喂	-13771
喔	-13772
喳	-13773
嗆	-13774
嗞	-13775
嗶	-13776
嗹	-13777
嘖	-13778
嘜	-13779
嘸	-13780
噎	-13781
噠	-13782
噤	-13783
噪	-13784
噯	-13785
嚌	-13786
嚨	-13787
嚯	-13788
嚸	-13789
囊	-13790
囤	-13791
囯	-13792
囵	-13793
圜	-13794
坏	-13795
坵	-13796
垄	-13797
垛	-13798
垱	-13799
垸	-13800
埤	-13801
堰	-13802
塌	-13803
塼	-13804
墁	-13805
墅	-13806
墟	-13807
壎	-13808
奕	-13809
奚	-13810
妄	-13811
妇	-13812
妈	-13813
妣	-13814
妨	-13815
姥	-13816
姸	-13817
娅	-13818
娓	-13819
娔	-13820
娟	-13821
娣	-13822
娼	-13823
婄	-13824
媌	-13825
媱	-13826
嫂	-13827
嫋	-13828
嬸	-13829
孕	-13830
孪	-13831
孵	-13832
宥	-13833
寕	-13834
寝	-13835
対	-13836
尢	-13837
尧	-13838
层	-13839
岷	-13840
崑	-13841
崛	-13842
嵯	-13843
嶋	-13844
巋	-13845
币	-13846
师	-13847
帚	-13848
幂	-13849
幘	-13850
庠	-13851
弌	-13852
弢	-13853
弾	-13854
彗	-13855
従	-13856
徭	-13857
徼	-13858
忤	-13859
怏	-13860
恤	-13861
恶	-13862
恿	-13863
悄	-13864
悚	-13865
悦	-13866
悳	-13867
惊	-13868
惣	-13869
惺	-13870
愧	-13871
愼	-13872
戩	-13873
扉	-13874
扔	-13875
扼	-13876
抖	-13877
抜	-13878
抬	-13879
抯	-13880
抲	-13881
抿	-13882
拘	-13883
拚	-13884
拥	-13885
拫	-13886
拴	-13887
挞	-13888
挤	-13889
挥	-13890
挼	-13891
捅	-13892
捏	-13893
捩	-13894
捶	-13895
捻	-13896
掏	-13897
掙	-13898
揩	-13899
搓	-13900
搗	-13901
搪	-13902
摆	-13903
摟	-13904
摭	-13905
摳	-13906
撩	-13907
撼	-13908
擆	-13909
擘	-13910
攓	-13911
攔	-13912
攨	-13913
攪	-13914
攬	-13915
旴	-13916
昼	-13917
晒	-13918
晤	-13919
晰	-13920
暋	-13921
暹	-13922
曌	-13923
曩	-13924
朧	-13925
杂	-13926
杲	-13927
柒	-13928
栢	-13929
桀	-13930
梆	-13931
棏	-13932
楣	-13933
楪	-13934
榄	-13935
榕	-13936
榛	-13937
槌	-13938
樺	-13939
檎	-13940
檗	-13941
櫟	-13942
櫨	-13943
欢	-13944
歎	-13945
歘	-13946
歙	-13947
歟	-13948
殃	-13949
殮	-13950
殲	-13951
毆	-13952
毘	-13953
氵	-13954
氽	-13955
汔	-13956
汛	-13957
汲	-13958
沆	-13959
沔	-13960
沕	-13961
沮	-13962
洇	-13963
洎	-13964
洣	-13965
浏	-13966
浒	-13967
涎	-13968
涓	-13969
淄	-13970
淋	-13971
済	-13972
渋	-13973
渓	-13974
渫	-13975
渺	-13976
湍	-13977
湔	-13978
湞	-13979
溧	-13980
溱	-13981
溽	-13982
滇	-13983
满	-13984
滨	-13985
滷	-13986
漓	-13987
漚	-13988
漳	-13989
潜	-13990
潷	-13991
澮	-13992
瀼	-13993
灸	-13994
灼	-13995
炆	-13996
烘	-13997
烤	-13998
烯	-13999
烽	-14000
焊	-14001
焿	-14002
煒	-14003
煨	-14004
熄	-14005
熒	-14006
熗	-14007
熰	-14008
燔	-14009
燙	-14010
犍	-14011
犺	-14012
独	-14013
狸	-14014
猝	-14015
猥	-14016
猷	-14017
玆	-14018
玳	-14019
琚	-14020
琥	-14021
琮	-14022
琺	-14023
瑾	-14024
瓏	-14025
甄	-14026
甥	-14027
甬	-14028
疲	-14029
疼	-14030
痴	-14031
瘟	-14032
瘡	-14033
癮	-14034
癲	-14035
発	-14036
皎	-14037
皜	-14038
盃	-14039
盞	-14040
盥	-14041
盱	-14042
眵	-14043
眶	-14044
睎	-14045
睢	-14046
睹	-14047
瞽	-14048
瞿	-14049
矜	-14050
矿	-14051
砝	-14052
砣	-14053
砸	-14054
硁	-14055
碁	-14056
碍	-14057
碭	-14058
碲	-14059
碾	-14060
磔	-14061
磴	-14062
礪	-14063
礬	-14064
礹	-14065
祉	-14066
祕	-14067
禕	-14068
禡	-14069
禶	-14070
离	-14071
秺	-14072
稜	-14073
穗	-14074
窓	-14075
窠	-14076
窸	-14077
竭	-14078
笆	-14079
笈	-14080
笏	-14081
笥	-14082
笨	-14083
笮	-14084
笹	-14085
箍	-14086
箐	-14087
箸	-14088
篋	-14089
篙	-14090
篫	-14091
篷	-14092
簒	-14093
簫	-14094
簰	-14095
籤	-14096
粼	-14097
糊	-14098
紈	-14099
紧	-14100
絃	-14101
絇	-14102
絶	-14103
綑	-14104
締	-14105
緡	-14106
縠	-14107
繌	-14108
繭	-14109
纵	-14110
纽	-14111
织	-14112
绍	-14113
绕	-14114
络	-14115
绝	-14116
绩	-14117
绰	-14118
缀	-14119
缽	-14120
罩	-14121
罹	-14122
羈	-14123
羞	-14124
翎	-14125
翕	-14126
翮	-14127
翳	-14128
耘	-14129
耙	-14130
耷	-14131
聂	-14132
聳	-14133
聴	-14134
肘	-14135
胄	-14136
胠	-14137
胭	-14138
胯	-14139
胴	-14140
脱	-14141
脸	-14142
脾	-14143
腮	-14144
膘	-14145
臀	-14146
臍	-14147
臚	-14148
臞	-14149
臧	-14150
舔	-14151
舲	-14152
艘	-14153
艤	-14154
艫	-14155
芹	-14156
芿	-14157
苕	-14158
苛	-14159
苹	-14160
茣	-14161
茫	-14162
茸	-14163
荆	-14164
荐	-14165
药	-14166
莪	-14167
菅	-14168
菠	-14169
萩	-14170
萱	-14171
葺	-14172
蒋	-14173
蒜	-14174
蔗	-14175
蕊	-14176
蕬	-14177
薙	-14178
薰	-14179
藐	-14180
藪	-14181
藹	-14182
藿	-14183
蘄	-14184
蛆	-14185
蛤	-14186
蛭	-14187
蛮	-14188
蛾	-14189
蜈	-14190
蜓	-14191
蜘	-14192
蜚	-14193
蜻	-14194
螂	-14195
螢	-14196
螭	-14197
螽	-14198
蟑	-14199
蟻	-14200
袭	-14201
袴	-14202
裇	-14203
裱	-14204
裹	-14205
褼	-14206
襌	-14207
襞	-14208
襷	-14209
覓	-14210
覯	-14211
観	-14212
览	-14213
触	-14214
訁	-14215
訖	-14216
詈	-14217
詡	-14218
詵	-14219
誡	-14220
誹	-14221
誼	-14222
諄	-14223
諫	-14224
謗	-14225
謾	-14226
譏	-14227
譙	-14228
譬	-14229
讨	-14230
访	-14231
评	-14232
译	-14233
诲	-14234
谋	-14235
谑	-14236
谢	-14237
貂	-14238
賂	-14239
賑	-14240
贍	-14241
贓	-14242
责	-14243
贯	-14244
费	-14245
赋	-14246
赏	-14247
赐	-14248
赓	-14249
赳	-14250
趁	-14251
趴	-14252
跣	-14253
踮	-14254
蹬	-14255
躂	-14256
躰	-14257
軚	-14258
軫	-14259
軻	-14260
輓	-14261
輶	-14262
软	-14263
辖	-14264
辻	-14265
迈	-14266
迳	-14267
迸	-14268
逛	-14269
逮	-14270
逵	-14271
遁	-14272
遐	-14273
遯	-14274
遶	-14275
邃	-14276
邕	-14277
邬	-14278
邮	-14279
邾	-14280
郜	-14281
郢	-14282
鄖	-14283
鄣	-14284
酢	-14285
酣	-14286
醃	-14287
释	-14288
釹	-14289
鈈	-14290
鈺	-14291
鉆	-14292
鉌	-14293
鉗	-14294
鉾	-14295
銎	-14296
銙	-14297
銛	-14298
銬	-14299
銻	-14300
銼	-14301
錚	-14302
錛	-14303
錠	-14304
錨	-14305
鍰	-14306
鎳	-14307
鏃	-14308
鏢	-14309
鏤	-14310
鏽	-14311
鐐	-14312
鐲	-14313
鑥	-14314
鑾	-14315
钱	-14316
铤	-14317
铺	-14318
锉	-14319
锒	-14320
镐	-14321
镒	-14322
閂	-14323
閕	-14324
閹	-14325
闇	-14326
闡	-14327
阵	-14328
陇	-14329
陛	-14330
陞	-14331
陲	-14332
隙	-14333
隣	-14334
雉	-14335
雎	-14336
雒	-14337
霆	-14338
霊	-14339
霓	-14340
霾	-14341
鞅	-14342
鞠	-14343
韃	-14344
韌	-14345
頊	-14346
頡	-14347
顓	-14348
顔	-14349
页	-14350
顶	-14351
颺	-14352
飞	-14353
饋	-14354
饌	-14355
饗	-14356
馳	-14357
駙	-14358
駝	-14359
駟	-14360
駢	-14361
駰	-14362
駿	-14363
騙	-14364
騫	-14365
驄	-14366
驟	-14367
驢	-14368
骚	-14369
髈	-14370
髒	-14371
髦	-14372
髪	-14373
鬚	-14374
鬧	-14375
鬻	-14376
鯊	-14377
鯽	-14378
鰓	-14379
鰥	-14380
鱔	-14381
鳧	-14382
鴣	-14383
鵰	-14384
鵲	-14385
鶉	-14386
鷓	-14387
鸚	-14388
鸟	-14389
鸠	-14390
鹊	-14391
鹏	-14392
鹤	-14393
麩	-14394
黏	-14395
黛	-14396
黸	-14397
齐	-14398
鿫	-14399
鿬	-14400
갑	-14401
개	-14402
견	-14403
결	-14404
겸	-14405
근	-14406
글	-14407
꽃	-14408
꾸	-14409
난	-14410
널	-14411
느	-14412
늘	-14413
덤	-14414
됐	-14415
띠	-14416
랑	-14417
령	-14418
룡	-14419
륜	-14420
릇	-14421
림	-14422
립	-14423
망	-14424
맥	-14425
머	-14426
며	-14427
면	-14428
바	-14429
반	-14430
발	-14431
식	-14432
알	-14433
야	-14434
열	-14435
엽	-14436
였	-14437
올	-14438
입	-14439
저	-14440
절	-14441
점	-14442
존	-14443
죄	-14444
증	-14445
짓	-14446
찾	-14447
초	-14448
촌	-14449
축	-14450
출	-14451
칠	-14452
침	-14453
택	-14454
통	-14455
퇴	-14456
편	-14457
함	-14458
했	-14459
흠	-14460
	-14461
	-14462
	-14463
𠆩	-14464
𠢠	-14465
𡝀	-14466
`	-14467
¥	-14468
®	-14469
Ã	-14470
Ë	-14471
Ï	-14472
Ò	-14473
Õ	-14474
Ù	-14475
Û	-14476
Ý	-14477
õ	-14478
þ	-14479
ÿ	-14480
Ā	-14481
ą	-14482
Č	-14483
ě	-14484
ğ	-14485
ĭ	-14486
İ	-14487
ń	-14488
ő	-14489
Ř	-14490
ř	-14491
Ş	-14492
ş	-14493
Ū	-14494
Ÿ	-14495
Ư	-14496
ǁ	-14497
ǂ	-14498
ǃ	-14499
Ƿ	-14500
ǹ	-14501
Ȝ	-14502
ɓ	-14503
ɗ	-14504
ɘ	-14505
ɞ	-14506
ɟ	-14507
ɠ	-14508
ɢ	-14509
ɤ	-14510
ɧ	-14511
ɨ	-14512
ɪ	-14513
ɫ	-14514
ɬ	-14515
ɭ	-14516
ɮ	-14517
ɯ	-14518
ɰ	-14519
ɴ	-14520
ɵ	-14521
ɶ	-14522
ɸ	-14523
ɹ	-14524
ɽ	-14525
ɾ	-14526
ʀ	-14527
ʄ	-14528
ʉ	-14529
ʋ	-14530
ʌ	-14531
ʍ	-14532
ʎ	-14533
ʏ	-14534
ʒ	-14535
ʙ	-14536
ʛ	-14537
ʜ	-14538
ʝ	-14539
ʟ	-14540
ʡ	-14541
ʢ	-14542
ˇ	-14543
ˊ	-14544
ˋ	-14545
ː	-14546
̂	-14547
̇	-14548
̤	-14549
̯	-14550
͘	-14551
ζ	-14552
ϋ	-14553
ώ	-14554
ϛ	-14555
Ђ	-14556
Ї	-14557
Љ	-14558
Њ	-14559
Ћ	-14560
Џ	-14561
Й	-14562
Я	-14563
ю	-14564
ї	-14565
ј	-14566
Ѣ	-14567
Ѥ	-14568
Ѧ	-14569
Ѩ	-14570
Ѫ	-14571
Ѭ	-14572
Ѵ	-14573
ѵ	-14574
Ҁ	-14575
Ґ	-14576
֑	-14577
֒	-14578
֓	-14579
֔	-14580
֕	-14581
֖	-14582
֗	-14583
֘	-14584
֙	-14585
֚	-14586
֛	-14587
֜	-14588
֝	-14589
֞	-14590
֟	-14591
֠	-14592
֡	-14593
֢	-14594
֣	-14595
֤	-14596
֥	-14597
֦	-14598
֧	-14599
֨	-14600
֩	-14601
֪	-14602
֫	-14603
֬	-14604
֭	-14605
֮	-14606
֯	-14607
ֲ	-14608
ֳ	-14609
ֻ	-14610
ֽ	-14611
ֿ	-14612
׀	-14613
׃	-14614
ׄ	-14615
ׅ	-14616
׆	-14617
ׇ	-14618
ך	-14619
ף	-14620
ץ	-14621
װ	-14622
ױ	-14623
ײ	-14624
׳	-14625
״	-14626
إ	-14627
ـ	-14628
ُ	-14629
ٮ	-14630
ٯ	-14631
ٰ	-14632
ک	-14633
گ	-14634
ۈ	-14635
ई	-14636
उ	-14637
ऊ	-14638
ऐ	-14639
ओ	-14640
औ	-14641
झ	-14642
ै	-14643
ौ	-14644
॥	-14645
উ	-14646
ও	-14647
ক	-14648
চ	-14649
জ	-14650
ঢ	-14651
ণ	-14652
প	-14653
শ	-14654
হ	-14655
ী	-14656
ে	-14657
ਕ	-14658
ਗ	-14659
ਦ	-14660
ਰ	-14661
ਲ	-14662
ਾ	-14663
ਿ	-14664
ੀ	-14665
ੁ	-14666
ੂ	-14667
ੱ	-14668
ક	-14669
ગ	-14670
ચ	-14671
ધ	-14672
ન	-14673
ર	-14674
સ	-14675
હ	-14676
ી	-14677
ો	-14678
ங	-14679
ட	-14680
ம	-14681
ல	-14682
ா	-14683
ு	-14684
ூ	-14685
ே	-14686
ฆ	-14687
ฎ	-14688
ณ	-14689
ถ	-14690
ผ	-14691
ฟ	-14692
แ	-14693
ใ	-14694
ດ	-14695
ຕ	-14696
ວ	-14697
ສ	-14698
ັ	-14699
ິ	-14700
ົ	-14701
ໄ	-14702
ཏ	-14703
ཚ	-14704
ཛ	-14705
ཱ	-14706
ྐ	-14707
ྒ	-14708
ྗ	-14709
ྟ	-14710
ླ	-14711
ვ	-14712
ლ	-14713
ნ	-14714
რ	-14715
უ	-14716
ღ	-14717
შ	-14718
ძ	-14719
ჯ	-14720
ᄁ	-14721
ᄄ	-14722
ᄈ	-14723
ᄊ	-14724
ᄍ	-14725
ᅀ	-14726
ᅌ	-14727
ᅙ	-14728
ᅢ	-14729
ᅤ	-14730
ᅦ	-14731
ᅨ	-14732
ᅪ	-14733
ᅫ	-14734
ᅬ	-14735
ᅯ	-14736
ᅰ	-14737
ᅱ	-14738
ᅴ	-14739
ት	-14740
ኢ	-14741
ያ	-14742
ዮ	-14743
ጵ	-14744
Ꮊ	-14745
᠎	-14746
ᠪ	-14747
ᠮ	-14748
ᠳ	-14749
ᠵ	-14750
ᠶ	-14751
ᡤ	-14752
ᡳ	-14753
ᴇ	-14754
ḇ	-14755
ḋ	-14756
ḍ	-14757
Ḏ	-14758
ṅ	-14759
Ṣ	-14760
ṭ	-14761
ẫ	-14762
ắ	-14763
Ằ	-14764
ặ	-14765
ẹ	-14766
ẻ	-14767
ẽ	-14768
ề	-14769
ờ	-14770
ụ	-14771
ủ	-14772
ứ	-14773
ỳ	-14774
ỵ	-14775
ỷ	-14776
ἀ	-14777
ἄ	-14778
ἡ	-14779
ἶ	-14780
Ἰ	-14781
Ὀ	-14782
Ὁ	-14783
Ὅ	-14784
ὐ	-14785
‧	-14786
√	-14787
∼	-14788
≨	-14789
⋯	-14790
▲	-14791
▼	-14792
☊	-14793
☋	-14794
☰	-14795
☲	-14796
☵	-14797
☷	-14798
☾	-14799
♈	-14800
♉	-14801
♊	-14802
♋	-14803
♌	-14804
♍	-14805
♎	-14806
♏	-14807
♐	-14808
♑	-14809
♒	-14810
♓	-14811
⛢	-14812
ぎ	-14813
ぐ	-14814
さ	-14815
ど	-14816
ぬ	-14817
ふ	-14818
ぶ	-14819
ほ	-14820
ぽ	-14821
よ	-14822
れ	-14823
ろ	-14824
ィ	-14825
ウ	-14826
オ	-14827
コ	-14828
ポ	-14829
メ	-14830
ヤ	-14831
ュ	-14832
ㄌ	-14833
㑧	-14834
㒓	-14835
㓾	-14836
㘓	-14837
㞎	-14838
㞘	-14839
㦿	-14840
㧙	-14841
㧸	-14842
㧻	-14843
㨮	-14844
㩭	-14845
㪗	-14846
㬹	-14847
㮇	-14848
㰵	-14849
㲷	-14850
㷬	-14851
㻧	-14852
䀇	-14853
䁐	-14854
䂫	-14855
䃕	-14856
䌜	-14857
䌦	-14858
䗔	-14859
䗚	-14860
䠡	-14861
䥑	-14862
䰲	-14863
䱗	-14864
丗	-14865
丢	-14866
丼	-14867
乗	-14868
乩	-14869
乱	-14870
亀	-14871
亁	-14872
亟	-14873
仟	-14874
仡	-14875
仵	-14876
伕	-14877
伟	-14878
伤	-14879
伺	-14880
佃	-14881
佇	-14882
佣	-14883
佰	-14884
侑	-14885
侔	-14886
侦	-14887
俓	-14888
俙	-14889
倂	-14890
倆	-14891
倔	-14892
倣	-14893
倦	-14894
倨	-14895
倾	-14896
偋	-14897
偵	-14898
傕	-14899
储	-14900
傭	-14901
傽	-14902
僊	-14903
僤	-14904
僱	-14905
僵	-14906
儐	-14907
児	-14908
冎	-14909
冗	-14910
冪	-14911
况	-14912
冻	-14913
冼	-14914
净	-14915
凉	-14916
减	-14917
凛	-14918
凼	-14919
刎	-14920
剔	-14921
剡	-14922
剩	-14923
剮	-14924
剴	-14925
剷	-14926
劄	-14927
劊	-14928
务	-14929
勍	-14930
勗	-14931
勩	-14932
匆	-14933
匕	-14934
匭	-14935
匮	-14936
医	-14937
卉	-14938
卌	-14939
単	-14940
卧	-14941
卬	-14942
卹	-14943
厉	-14944
压	-14945
厕	-14946
厖	-14947
厢	-14948
厴	-14949
収	-14950
叠	-14951
叩	-14952
吆	-14953
吒	-14954
吠	-14955
吩	-14956
吮	-14957
启	-14958
呃	-14959
呉	-14960
呋	-14961
呪	-14962
呫	-14963
呱	-14964
呻	-14965
咋	-14966
咎	-14967
咐	-14968
咕	-14969
咡	-14970
咧	-14971
咷	-14972
哐	-14973
哚	-14974
哰	-14975
哽	-14976
哿	-14977
唊	-14978
唧	-14979
唶	-14980
唸	-14981
唻	-14982
唽	-14983
啐	-14984
啢	-14985
啶	-14986
啻	-14987
喭	-14988
営	-14989
嗄	-14990
嗇	-14991
嗔	-14992
嗡	-14993
嗥	-14994
嗨	-14995
嗾	-14996
嘀	-14997
嘇	-14998
嘈	-14999
嘬	-15000
噉	-15001
噍	-15002
噓	-15003
噦	-15004
噬	-15005
噻	-15006
嚍	-15007
嚎	-15008
嚙	-15009
嚤	-15010
嚮	-15011
囡	-15012
囪	-15013
围	-15014
囿	-15015
圂	-15016
圞	-15017
圮	-15018
圾	-15019
圿	-15020
坚	-15021
坟	-15022
坠	-15023
坩	-15024
坯	-15025
坰	-15026
坷	-15027
坽	-15028
垅	-15029
垇	-15030
垈	-15031
垉	-15032
垒	-15033
垕	-15034
垮	-15035
埂	-15036
埏	-15037
埒	-15038
埗	-15039
埲	-15040
埴	-15041
埵	-15042
堁	-15043
堉	-15044
堕	-15045
堘	-15046
堝	-15047
堿	-15048
塀	-15049
塋	-15050
塍	-15051
塩	-15052
墀	-15053
墈	-15054
墙	-15055
墸	-15056
墼	-15057
壅	-15058
壑	-15059
壕	-15060
壙	-15061
壢	-15062
壥	-15063
売	-15064
壶	-15065
够	-15066
奄	-15067
奅	-15068
奝	-15069
妒	-15070
妛	-15071
姉	-15072
姘	-15073
姤	-15074
姩	-15075
娑	-15076
娠	-15077
娡	-15078
娭	-15079
娱	-15080
婊	-15081
婢	-15082
媪	-15083
媫	-15084
媲	-15085
嫉	-15086
嫖	-15087
嫗	-15088
嫣	-15089
嫥	-15090
嫦	-15091
嫲	-15092
嬪	-15093
嬲	-15094
嬾	-15095
孃	-15096
孜	-15097
孲	-15098
孿	-15099
宍	-15100
実	-15101
宠	-15102
审	-15103
宽	-15104
寘	-15105
寥	-15106
尕	-15107
尘	-15108
尝	-15109
尪	-15110
尻	-15111
屐	-15112
屛	-15113
屜	-15114
屹	-15115
岀	-15116
岂	-15117
岔	-15118
岚	-15119
岬	-15120
岾	-15121
岿	-15122
峤	-15123
峪	-15124
峭	-15125
峴	-15126
崁	-15127
崋	-15128
崠	-15129
崮	-15130
崴	-15131
嶂	-15132
嶇	-15133
嶝	-15134
嶷	-15135
巌	-15136
巿	-15137
帔	-15138
帜	-15139
帢	-15140
幃	-15141
幔	-15142
幛	-15143
幬	-15144
幮	-15145
幺	-15146
庋	-15147
废	-15148
廅	-15149
廝	-15150
廞	-15151
廰	-15152
弃	-15153
弍	-15154
弑	-15155
弒	-15156
弔	-15157
弩	-15158
彁	-15159
彊	-15160
彜	-15161
彤	-15162
彷	-15163
彻	-15164
彿	-15165
徠	-15166
徧	-15167
徴	-15168
忆	-15169
忒	-15170
忝	-15171
忱	-15172
忸	-15173
态	-15174
怠	-15175
恇	-15176
恋	-15177
恍	-15178
恕	-15179
恚	-15180
恟	-15181
恷	-15182
悌	-15183
悖	-15184
您	-15185
悵	-15186
悽	-15187
惆	-15188
惋	-15189
惕	-15190
愍	-15191
愕	-15192
愦	-15193
愷	-15194
愿	-15195
慁	-15196
慄	-15197
慪	-15198
慫	-15199
慳	-15200
慵	-15201
慷	-15202
憚	-15203
憡	-15204
憨	-15205
憩	-15206
憫	-15207
懁	-15208
懊	-15209
懒	-15210
懦	-15211
懵	-15212
懽	-15213
戇	-15214
戥	-15215
戯	-15216
扈	-15217
扏	-15218
扡	-15219
扦	-15220
扫	-15221
扳	-15222
扷	-15223
抔	-15224
抢	-15225
抻	-15226
拂	-15227
拃	-15228
拄	-15229
拎	-15230
拟	-15231
拭	-15232
拷	-15233
挍	-15234
挙	-15235
挝	-15236
挧	-15237
挮	-15238
挲	-15239
挹	-15240
挻	-15241
挿	-15242
捀	-15243
捂	-15244
捋	-15245
捍	-15246
捖	-15247
损	-15248
换	-15249
捫	-15250
捱	-15251
捳	-15252
捼	-15253
掁	-15254
掂	-15255
掇	-15256
掣	-15257
掯	-15258
掰	-15259
掱	-15260
揄	-15261
揆	-15262
揇	-15263
揉	-15264
揌	-15265
揎	-15266
揜	-15267
揪	-15268
揶	-15269
搊	-15270
搌	-15271
搔	-15272
搕	-15273
搛	-15274
搣	-15275
搨	-15276
携	-15277
搽	-15278
摑	-15279
摞	-15280
摮	-15281
摻	-15282
撁	-15283
撅	-15284
撑	-15285
撕	-15286
撚	-15287
擂	-15288
擐	-15289
擗	-15290
擤	-15291
擲	-15292
擷	-15293
擿	-15294
攍	-15295
攎	-15296
攘	-15297
攙	-15298
攞	-15299
敌	-15300
敍	-15301
敞	-15302
敥	-15303
敨	-15304
敳	-15305
斟	-15306
斡	-15307
斣	-15308
断	-15309
旆	-15310
昄	-15311
昰	-15312
昱	-15313
晁	-15314
晌	-15315
晕	-15316
晡	-15317
晧	-15318
晸	-15319
暂	-15320
暃	-15321
暄	-15322
暘	-15323
暾	-15324
曽	-15325
朦	-15326
杈	-15327
杓	-15328
杞	-15329
杳	-15330
杻	-15331
枣	-15332
枱	-15333
枷	-15334
枸	-15335
枾	-15336
柚	-15337
柩	-15338
栂	-15339
栋	-15340
栾	-15341
桄	-15342
桅	-15343
桎	-15344
桕	-15345
桜	-15346
桧	-15347
桩	-15348
梏	-15349
梔	-15350
梟	-15351
梢	-15352
梳	-15353
棖	-15354
椏	-15355
椦	-15356
椰	-15357
椽	-15358
楗	-15359
楝	-15360
楦	-15361
榫	-15362
槁	-15363
様	-15364
槨	-15365
槿	-15366
樅	-15367
樉	-15368
樱	-15369
橈	-15370
橦	-15371
橸	-15372
橿	-15373
檉	-15374
檟	-15375
櫚	-15376
櫝	-15377
櫱	-15378
欕	-15379
欞	-15380
欬	-15381
欹	-15382
殄	-15383
殤	-15384
殭	-15385
殯	-15386
殻	-15387
毋	-15388
毖	-15389
毯	-15390
氂	-15391
氐	-15392
氓	-15393
氠	-15394
氥	-15395
氰	-15396
汆	-15397
汎	-15398
汙	-15399
汢	-15400
汰	-15401
沐	-15402
沟	-15403
沢	-15404
沥	-15405
沰	-15406
泅	-15407
泓	-15408
泝	-15409
泪	-15410
泫	-15411
泮	-15412
泯	-15413
泸	-15414
泾	-15415
洊	-15416
洑	-15417
洒	-15418
洚	-15419
洮	-15420
洺	-15421
浅	-15422
浆	-15423
浓	-15424
浠	-15425
浬	-15426
涛	-15427
涧	-15428
涪	-15429
涸	-15430
涾	-15431
淌	-15432
淜	-15433
淥	-15434
淶	-15435
淼	-15436
渊	-15437
渲	-15438
湎	-15439
湑	-15440
溆	-15441
溏	-15442
溘	-15443
溟	-15444
滊	-15445
滌	-15446
滎	-15447
漈	-15448
漣	-15449
漩	-15450
漬	-15451
漴	-15452
潁	-15453
潋	-15454
潣	-15455
潲	-15456
潸	-15457
潼	-15458
澂	-15459
澅	-15460
澍	-15461
澜	-15462
澣	-15463
澪	-15464
濉	-15465
濑	-15466
濩	-15467
濮	-15468
濾	-15469
瀑	-15470
瀚	-15471
瀛	-15472
瀬	-15473
瀴	-15474
灒	-15475
灞	-15476
灧	-15477
炉	-15478
炕	-15479
炘	-15480
炲	-15481
炷	-15482
烂	-15483
烑	-15484
烙	-15485
烟	-15486
烴	-15487
烷	-15488
焗	-15489
焙	-15490
焮	-15491
煅	-15492
煆	-15493
煋	-15494
煏	-15495
煫	-15496
煲	-15497
煸	-15498
熂	-15499
熈	-15500
熕	-15501
熬	-15502
燊	-15503
燎	-15504
燧	-15505
燫	-15506
燮	-15507
燴	-15508
燼	-15509
爍	-15510
牀	-15511
牁	-15512
牚	-15513
牺	-15514
犖	-15515
犛	-15516
犽	-15517
狡	-15518
狭	-15519
狽	-15520
獃	-15521
獐	-15522
獠	-15523
獣	-15524
獮	-15525
獷	-15526
獺	-15527
玅	-15528
玍	-15529
玟	-15530
玢	-15531
环	-15532
珏	-15533
珙	-15534
珞	-15535
珩	-15536
珽	-15537
琊	-15538
琐	-15539
琢	-15540
琱	-15541
琿	-15542
瑁	-15543
瑈	-15544
瑕	-15545
瑗	-15546
瑱	-15547
璘	-15548
璦	-15549
璧	-15550
璨	-15551
璪	-15552
璿	-15553
瓌	-15554
瓠	-15555
瓤	-15556
瓧	-15557
瓩	-15558
瓰	-15559
瓱	-15560
瓴	-15561
瓸	-15562
瓼	-15563
瓿	-15564
甅	-15565
甋	-15566
甏	-15567
甑	-15568
畚	-15569
疎	-15570
疔	-15571
疖	-15572
疗	-15573
疤	-15574
疳	-15575
疵	-15576
疹	-15577
疿	-15578
痔	-15579
痞	-15580
痢	-15581
痣	-15582
痰	-15583
痲	-15584
瘀	-15585
瘁	-15586
瘍	-15587
瘕	-15588
瘤	-15589
瘧	-15590
癖	-15591
癘	-15592
癤	-15593
癩	-15594
癫	-15595
癱	-15596
皞	-15597
皸	-15598
盅	-15599
盌	-15600
盍	-15601
盗	-15602
盬	-15603
盯	-15604
眄	-15605
眨	-15606
睁	-15607
睃	-15608
睖	-15609
睗	-15610
睨	-15611
睫	-15612
睬	-15613
瞃	-15614
瞑	-15615
瞓	-15616
瞘	-15617
瞧	-15618
瞪	-15619
瞳	-15620
矺	-15621
砀	-15622
砊	-15623
砑	-15624
砚	-15625
砦	-15626
砧	-15627
砵	-15628
础	-15629
硏	-15630
硚	-15631
确	-15632
碉	-15633
碕	-15634
碵	-15635
磅	-15636
磊	-15637
磎	-15638
磑	-15639
磻	-15640
磾	-15641
礽	-15642
祅	-15643
祜	-15644
禀	-15645
禰	-15646
禳	-15647
禺	-15648
秈	-15649
秊	-15650
秣	-15651
秥	-15652
秫	-15653
稈	-15654
稕	-15655
稗	-15656
稞	-15657
稳	-15658
穃	-15659
穡	-15660
窘	-15661
窼	-15662
竄	-15663
竅	-15664
竈	-15665
竜	-15666
竣	-15667
竳	-15668
笞	-15669
筇	-15670
筈	-15671
筛	-15672
筥	-15673
筧	-15674
筮	-15675
筳	-15676
筻	-15677
签	-15678
筿	-15679
箅	-15680
箓	-15681
箔	-15682
箝	-15683
篚	-15684
篦	-15685
篼	-15686
篾	-15687
簇	-15688
簜	-15689
簟	-15690
簸	-15691
籮	-15692
籽	-15693
粃	-15694
粐	-15695
粛	-15696
粪	-15697
粫	-15698
粭	-15699
粮	-15700
粱	-15701
粲	-15702
粽	-15703
糅	-15704
糗	-15705
糘	-15706
糙	-15707
糝	-15708
糞	-15709
糰	-15710
紇	-15711
紊	-15712
紏	-15713
紞	-15714
絎	-15715
絝	-15716
絢	-15717
絫	-15718
継	-15719
続	-15720
綻	-15721
綽	-15722
緅	-15723
緇	-15724
総	-15725
緔	-15726
緖	-15727
緘	-15728
縈	-15729
縋	-15730
縐	-15731
縞	-15732
縟	-15733
縧	-15734
縴	-15735
縷	-15736
縹	-15737
繃	-15738
繍	-15739
繢	-15740
繰	-15741
繶	-15742
繽	-15743
纉	-15744
纘	-15745
纙	-15746
纛	-15747
纜	-15748
纠	-15749
纱	-15750
纹	-15751
绥	-15752
绳	-15753
缔	-15754
缶	-15755
罄	-15756
罈	-15757
罋	-15758
罌	-15759
罚	-15760
罡	-15761
罯	-15762
罾	-15763
羁	-15764
羥	-15765
羨	-15766
翌	-15767
翦	-15768
翩	-15769
翫	-15770
耦	-15771
耬	-15772
耻	-15773
职	-15774
聪	-15775
聿	-15776
肄	-15777
肠	-15778
肤	-15779
肪	-15780
肫	-15781
肭	-15782
肮	-15783
胆	-15784
胖	-15785
胚	-15786
胥	-15787
胺	-15788
脑	-15789
脛	-15790
脣	-15791
脦	-15792
腒	-15793
腱	-15794
腴	-15795
腾	-15796
膃	-15797
膈	-15798
膊	-15799
膤	-15800
膻	-15801
膿	-15802
臆	-15803
臌	-15804
臏	-15805
臓	-15806
臙	-15807
舀	-15808
舆	-15809
舗	-15810
舛	-15811
舢	-15812
舰	-15813
舳	-15814
芃	-15815
芄	-15816
芊	-15817
芗	-15818
芘	-15819
芥	-15820
芸	-15821
苋	-15822
苍	-15823
苓	-15824
苞	-15825
苯	-15826
苻	-15827
茎	-15828
茜	-15829
茬	-15830
茯	-15831
茴	-15832
荀	-15833
荳	-15834
莒	-15835
莞	-15836
莢	-15837
莧	-15838
莿	-15839
菫	-15840
菽	-15841
萁	-15842
萇	-15843
葱	-15844
葷	-15845
蒿	-15846
蓀	-15847
蓑	-15848
蓖	-15849
蓱	-15850
蔑	-15851
蔓	-15852
蔔	-15853
蔘	-15854
蔦	-15855
蔫	-15856
蔻	-15857
蕎	-15858
蕓	-15859
蕗	-15860
蕨	-15861
蕴	-15862
薌	-15863
薔	-15864
薤	-15865
薫	-15866
薺	-15867
藁	-15868
藠	-15869
藰	-15870
藷	-15871
藺	-15872
蘗	-15873
蘚	-15874
蘸	-15875
蘺	-15876
虑	-15877
虘	-15878
虚	-15879
虢	-15880
虬	-15881
虰	-15882
虱	-15883
虾	-15884
蚤	-15885
蚰	-15886
蛄	-15887
蛐	-15888
蛔	-15889
蛹	-15890
蛻	-15891
蜛	-15892
蜢	-15893
蜥	-15894
蜴	-15895
蜷	-15896
蜿	-15897
蝇	-15898
蝗	-15899
螃	-15900
螈	-15901
螞	-15902
螳	-15903
螻	-15904
蟄	-15905
蟐	-15906
蟒	-15907
蟢	-15908
蟣	-15909
蟥	-15910
蟬	-15911
蟭	-15912
蠋	-15913
蠓	-15914
蠱	-15915
补	-15916
衭	-15917
袀	-15918
袄	-15919
袝	-15920
袤	-15921
袮	-15922
袱	-15923
袿	-15924
裄	-15925
裌	-15926
裤	-15927
裩	-15928
裵	-15929
裾	-15930
褂	-15931
褄	-15932
褘	-15933
褙	-15934
褚	-15935
褬	-15936
褶	-15937
褾	-15938
襈	-15939
襉	-15940
襤	-15941
襦	-15942
襬	-15943
襻	-15944
覇	-15945
覗	-15946
覘	-15947
覴	-15948
覿	-15949
觘	-15950
觴	-15951
訃	-15952
訥	-15953
詁	-15954
詘	-15955
詬	-15956
誄	-15957
誆	-15958
誐	-15959
誒	-15960
誨	-15961
諂	-15962
諉	-15963
諗	-15964
諛	-15965
諦	-15966
諰	-15967
謐	-15968
謡	-15969
謫	-15970
譎	-15971
讲	-15972
证	-15973
诏	-15974
试	-15975
诠	-15976
诡	-15977
诰	-15978
诵	-15979
诶	-15980
课	-15981
谐	-15982
谒	-15983
谦	-15984
谨	-15985
豏	-15986
豕	-15987
豖	-15988
豺	-15989
貅	-15990
貊	-15991
貍	-15992
貔	-15993
貘	-15994
賁	-15995
賃	-15996
