<unk>	0
<s>	0
</s>	0
▁▁	-0
19	-1
20	-2
),	-3
te	-4
or	-5
an	-6
▁|	-7
▁C	-8
in	-9
on	-10
er	-11
200	-12
ar	-13
10	-14
en	-15
th	-16
一个	-17
18	-18
al	-19
ate	-20
199	-21
12	-22
▁S	-23
ory	-24
gory	-25
ategory	-26
英语	-27
ti	-28
es	-29
▁Category	-30
um	-31
11	-32
00	-33
▁th	-34
中国	-35
15	-36
is	-37
是一	-38
▁M	-39
17	-40
人口	-41
▁P	-42
——	-43
美国	-44
16	-45
▁(	-46
ic	-47
垃拉	-48
)。	-49
▁A	-50
公里	-51
辰光	-52
am	-53
le	-54
umb	-55
个一	-56
▁T	-57
上海	-58
14	-59
us	-60
NA	-61
世纪	-62
as	-63
国家	-64
分类	-65
of	-66
地区	-67
13	-68
城市	-69
出生	-70
▁B	-71
▁I	-72
re	-73
ro	-74
▁thumb	-75
个一个	-76
游戏	-77
ter	-78
日本	-79
▁分类	-80
ri	-81
ac	-82
el	-83
平方	-84
世界	-85
之一	-86
帝国	-87
▁G	-88
▁R	-89
ol	-90
198	-91
大利	-92
at	-93
▁D	-94
面积	-95
-0	-96
25	-97
法国	-98
il	-99
主要	-100
渠个	-101
开始	-102
▁of	-103
om	-104
罗马	-105
tion	-106
平方公里	-107
▁L	-108
30	-109
逝世	-110
英国	-111
de	-112
ou	-113
共和	-114
成为	-115
第一	-116
he	-117
24	-118
▁▁▁▁	-119
▁H	-120
▁E	-121
and	-122
西班	-123
▁-	-124
,19	-125
西班牙	-126
也是	-127
ta	-128
历史	-129
px	-130
ra	-131
22	-132
▁F	-133
ing	-134
部分	-135
意大利	-136
号线	-137
▁《	-138
▁W	-139
it	-140
ch	-141
共和国	-142
▁2	-143
学家	-144
大事	-145
ia	-146
os	-147
可以	-148
公司	-149
》(	-150
大事记	-151
政府	-152
la	-153
▁|-	-154
文化	-155
gh	-156
第二	-157
尼亚	-158
包括	-159
un	-160
政治	-161
23	-162
使用	-163
JP	-164
利亚	-165
et	-166
印度	-167
28	-168
▁N	-169
▁3	-170
▁K	-171
电影	-172
欧洲	-173
大学	-174
车站	-175
26	-176
称为	-177
运动	-178
之后	-179
交关	-180
27	-181
人民	-182
战争	-183
乃朝	-184
北部	-185
ed	-186
中个	-187
首府	-188
国王	-189
▁19	-190
”。	-191
南部	-192
29	-193
ent	-194
国际	-195
id	-196
皇帝	-197
ur	-198
21	-199
希腊	-200
▁J	-201
大个	-202
建立	-203
罗斯	-204
50	-205
来勒	-206
香港	-207
)、	-208
▁In	-209
阿拉	-210
▁*	-211
足球	-212
ad	-213
中心	-214
王朝	-215
是一种	-216
德国	-217
地铁	-218
交通	-219
31	-220
ght	-221
研究	-222
▁4	-223
系统	-224
ag	-225
缩略	-226
▁1	-227
缩略图	-228
电子	-229
行政	-230
立在	-231
▁200	-232
”,	-233
im	-234
ve	-235
演员	-236
时期	-237
里向	-238
60	-239
▁the	-240
搭仔	-241
197	-242
重要	-243
▁大事记	-244
一般	-245
ul	-246
个人	-247
经济	-248
ir	-249
▁O	-250
因为	-251
自家	-252
主义	-253
著名	-254
▁s	-255
年个	-256
总统	-257
成立	-258
统治	-259
40	-260
独立	-261
语言	-262
代表	-263
属于	-264
▁de	-265
▁6	-266
中华	-267
俄罗斯	-268
▁d	-269
hi	-270
主教	-271
王国	-272
ers	-273
个地	-274
ce	-275
▁5	-276
拉丁	-277
▁V	-278
-),	-279
ak	-280
100	-281
▁c	-282
英文	-283
ow	-284
ay	-285
▁缩略图	-286
000	-287
人物	-288
▁8	-289
获得	-290
2000	-291
ation	-292
阿拉伯	-293
▁9	-294
一世	-295
法语	-296
首都	-297
194	-298
发行	-299
是一个	-300
li	-301
其中	-302
▁p	-303
系列	-304
op	-305
之间	-306
发展	-307
ot	-308
196	-309
年代	-310
社会	-311
作为	-312
通过	-313
og	-314
弗同	-315
时代	-316
外部	-317
渠拉	-318
作品	-319
▁7	-320
▁20	-321
当中	-322
动物	-323
oc	-324
个辰光	-325
其他	-326
格兰	-327
第三	-328
ang	-329
是由	-330
西亚	-331
ha	-332
参考	-333
进行	-334
The	-335
阿尔	-336
ig	-337
轨道	-338
▁f	-339
公元	-340
人个	-341
组成	-342
35	-343
正式	-344
▁U	-345
音乐	-346
简称	-347
▁n	-348
教宗	-349
▁and	-350
民族	-351
通常	-352
学名	-353
自治	-354
组织	-355
认为	-356
生物	-357
▁—	-358
▁|199	-359
斯特	-360
二世	-361
▁m	-362
right	-363
电视	-364
迭个	-365
》,	-366
是指	-367
▁18	-368
tr	-369
联合	-370
伊拉	-371
物理	-372
影响	-373
浙江	-374
195	-375
ni	-376
ub	-377
EU	-378
或者	-379
37	-380
个大	-381
▁▁▁	-382
45	-383
发生	-384
ec	-385
链接	-386
电子游戏	-387
植物	-388
2001	-389
北京	-390
就是	-391
ud	-392
od	-393
36	-394
伊个	-395
拉拉	-396
建筑	-397
ap	-398
儿子	-399
成功	-400
斯坦	-401
奥斯	-402
化学	-403
发现	-404
州市	-405
德语	-406
ts	-407
80	-408
铁路	-409
葡萄	-410
台湾	-411
▁b	-412
荷兰	-413
同时	-414
ai	-415
罗马帝国	-416
街道	-417
ard	-418
,18	-419
ie	-420
弗过	-421
▁Ch	-422
轨道交通	-423
形成	-424
▁in	-425
33	-426
70	-427
ok	-428
西部	-429
非洲	-430
ine	-431
1,	-432
▁St	-433
上个	-434
》、	-435
基督	-436
所以	-437
管理	-438
蒙古	-439
宗教	-440
.5	-441
军队	-442
48	-443
ob	-444
制作	-445
殖民	-446
ge	-447
群岛	-448
作家	-449
根据	-450
人民共和国	-451
47	-452
还有	-453
2009	-454
所有	-455
字母	-456
开发	-457
all	-458
结束	-459
个一种	-460
ab	-461
90	-462
可能	-463
em	-464
▁拉	-465
联邦	-466
来个	-467
》、《	-468
自由	-469
小说	-470
美洲	-471
越南	-472
又称	-473
34	-474
南京	-475
革命	-476
活动	-477
ne	-478
市镇	-479
西班牙语	-480
▁0	-481
天主教	-482
葡萄牙	-483
出现	-484
中央	-485
半岛	-486
分布	-487
to	-488
▁Inter	-489
元素	-490
已经	-491
年人口	-492
埃及	-493
38	-494
39	-495
64	-496
up	-497
tive	-498
▁阿	-499
维亚	-500
佛教	-501
生活	-502
学院	-503
ess	-504
存在	-505
▁<	-506
ion	-507
2,	-508
君主	-509
中华人民共和国	-510
日语	-511
300	-512
78	-513
朝鲜	-514
江苏	-515
现代	-516
意大利语	-517
自然	-518
土耳	-519
art	-520
▁The	-521
人类	-522
55	-523
歌手	-524
出版	-525
ment	-526
合物	-527
成员	-528
在位	-529
最后	-530
瑞典	-531
中部	-532
军事	-533
渠是	-534
uc	-535
年到	-536
伊斯	-537
教育	-538
东部	-539
土耳其	-540
外部链接	-541
由于	-542
英格兰	-543
1999	-544
ik	-545
基本	-546
75	-547
艺术	-548
ph	-549
也有	-550
多个	-551
ong	-552
qu	-553
单位	-554
1996	-555
ng	-556
ev	-557
ian	-558
国个	-559
名字	-560
名个	-561
控制	-562
ran	-563
大陆	-564
46	-565
地下	-566
机场	-567
因此	-568
zh	-569
比亚	-570
但是	-571
中國	-572
波斯	-573
澳大利	-574
工程	-575
行政区	-576
波兰	-577
文学	-578
像素	-579
io	-580
49	-581
oft	-582
工作	-583
官方	-584
密度	-585
邪气	-586
大区	-587
st	-588
”(	-589
民主	-590
领导	-591
.0	-592
关系	-593
2006	-594
当时	-595
2002	-596
贝尔	-597
2005	-598
此地	-599
是中国	-600
1995	-601
唐朝	-602
▁Y	-603
具有	-604
1998	-605
一直	-606
ity	-607
名称	-608
路站	-609
ind	-610
1997	-611
2010	-612
意思	-613
两个	-614
地球	-615
一些	-616
av	-617
太平	-618
190	-619
年电子游戏	-620
地方	-621
十二	-622
表示	-623
eb	-624
方式	-625
澳大利亚	-626
nter	-627
东南	-628
杭州	-629
▁,	-630
科学	-631
上海市	-632
搭子	-633
苏州	-634
2007	-635
68	-636
拥有	-637
出生拉	-638
是美国	-639
▁:	-640
三世	-641
将军	-642
明朝	-643
韩国	-644
拉丁语	-645
最高	-646
苏联	-647
来自	-648
设计	-649
58	-650
俄语	-651
今朝	-652
-10	-653
▁大	-654
民国	-655
han	-656
全国	-657
are	-658
个儿子	-659
担任	-660
地理	-661
32	-662
2008	-663
nd	-664
ep	-665
▁w	-666
ist	-667
原子	-668
eg	-669
产生	-670
44	-671
2004	-672
化合物	-673
65	-674
西南	-675
运动员	-676
受到	-677
(18	-678
1994	-679
98	-680
方言	-681
》。	-682
tic	-683
第四	-684
ov	-685
ut	-686
1.	-687
约翰	-688
后来	-689
-18	-690
法兰	-691
67	-692
位置	-693
联盟	-694
99	-695
宣布	-696
个一座	-697
ys	-698
作用	-699
里亚	-700
总面积	-701
ip	-702
尔兰	-703
传统	-704
est	-705
-11	-706
伊斯兰	-707
巴黎	-708
支持	-709
▁10	-710
省个一个	-711
保护	-712
UK	-713
形式	-714
里斯	-715
Ch	-716
东北	-717
名为	-718
最佳	-719
资料	-720
古代	-721
最大个	-722
公路	-723
active	-724
个是	-725
1990	-726
..	-727
技术	-728
公元前	-729
II	-730
大部分	-731
57	-732
▁/	-733
塞尔	-734
加拿	-735
爆发	-736
爱尔兰	-737
克斯	-738
地利	-739
工业	-740
计算	-741
,20	-742
公园	-743
enter	-744
有得	-745
二十	-746
有一	-747
56	-748
乐部	-749
省个	-750
3,	-751
该国	-752
俱乐部	-753
人口密度	-754
交关多	-755
自家个	-756
▁v	-757
大城市	-758
▁Interactive	-759
▁▁▁▁▁▁▁▁	-760
▁马	-761
结构	-762
附近	-763
最早	-764
江南	-765
重要个	-766
角色	-767
-)	-768
sp	-769
大战	-770
man	-771
ens	-772
进入	-773
奥地利	-774
ew	-775
au	-776
个国家	-777
1993	-778
tation	-779
方面	-780
亚洲	-781
分为	-782
海拔	-783
老早	-784
阿拉伯语	-785
-19	-786
ah	-787
。19	-788
-12	-789
境内	-790
大约	-791
:“	-792
泰国	-793
基督教	-794
ber	-795
our	-796
路易	-797
2003	-798
侪是	-799
西北	-800
▁k	-801
。20	-802
万人	-803
一种	-804
是一位	-805
得到	-806
举行	-807
▁)	-808
ames	-809
tain	-810
金属	-811
希腊语	-812
land	-813
个城市	-814
.8	-815
”、	-816
用来	-817
航空	-818
76	-819
250	-820
年出生	-821
区域	-822
天堂	-823
期间	-824
叫做	-825
79	-826
吴越	-827
外加	-828
百科	-829
平均	-830
软件	-831
ast	-832
1992	-833
」。	-834
加拿大	-835
第一次	-836
▁l	-837
克兰	-838
高头	-839
74	-840
文字	-841
▁南	-842
千米	-843
银行	-844
故事	-845
-20	-846
是意大利	-847
ue	-848
,000	-849
早期	-850
地区个	-851
著名个	-852
战役	-853
iv	-854
66	-855
ord	-856
59	-857
▁=	-858
清朝	-859
原名	-860
导演	-861
1991	-862
ff	-863
ال	-864
超过	-865
另外	-866
下辖	-867
换乘	-868
▁II	-869
生拉	-870
条约	-871
物质	-872
一年	-873
生产	-874
▁17	-875
文献	-876
分子	-877
挪威	-878
标准	-879
ft	-880
lay	-881
政治人物	-882
▁卡	-883
共同	-884
oh	-885
ug	-886
山脉	-887
ich	-888
个一部分	-889
保加	-890
之间个	-891
▁"	-892
性个	-893
河流	-894
”、“	-895
cc	-896
thumb	-897
会议	-898
多数	-899
委员	-900
por	-901
现在	-902
管辖	-903
西方	-904
▁no	-905
。《	-906
」,	-907
之战	-908
▁11	-909
42	-910
▁第	-911
吴语	-912
细胞	-913
威廉	-914
维基	-915
造成	-916
集团	-917
拉斯	-918
ht	-919
占领	-920
提供	-921
浙江省	-922
69	-923
个地方	-924
第二次	-925
过程	-926
ld	-927
巴西	-928
任天堂	-929
又叫	-930
服务	-931
ack	-932
▁Pro	-933
丹麦	-934
alt	-935
▁参考	-936
南北	-937
去世	-938
德里	-939
伦敦	-940
包含	-941
顶顶	-942
-09	-943
是垃拉	-944
89	-945
▁伊	-946
家族	-947
ell	-948
,198	-949
ight	-950
事体	-951
一個	-952
当地	-953
域名	-954
超级	-955
Al	-956
▁12	-957
▁Ar	-958
分别	-959
距离	-960
ial	-961
國家	-962
斯科	-963
范围	-964
是拉	-965
概念	-966
缩写	-967
冠军	-968
出个	-969
总理	-970
裏向	-971
乌克兰	-972
下头	-973
个一个省	-974
43	-975
个主要	-976
加入	-977
西哥	-978
曾经	-979
是一款	-980
体育	-981
击败	-982
问题	-983
。18	-984
ux	-985
ry	-986
启用	-987
天文	-988
州个	-989
平台	-990
继承	-991
年开始	-992
省个一个市镇	-993
85	-994
▁g	-995
宁波	-996
计划	-997
理论	-998
被称为	-999
▁a	-1000
诗人	-1001
uk	-1002
▁Sh	-1003
政治家	-1004
保加利亚	-1005
ath	-1006
交關	-1007
居民	-1008
思想	-1009
选举	-1010
个主	-1011
之前	-1012
年前	-1013
ton	-1014
ure	-1015
太阳	-1016
河南	-1017
ass	-1018
诺贝尔	-1019
以及	-1020
又名	-1021
氧化	-1022
ill	-1023
.9	-1024
61	-1025
十六	-1026
牙利	-1027
com	-1028
网络	-1029
son	-1030
▁中国	-1031
匈牙利	-1032
SC	-1033
最终	-1034
▁西	-1035
加拉	-1036
ational	-1037
斯拉	-1038
连接	-1039
只有	-1040
平原	-1041
▁NA	-1042
机构	-1043
直到	-1044
奥斯曼	-1045
天皇	-1046
arl	-1047
ary	-1048
反应	-1049
网站	-1050
是日本	-1051
全球	-1052
萨克	-1053
//	-1054
72	-1055
政权	-1056
ame	-1057
事件	-1058
并且	-1059
元年	-1060
顶级	-1061
oy	-1062
tainment	-1063
数据	-1064
职业	-1065
目前	-1066
领土	-1067
制造	-1068
各种	-1069
比利	-1070
54	-1071
武帝	-1072
特别	-1073
end	-1074
▁Enter	-1075
发动	-1076
皇后	-1077
年逝世	-1078
一道	-1079
文明	-1080
奥斯卡	-1081
大道	-1082
150	-1083
ite	-1084
vers	-1085
别样	-1086
定义	-1087
比较	-1088
线路	-1089
负责	-1090
SB	-1091
犹太	-1092
pe	-1093
完成	-1094
定个	-1095
所在	-1096
方法	-1097
虽然	-1098
ows	-1099
十三	-1100
VS	-1101
方向	-1102
▁Al	-1103
改革	-1104
▁Com	-1105
环境	-1106
国民	-1107
号线个	-1108
为主	-1109
经过	-1110
ond	-1111
人搭	-1112
法律	-1113
殖民地	-1114
广泛	-1115
樂美	-1116
太平洋	-1117
科樂美	-1118
省份	-1119
▁Entertainment	-1120
77	-1121
西洋	-1122
▁zh	-1123
▁Soft	-1124
62	-1125
符号	-1126
弗同个	-1127
▁李	-1128
卡尔	-1129
世界大战	-1130
中华民国	-1131
▁▁▁▁▁	-1132
亨利	-1133
年间	-1134
发行个	-1135
神圣	-1136
-31	-1137
inc	-1138
长江	-1139
age	-1140
参加	-1141
(19	-1142
Pro	-1143
联合国	-1144
分布拉	-1145
63	-1146
居住	-1147
重新	-1148
500	-1149
53	-1150
ib	-1151
站是	-1152
-30	-1153
az	-1154
一样	-1155
▁年	-1156
有名个	-1157
十字	-1158
墨西哥	-1159
直接	-1160
东汉	-1161
广场	-1162
▁新	-1163
最初	-1164
地區	-1165
rom	-1166
▁16	-1167
东亚	-1168
▁198	-1169
体个	-1170
太子	-1171
88	-1172
安徽	-1173
ark	-1174
主席	-1175
区个	-1176
苏丹	-1177
首次	-1178
第一个	-1179
:0	-1180
气候	-1181
博物	-1182
司马	-1183
第五	-1184
語言	-1185
任何	-1186
议会	-1187
亚历	-1188
动画	-1189
奥林	-1190
比赛	-1191
江苏省	-1192
aw	-1193
创作	-1194
数学	-1195
流行	-1196
西里	-1197
nivers	-1198
:「	-1199
查理	-1200
相对	-1201
Ar	-1202
芬兰	-1203
400	-1204
是一名	-1205
加坡	-1206
完全	-1207
顶级域	-1208
41	-1209
实际	-1210
将领	-1211
ain	-1212
▁15	-1213
▁[	-1214
地位	-1215
ern	-1216
大臣	-1217
马来	-1218
orld	-1219
弗是	-1220
运营	-1221
需要	-1222
历史上	-1223
委员会	-1224
ae	-1225
导致	-1226
火山	-1227
贸易	-1228
▁Inc	-1229
威尔	-1230
是法国	-1231
indows	-1232
三国	-1233
功能	-1234
死脱	-1235
海岸	-1236
St	-1237
利用	-1238
画家	-1239
穆斯	-1240
ey	-1241
信息	-1242
有限	-1243
ly	-1244
入侵	-1245
创立	-1246
基础	-1247
实行	-1248
言话	-1249
SBN	-1250
▁Z	-1251
传说	-1252
制度	-1253
美國	-1254
规模	-1255
女演员	-1256
西北部	-1257
52	-1258
四世	-1259
奥林匹	-1260
商业	-1261
以色	-1262
纽约	-1263
整个	-1264
73	-1265
▁中	-1266
纪念	-1267
维基百科	-1268
哥伦	-1269
征服	-1270
ear	-1271
以色列	-1272
71	-1273
▁王	-1274
北方	-1275
湖南	-1276
起义	-1277
帝国个	-1278
ach	-1279
ei	-1280
勒到	-1281
反对	-1282
天主	-1283
中学	-1284
▁for	-1285
▁圣	-1286
面个	-1287
东北部	-1288
-15	-1289
ish	-1290
决定	-1291
统一	-1292
ace	-1293
ile	-1294
ius	-1295
ss	-1296
势力	-1297
记载	-1298
-03	-1299
譬如	-1300
▁安	-1301
尼斯	-1302
发明	-1303
大量	-1304
-16	-1305
iz	-1306
▁h	-1307
亚历山	-1308
新加坡	-1309
物理学	-1310
企业	-1311
号是	-1312
各地	-1313
▁An	-1314
勒勒	-1315
旅游	-1316
阶段	-1317
51	-1318
。”	-1319
拜占	-1320
十一	-1321
岛屿	-1322
ock	-1323
):	-1324
都市	-1325
苏格兰	-1326
2011	-1327
吳語	-1328
和平	-1329
▁巴	-1330
伊朗	-1331
成个	-1332
物种	-1333
英雄	-1334
-06	-1335
und	-1336
尼亚语	-1337
运动会	-1338
例如	-1339
土地	-1340
尔斯	-1341
总部	-1342
▁to	-1343
na	-1344
▁X	-1345
▁北	-1346
三角	-1347
神话	-1348
ore	-1349
信仰	-1350
ant	-1351
uper	-1352
mp	-1353
ск	-1354
版本	-1355
物理学家	-1356
勒拉	-1357
结果	-1358
能力	-1359
采用	-1360
奥林匹克	-1361
箇个	-1362
,“	-1363
联网	-1364
公共	-1365
内容	-1366
耶稣	-1367
大學	-1368
瓦尔	-1369
用拉	-1370
相关	-1371
唯一	-1372
最大	-1373
-01	-1374
春秋	-1375
瑞士	-1376
看到	-1377
要求	-1378
4,	-1379
AL	-1380
乔治	-1381
宪法	-1382
行为	-1383
行星	-1384
马里	-1385
作曲	-1386
▁Pr	-1387
认为是	-1388
领导人	-1389
▁Mar	-1390
也叫	-1391
南非	-1392
马拉	-1393
2.	-1394
山东	-1395
电脑	-1396
高速	-1397
即位	-1398
贵族	-1399
hip	-1400
接受	-1401
父亲	-1402
互联网	-1403
下个	-1404
主義	-1405
国内	-1406
转写	-1407
開始	-1408
高度	-1409
上海轨道交通	-1410
,《	-1411
共有	-1412
国旗	-1413
政策	-1414
教会	-1415
一个为	-1416
主角	-1417
后头	-1418
普通	-1419
oun	-1420
世界上	-1421
tp	-1422
代码	-1423
还是	-1424
1989	-1425
伯特	-1426
节度	-1427
ox	-1428
td	-1429
▁东	-1430
三年	-1431
源于	-1432
西南部	-1433
为了	-1434
乌斯	-1435
岛式	-1436
Mar	-1437
95	-1438
伊是	-1439
2015	-1440
05	-1441
ek	-1442
if	-1443
姆斯	-1444
ous	-1445
ris	-1446
中文	-1447
同盟	-1448
年拉	-1449
突厥	-1450
ohn	-1451
96	-1452
left	-1453
拿破	-1454
十五	-1455
海峡	-1456
变化	-1457
家庭	-1458
布拉	-1459
得名	-1460
社會	-1461
,17	-1462
-17	-1463
塞尔维亚	-1464
娱乐	-1465
时间	-1466
2013	-1467
”)	-1468
建设	-1469
排名	-1470
自治区	-1471
参与	-1472
死亡	-1473
现象	-1474
▁Is	-1475
穆斯林	-1476
计算机	-1477
命名	-1478
外交	-1479
大西洋	-1480
年在位	-1481
战国	-1482
提出	-1483
://	-1484
span	-1485
伊斯兰教	-1486
意为	-1487
级市	-1488
领域	-1489
神圣罗马帝国	-1490
当选	-1491
▁出生	-1492
卫星	-1493
左右	-1494
有个	-1495
领袖	-1496
ina	-1497
站臺	-1498
NANA	-1499
sk	-1500
lec	-1501
EA	-1502
各年	-1503
闲话	-1504
ign	-1505
http	-1506
FC	-1507
全部	-1508
one	-1509
6,	-1510
号拉	-1511
尔语	-1512
2014	-1513
edia	-1514
ies	-1515
▁ال	-1516
▁t	-1517
斯拉夫	-1518
▁Part	-1519
今本	-1520
情况	-1521
权力	-1522
部落	-1523
金刚	-1524
ire	-1525
节度使	-1526
世纪各年	-1527
。(	-1528
浦东	-1529
东西	-1530
歷史	-1531
高架	-1532
▁Games	-1533
克罗	-1534
十四	-1535
扮演	-1536
ork	-1537
二年	-1538
共产	-1539
热带	-1540
移民	-1541
达到	-1542
ence	-1543
十年	-1544
咾啥	-1545
江西	-1546
tem	-1547
其顿	-1548
北面	-1549
普空	-1550
质量	-1551
颜色	-1552
ick	-1553
mer	-1554
尼西亚	-1555
有辰光	-1556
亚历山大	-1557
ов	-1558
四川	-1559
▁高	-1560
以后	-1561
兄弟	-1562
号到	-1563
ons	-1564
学者	-1565
尔特	-1566
斯蒂	-1567
长个	-1568
拜占庭	-1569
2012	-1570
中海	-1571
出身	-1572
分支	-1573
开放	-1574
斯克	-1575
用个	-1576
-08	-1577
空间	-1578
设立	-1579
电视剧	-1580
十八	-1581
當中	-1582
ide	-1583
▁|2000	-1584
06	-1585
▁&	-1586
列表	-1587
相当	-1588
省会	-1589
货币	-1590
博物馆	-1591
法兰西	-1592
同年	-1593
逐渐	-1594
▁14	-1595
东南部	-1596
|200	-1597
org	-1598
▁外部链接	-1599
co	-1600
个女	-1601
斯洛	-1602
-04	-1603
ara	-1604
出版社	-1605
拿破仑	-1606
游戏机	-1607
行政区划	-1608
94	-1609
参见	-1610
足球运动员	-1611
An	-1612
南面	-1613
解放	-1614
▁勒	-1615
个小	-1616
▁|1999	-1617
教堂	-1618
取得	-1619
(17	-1620
Play	-1621
|250	-1622
參考	-1623
inux	-1624
北宋	-1625
协会	-1626
新个	-1627
每年	-1628
1987	-1629
布尔	-1630
描述	-1631
源自	-1632
球队	-1633
等地	-1634
olog	-1635
近代	-1636
闰年	-1637
ans	-1638
ith	-1639
tor	-1640
比利时	-1641
1986	-1642
?-	-1643
▁金	-1644
原因	-1645
AT	-1646
社区	-1647
进攻	-1648
个重要	-1649
me	-1650
个特	-1651
侪有	-1652
克里	-1653
动作	-1654
富汗	-1655
欢喜	-1656
甚至	-1657
目的	-1658
遗址	-1659
(16	-1660
个历史	-1661
是中华人民共和国	-1662
.4	-1663
97	-1664
合作	-1665
接壤	-1666
汽车	-1667
联赛	-1668
amp	-1669
▁Ad	-1670
哲学家	-1671
地亚	-1672
西面	-1673
路搭	-1674
ort	-1675
全长	-1676
米亚	-1677
胜利	-1678
法兰克	-1679
83	-1680
号为	-1681
有限公司	-1682
.3	-1683
内部	-1684
南方	-1685
orm	-1686
ung	-1687
5,	-1688
87	-1689
以来	-1690
福建	-1691
▁Re	-1692
▁上海	-1693
▁教宗	-1694
▁right	-1695
东京	-1696
合并	-1697
anc	-1698
个意思	-1699
王朝个	-1700
垃拉该国	-1701
▁|1998	-1702
出来	-1703
型个	-1704
继位	-1705
规划	-1706
Station	-1707
81	-1708
1988	-1709
ware	-1710
足球俱乐部	-1711
niversity	-1712
武汉	-1713
ica	-1714
)(	-1715
一位	-1716
女子	-1717
程序	-1718
▁张	-1719
委会	-1720
广东	-1721
材料	-1722
风格	-1723
ice	-1724
开通	-1725
ax	-1726
▁Q	-1727
本名	-1728
核心	-1729
生命	-1730
结束还有	-1731
山区	-1732
地中海	-1733
马其顿	-1734
(2009	-1735
一只	-1736
奥运	-1737
宇宙	-1738
尔德	-1739
有机	-1740
毕业	-1741
疾病	-1742
ten	-1743
82	-1744
假名	-1745
应用	-1746
显示	-1747
汉语	-1748
▁al	-1749
所在地	-1750
叫作	-1751
山市	-1752
相同	-1753
▁on	-1754
阿富汗	-1755
▁category	-1756
白色	-1757
类似	-1758
se	-1759
▁e	-1760
公主	-1761
▁Th	-1762
是一座	-1763
站垃拉	-1764
东方	-1765
维奇	-1766
孟加拉	-1767
年个结束还有	-1768
IS	-1769
▁海	-1770
世嘉	-1771
并拉	-1772
总督	-1773
曹操	-1774
长期	-1775
是一部	-1776
ical	-1777
▁刘	-1778
三个	-1779
或称	-1780
沿岸	-1781
22:	-1782
ron	-1783
▁'	-1784
▁前	-1785
彼得	-1786
菩萨	-1787
-02	-1788
-07	-1789
▁Ph	-1790
公爵	-1791
农业	-1792
哲学	-1793
第六	-1794
▁Cl	-1795
2016	-1796
center	-1797
Ph	-1798
学堂	-1799
总人口	-1800
是英国	-1801
jp	-1802
。」	-1803
多种	-1804
承认	-1805
此外	-1806
att	-1807
93	-1808
ma	-1809
产品	-1810
效力	-1811
-05	-1812
▁Te	-1813
乃歇	-1814
可汗	-1815
河北	-1816
▁--	-1817
▁re	-1818
92	-1819
城区	-1820
希伯	-1821
号启用	-1822
illi	-1823
sh	-1824
创始	-1825
项目	-1826
ana	-1827
▁Sp	-1828
.2	-1829
OS	-1830
弗朗	-1831
way	-1832
▁Ro	-1833
失败	-1834
数字	-1835
斯堡	-1836
ank	-1837
7,	-1838
In	-1839
ix	-1840
医学	-1841
|300	-1842
.1	-1843
ci	-1844
tu	-1845
也称	-1846
属个	-1847
统计	-1848
▁列	-1849
内亚	-1850
力学	-1851
力量	-1852
河畔	-1853
海洋	-1854
特拉	-1855
率领	-1856
是一款由	-1857
世紀	-1858
巴尔	-1859
广州	-1860
意志	-1861
港口	-1862
-14	-1863
▁Le	-1864
1980	-1865
▁.	-1866
出任	-1867
处理	-1868
学生	-1869
对于	-1870
构成	-1871
称呼	-1872
闻名	-1873
个第一	-1874
使用个	-1875
建成	-1876
national	-1877
PlayStation	-1878
交易	-1879
签订	-1880
▁秦	-1881
俄国	-1882
古老	-1883
执政	-1884
政变	-1885
普遍	-1886
路口	-1887
jpg	-1888
是印度	-1889
辰光个	-1890
▁Light	-1891
).	-1892
经常	-1893
面積	-1894
个地区	-1895
也可以	-1896
▁奥	-1897
或是	-1898
海军	-1899
古希腊	-1900
Linux	-1901
▁Stud	-1902
年起	-1903
建于	-1904
新区	-1905
是为	-1906
粒子	-1907
著作	-1908
西斯	-1909
資料	-1910
eng	-1911
old	-1912
uro	-1913
个一个城市	-1914
.6	-1915
86	-1916
▁+	-1917
發展	-1918
ier	-1919
奥林匹克运动会	-1920
五世	-1921
ver	-1922
Sh	-1923
列车	-1924
博士	-1925
县个	-1926
女性	-1927
市场	-1928
根廷	-1929
缅甸	-1930
起来	-1931
ase	-1932
▁–	-1933
▁天	-1934
中華	-1935
公历	-1936
文物	-1937
普鲁	-1938
翻译	-1939
国家搭	-1940
▁|1997	-1941
▁宋	-1942
增加	-1943
工具	-1944
精神	-1945
600	-1946
Prov	-1947
国际机场	-1948
马来西亚	-1949
國際	-1950
知名	-1951
科技	-1952
▁13	-1953
北美	-1954
喜剧	-1955
大会	-1956
持续	-1957
先后	-1958
表演	-1959
除了	-1960
希伯来	-1961
之外	-1962
分析	-1963
是以	-1964
本身	-1965
语系	-1966
运河	-1967
ann	-1968
个一条	-1969
奥斯曼帝国	-1970
▁la	-1971
平方千米	-1972
▁World	-1973
IC	-1974
su	-1975
加利	-1976
又译	-1977
取代	-1978
圣经	-1979
捷克	-1980
灭亡	-1981
皇家	-1982
群島	-1983
ium	-1984
▁War	-1985
cn	-1986
关于	-1987
引起	-1988
心理	-1989
无锡	-1990
大公	-1991
改编	-1992
能够	-1993
行动	-1994
连续	-1995
180	-1996
人口约	-1997
哥伦比亚	-1998
▁Software	-1999
84	-2000
AR	-2001
了一	-2002
团体	-2003
斯塔	-2004
模拟	-2005
设置	-2006
大多数	-2007
ст	-2008
会得	-2009
十七	-2010
米尔	-2011
索尼	-2012
▁80	-2013
ance	-2014
发布	-2015
媒体	-2016
市个	-2017
延伸	-2018
教授	-2019
来拉	-2020
状态	-2021
男子	-2022
(15	-2023
2017	-2024
ka	-2025
后个	-2026
实验	-2027
曾任	-2028
设备	-2029
亚美	-2030
学校	-2031
至今	-2032
ubl	-2033
足球队	-2034
是俄罗斯	-2035
后期	-2036
安全	-2037
汗国	-2038
▁逝世	-2039
以上	-2040
四年	-2041
按照	-2042
iss	-2043
阿根廷	-2044
ty	-2045
▁卷	-2046
分裂	-2047
南宋	-2048
恢复	-2049
金融	-2050
之後	-2051
作者	-2052
初期	-2053
有关	-2054
立陶	-2055
而且	-2056
中世纪	-2057
1000	-2058
1945	-2059
ners	-2060
TL	-2061
ke	-2062
个新	-2063
复兴	-2064
来讲	-2065
经典	-2066
罕默	-2067
能量	-2068
号线搭	-2069
官员	-2070
幕府	-2071
神经	-2072
产业	-2073
克拉	-2074
地震	-2075
操作	-2076
演出	-2077
年去世	-2078
是香港	-2079
2019	-2080
迭些	-2081
严重	-2082
冲突	-2083
十九	-2084
中个第	-2085
立陶宛	-2086
阿尔巴	-2087
▁University	-2088
ll	-2089
部长	-2090
首相	-2091
个影响	-2092
罕默德	-2093
|2	-2094
▁右	-2095
攻击	-2096
红色	-2097
鸟类	-2098
数学家	-2099
组成个	-2100
ystem	-2101
.7	-2102
91	-2103
▁罗	-2104
协议	-2105
女王	-2106
建造	-2107
王位	-2108
邮政	-2109
作曲家	-2110
葡萄牙语	-2111
▁。	-2112
意义	-2113
权利	-2114
▁km	-2115
公民	-2116
冒险	-2117
相互	-2118
运行	-2119
(14	-2120
nership	-2121
--	-2122
发表	-2123
埃尔	-2124
文件	-2125
(10	-2126
德意志	-2127
传播	-2128
戏剧	-2129
身份	-2130
长子	-2131
(13	-2132
ley	-2133
▁ISBN	-2134
第二次世界大战	-2135
个高	-2136
大多	-2137
投降	-2138
ood	-2139
ram	-2140
▁Ed	-2141
穆罕默德	-2142
中山	-2143
士坦	-2144
记录	-2145
aster	-2146
多年	-2147
更加	-2148
梦宫	-2149
综合	-2150
火车站	-2151
▁Windows	-2152
▁Partnership	-2153
sg	-2154
|<	-2155
以北	-2156
大型	-2157
奴隶	-2158
ode	-2159
卡普空	-2160
是西班牙	-2161
km	-2162
之乱	-2163
创办	-2164
卡拉	-2165
基地	-2166
漫画	-2167
蛋白	-2168
表面	-2169
les	-2170
君士坦	-2171
克罗地亚	-2172
▁平方公里	-2173
▁;	-2174
▁明	-2175
数量	-2176
维尔	-2177
enn	-2178
▁Lightspan	-2179
▁小	-2180
内个	-2181
力个	-2182
宋朝	-2183
病毒	-2184
随着	-2185
ust	-2186
%。	-2187
BA	-2188
保持	-2189
创建	-2190
到了	-2191
背景	-2192
120	-2193
ata	-2194
詹姆斯	-2195
内战	-2196
总计	-2197
格鲁	-2198
编码	-2199
道路	-2200
个名字	-2201
荷兰语	-2202
个一座城市	-2203
匈奴	-2204
广播	-2205
性质	-2206
海外	-2207
速度	-2208
▁by	-2209
个省份	-2210
Le	-2211
▁汉	-2212
▁科	-2213
交叉	-2214
表现	-2215
象征	-2216
部队	-2217
阳市	-2218
ook	-2219
少数	-2220
接近	-2221
西汉	-2222
资源	-2223
意思是	-2224
sy	-2225
大帝	-2226
常见	-2227
▁主	-2228
▁波	-2229
不列	-2230
另一	-2231
国会	-2232
尤其	-2233
玛丽	-2234
系統	-2235
per	-2236
哈萨克	-2237
ER	-2238
人称	-2239
古典	-2240
天下	-2241
定居	-2242
格拉	-2243
继任	-2244
路线	-2245
马克	-2246
ose	-2247
rid	-2248
▁日本	-2249
克里斯	-2250
共产党	-2251
普鲁士	-2252
Inter	-2253
▁本	-2254
任命	-2255
化个	-2256
是从	-2257
站台	-2258
等等	-2259
箇些	-2260
语族	-2261
電腦	-2262
是德国	-2263
奥斯卡最佳	-2264
乐队	-2265
市区	-2266
标志	-2267
ball	-2268
,8	-2269
ла	-2270
保留	-2271
修造	-2272
如果	-2273
曼谷	-2274
化学式	-2275
省个首府	-2276
ki	-2277
加尔	-2278
城镇	-2279
森林	-2280
經濟	-2281
继续	-2282
领地	-2283
ero	-2284
lin	-2285
奥运会	-2286
hant	-2287
aj	-2288
星系	-2289
版名	-2290
里个	-2291
共和國	-2292
族自治	-2293
▁Cor	-2294
参考资料	-2295
Super	-2296
国家搭地区	-2297
▁三	-2298
一带	-2299
学习	-2300
常州	-2301
年被	-2302
节目	-2303
高原	-2304
交界	-2305
卢森	-2306
学科	-2307
影響	-2308
新闻	-2309
次于	-2310
深圳	-2311
玻利	-2312
而成	-2313
遗产	-2314
风景	-2315
莫斯科	-2316
布鲁	-2317
晓得	-2318
来源	-2319
沿海	-2320
-13	-2321
不列颠	-2322
主要是	-2323
▁Col	-2324
号是公历	-2325
Th	-2326
}-	-2327
▁r	-2328
太祖	-2329
拉圭	-2330
拉特	-2331
重点	-2332
ect	-2333
07	-2334
BC	-2335
边界	-2336
高个	-2337
rag	-2338
ros	-2339
波斯语	-2340
嘸沒	-2341
士尼	-2342
大桥	-2343
恐怖	-2344
西藏	-2345
主要个	-2346
1984	-2347
▁Man	-2348
ان	-2349
原始	-2350
德拉	-2351
签署	-2352
ash	-2353
迪士尼	-2354
伐克	-2355
刺史	-2356
ism	-2357
个首都	-2358
▁New	-2359
▁参考资料	-2360
ky	-2361
ww	-2362
东晋	-2363
湖北	-2364
辖区	-2365
达尔	-2366
ios	-2367
社会主义	-2368
-9	-2369
.,	-2370
▁“	-2371
主持	-2372
史上	-2373
弗少	-2374
萨尔	-2375
设拉	-2376
700	-2377
多利亚	-2378
1983	-2379
▁Comp	-2380
,9	-2381
五代	-2382
函数	-2383
司职	-2384
度个	-2385
ted	-2386
▁Con	-2387
同时也是	-2388
土耳其语	-2389
被认为是	-2390
,0	-2391
主演	-2392
云南	-2393
立法	-2394
▁PP	-2395
卢森堡	-2396
);	-2397
两种	-2398
印尼	-2399
推翻	-2400
摇滚	-2401
改变	-2402
马尔	-2403
ale	-2404
▁De	-2405
个代表	-2406
ος	-2407
▁唐	-2408
引发	-2409
ost	-2410
乃朝个	-2411
男演员	-2412
ES	-2413
一次	-2414
以南	-2415
战斗	-2416
随后	-2417
;}-	-2418
1985	-2419
天文学家	-2420
写个	-2421
发达	-2422
夫人	-2423
山西	-2424
日耳	-2425
生勒	-2426
Acc	-2427
tis	-2428
搭渠个	-2429
里向个	-2430
ille	-2431
-1	-2432
09	-2433
Re	-2434
▁陈	-2435
中原	-2436
本土	-2437
边境	-2438
TLD	-2439
www	-2440
创始人	-2441
南美洲	-2442
基斯坦	-2443
日耳曼	-2444
古巴	-2445
安德	-2446
末年	-2447
模式	-2448
武器	-2449
生理	-2450
羅馬	-2451
ert	-2452
出来个	-2453
搭其他	-2454
▁PAL	-2455
▁Road	-2456
亲王	-2457
公交	-2458
制个	-2459
學院	-2460
得主	-2461
色个	-2462
国家个	-2463
天主敎	-2464
管理个	-2465
1970	-2466
▁from	-2467
再次	-2468
变成	-2469
回教	-2470
在任	-2471
法文	-2472
马斯	-2473
ade	-2474
▁-{	-2475
▁朱	-2476
哺乳	-2477
组合	-2478
艺电	-2479
西兰	-2480
里昂	-2481
ari	-2482
世界杯	-2483
个美国	-2484
ан	-2485
举办	-2486
周期	-2487
恒星	-2488
母亲	-2489
等人	-2490
英里	-2491
igh	-2492
▁di	-2493
是世界	-2494
01	-2495
创造	-2496
台北	-2497
哈布	-2498
推出	-2499
有些	-2500
柏林	-2501
金牌	-2502
隧道	-2503
oog	-2504
个一个州	-2505
incia	-2506
▁2000	-2507
▁Island	-2508
个第	-2509
离全	-2510
绍兴	-2511
该省	-2512
angu	-2513
参考文献	-2514
君士坦丁	-2515
2)	-2516
:《	-2517
▁饰	-2518
ック	-2519
一座	-2520
个三	-2521
以外	-2522
悠久	-2523
自称	-2524
英國	-2525
身体	-2526
,16	-2527
rad	-2528
仅次于	-2529
全世界	-2530
闰年第	-2531
▁2007	-2532
一年中个第	-2533
Center	-2534
yn	-2535
▁周	-2536
▁白	-2537
前身	-2538
北魏	-2539
扩张	-2540
者个	-2541
ald	-2542
ccTLD	-2543
ru	-2544
中间	-2545
执行	-2546
智利	-2547
有人	-2548
杀脱	-2549
爵士	-2550
知识	-2551
纳粹	-2552
美元	-2553
菲律	-2554
食物	-2555
系统中个	-2556
▁2006	-2557
出現	-2558
执导	-2559
有名	-2560
流域	-2561
第一位	-2562
▁978	-2563
▁Mus	-2564
▁Soc	-2565
哈布斯堡	-2566
ology	-2567
▁|2001	-2568
▁吴	-2569
保罗	-2570
多尔	-2571
箇一	-2572
编剧	-2573
遭到	-2574
Mic	-2575
oot	-2576
red	-2577
▁at	-2578
巴基斯坦	-2579
号是公历一年中个第	-2580
Cl	-2581
OM	-2582
ya	-2583
▁米	-2584
。<	-2585
加勒	-2586
原本	-2587
周边	-2588
是大	-2589
out	-2590
ult	-2591
=|	-2592
▁该	-2593
后势	-2594
四大	-2595
年搭	-2596
年由	-2597
德华	-2598
赛车	-2599
国家搭地区顶级域	-2600
离全年个结束还有	-2601
ар	-2602
▁黄	-2603
加上	-2604
夏季	-2605
政党	-2606
神父	-2607
建立了	-2608
是一家	-2609
本游戏	-2610
1949	-2611
罗马尼亚	-2612
一切	-2613
俗称	-2614
弗多	-2615
▁2008	-2616
03	-2617
パー	-2618
慕容	-2619
改为	-2620
文帝	-2621
星座	-2622
玩家	-2623
现任	-2624
陕西	-2625
amb	-2626
FA	-2627
指挥	-2628
普查	-2629
王子	-2630
生个	-2631
维持	-2632
中国个	-2633
伊拉个	-2634
ream	-2635
东面	-2636
斯个	-2637
特殊	-2638
▁EU	-2639
。195	-2640
Provincia	-2641
%,	-2642
一词	-2643
个名	-2644
人拉	-2645
弗能	-2646
▁Se	-2647
laim	-2648
太守	-2649
松江	-2650
ble	-2651
北美洲	-2652
卡斯蒂	-2653
叙利亚	-2654
拉丁字母	-2655
浦东新区	-2656
国家足球队	-2657
(9	-2658
一定	-2659
专门	-2660
几个	-2661
成就	-2662
月球	-2663
洛斯	-2664
重庆	-2665
ome	-2666
几内亚	-2667
outh	-2668
ич	-2669
哈拉	-2670
由於	-2671
骑士	-2672
(?-	-2673
▁Be	-2674
▁Bl	-2675
也就是	-2676
个水	-2677
为人	-2678
全书	-2679
文艺	-2680
特里	-2681
译为	-2682
首领	-2683
:00	-2684
que	-2685
ula	-2686
▁外部	-2687
人民政府	-2688
Sp	-2689
スー	-2690
侧式	-2691
发音	-2692
影片	-2693
登基	-2694
建筑物	-2695
亚美尼亚	-2696
▁|1996	-2697
▁Station	-2698
▁元	-2699
波罗	-2700
用于	-2701
石器	-2702
移动	-2703
个地下	-2704
建立个	-2705
1982	-2706
2018	-2707
etro	-2708
ower	-2709
▁Mon	-2710
互联网域名	-2711
</	-2712
哈里	-2713
无线	-2714
结合	-2715
iel	-2716
一部分	-2717
原子序	-2718
尼亚州	-2719
居委会	-2720
有交关	-2721
ая	-2722
加索	-2723
商人	-2724
小个	-2725
类型	-2726
经历	-2727
起源	-2728
雷斯	-2729
uri	-2730
▁Ex	-2731
世纪初	-2732
威尔士	-2733
2020	-2734
▁y	-2735
希望	-2736
弗里	-2737
苏州市	-2738
五年	-2739
吴国	-2740
好个	-2741
帮助	-2742
摩尔	-2743
用户	-2744
莱茵	-2745
ise	-2746
安徽省	-2747
1975	-2748
顶级域域名	-2749
▁埃	-2750
。“	-2751
以下	-2752
其它	-2753
危机	-2754
塞拜	-2755
徐家	-2756
投票	-2757
气体	-2758
盆地	-2759
相邻	-2760
雅典	-2761
瑞典语	-2762
互联网域名系统中个	-2763
互联网域名系统中个顶级域域名	-2764
一条	-2765
中期	-2766
克尔	-2767
前往	-2768
台州	-2769
屬於	-2770
會稽	-2771
越国	-2772
青年	-2773
个研究	-2774
个第二	-2775
年成立	-2776
邮政编码	-2777
oe	-2778
个海	-2779
六世	-2780
城堡	-2781
天津	-2782
弗断	-2783
民间	-2784
满洲	-2785
规定	-2786
▁),	-2787
▁Fran	-2788
年开始实行	-2789
之子	-2790
从此	-2791
几乎	-2792
到达	-2793
天然	-2794
文學	-2795
新疆	-2796
楚国	-2797
沙漠	-2798
甘肃	-2799
稳定	-2800
脱离	-2801
通车	-2802
(12	-2803
III	-2804
时期个	-2805
美国个	-2806
而得名	-2807
04	-2808
3.	-2809
Ge	-2810
出道	-2811
反抗	-2812
地处	-2813
太湖	-2814
德尔	-2815
成分	-2816
批准	-2817
斯基	-2818
相似	-2819
▁He	-2820
西西里	-2821
illiam	-2822
人士	-2823
太空	-2824
探险	-2825
物体	-2826
英語	-2827
enc	-2828
▁欧洲	-2829
维多利亚	-2830
▁萨	-2831
上映	-2832
勒斯	-2833
开国	-2834
本地	-2835
比方	-2836
澳洲	-2837
特色	-2838
礼拜	-2839
长沙	-2840
个统治	-2841
任总统	-2842
塞拜疆	-2843
爱德华	-2844
犹太人	-2845
John	-2846
02	-2847
专辑	-2848
体系	-2849
公国	-2850
唱片	-2851
布置	-2852
慕尼	-2853
无法	-2854
比例	-2855
lan	-2856
可能是	-2857
tron	-2858
▁III	-2859
阿尔巴尼亚	-2860
()	-2861
▁在	-2862
乐器	-2863
几何	-2864
史称	-2865
回到	-2866
场化	-2867
必须	-2868
斯加	-2869
連結	-2870
金山	-2871
ese	-2872
▁第一	-2873
拉丁文	-2874
Game	-2875
スーパー	-2876
ition	-2877
,1	-2878
,5	-2879
京都	-2880
合成	-2881
含有	-2882
太宗	-2883
奥尔	-2884
少年	-2885
某些	-2886
派个	-2887
约瑟	-2888
进来	-2889
1960	-2890
▁Car	-2891
yu	-2892
不过	-2893
中共	-2894
任务	-2895
厘米	-2896
威爾	-2897
子个	-2898
支流	-2899
ino	-2900
菲律宾	-2901
orth	-2902
▁Air	-2903
玻利维亚	-2904
分成	-2905
已經	-2906
德川	-2907
慢慢	-2908
战略	-2909
朝廷	-2910
河搭	-2911
然而	-2912
症状	-2913
长安	-2914
ler	-2915
orn	-2916
own	-2917
ric	-2918
电视台	-2919
号线个车站	-2920
▁▁▁▁▁▁	-2921
▁▁▁▁▁▁▁▁▁▁▁▁▁▁▁▁	-2922
ли	-2923
之父	-2924
走向	-2925
通称	-2926
”),	-2927
伊拉克	-2928
中国大陆	-2929
,7	-2930
▁一	-2931
▁是	-2932
中东	-2933
主体	-2934
改名	-2935
晶体	-2936
歌曲	-2937
百万	-2938
考古	-2939
rem	-2940
加利福	-2941
类游戏	-2942
▁Studios	-2943
ón	-2944
▁古	-2945
丰富	-2946
半球	-2947
呒没	-2948
快速	-2949
洛阳	-2950
确定	-2951
赛事	-2952
长度	-2953
南梦宫	-2954
是欧洲	-2955
▁Rac	-2956
全名	-2957
娛樂	-2958
并弗	-2959
毫米	-2960
温度	-2961
简单	-2962
蒙特	-2963
贡献	-2964
州刺史	-2965
慕尼黑	-2966
南京地铁	-2967
gn	-2968
信徒	-2969
印地	-2970
图书	-2971
基金	-2972
弗雷	-2973
徽州	-2974
武装	-2975
科學	-2976
進行	-2977
運動	-2978
部份	-2979
食品	-2980
800	-2981
伐利亚	-2982
1979	-2983
ater	-2984
yo	-2985
一隻	-2986
个外	-2987
公开	-2988
条件	-2989
正教	-2990
特征	-2991
航天	-2992
莱昂	-2993
当中个	-2994
port	-2995
下一个为	-2996
||	-2997
▁哈	-2998
下来	-2999
中最	-3000
具体	-3001
弗拉	-3002
感染	-3003
替代	-3004
电话	-3005
设有	-3006
ins	-3007
加勒比	-3008
面积为	-3009
ince	-3010
CH	-3011
ji	-3012
──	-3013
」、	-3014
交流	-3015
儿童	-3016
加冕	-3017
南朝	-3018
斯卡	-3019
道教	-3020
ail	-3021
市中心	-3022
前一个为	-3023
希伯来语	-3024
角色扮演	-3025
▁System	-3026
2。	-3027
国务	-3028
多次	-3029
孙权	-3030
宦官	-3031
打败	-3032
治疗	-3033
电车	-3034
第七	-3035
迭种	-3036
▁Gu	-3037
ates	-3038
,4	-3039
个两	-3040
仍然	-3041
吉亚	-3042
投入	-3043
自立	-3044
视为	-3045
迅速	-3046
飞机	-3047
-28	-3048
tad	-3049
▁Qu	-3050
乃朝拉	-3051
高加索	-3052
▁乌	-3053
以前	-3054
农民	-3055
原住	-3056
秘鲁	-3057
臺灣	-3058
集中	-3059
-25	-3060
1981	-3061
▁Res	-3062
AN	-3063
La	-3064
cl	-3065
专业	-3066
尼亞	-3067
尼日	-3068
尽管	-3069
曹魏	-3070
浦区	-3071
爆炸	-3072
耶穌	-3073
阿里	-3074
ere	-3075
ole	-3076
▁is	-3077
Acclaim	-3078
争议	-3079
來自	-3080
基于	-3081
战士	-3082
永康	-3083
称作	-3084
逻辑	-3085
ove	-3086
the	-3087
▁阿尔	-3088
科学家	-3089
Fran	-3090
印度尼西亚	-3091
2:	-3092
三大	-3093
东尼	-3094
人们	-3095
佢个	-3096
吉尔	-3097
康熙	-3098
表达	-3099
赤道	-3100
透过	-3101
黑色	-3102
新西兰	-3103
王国个	-3104
▁Adv	-3105
东海	-3106
个同	-3107
刚果	-3108
叛乱	-3109
吐蕃	-3110
民國	-3111
爱沙	-3112
离开	-3113
街机	-3114
过去	-3115
黄金	-3116
ive	-3117
omb	-3118
ren	-3119
形成个	-3120
ener	-3121
08	-3122
CO	-3123
从事	-3124
元音	-3125
大楼	-3126
客运	-3127
所谓	-3128
第八	-3129
Mid	-3130
ati	-3131
ild	-3132
oph	-3133
,2001	-3134
tions	-3135
istory	-3136
拉互联网域名系统中个顶级域域名	-3137
事务	-3138
人员	-3139
冬季	-3140
出口	-3141
大陸	-3142
投资	-3143
文章	-3144
水平	-3145
目标	-3146
組織	-3147
追溯	-3148
-29	-3149
And	-3150
cer	-3151
ple	-3152
个地位	-3153
生活拉	-3154
ward	-3155
oogle	-3156
▁参考文献	-3157
5:	-3158
▁后	-3159
六年	-3160
利奥	-3161
别个	-3162
发射	-3163
召开	-3164
地图	-3165
大夫	-3166
家搭	-3167
是勒	-3168
机械	-3169
终点	-3170
西伯	-3171
赢得	-3172
运输	-3173
魔法	-3174
ney	-3175
▁ch	-3176
▁Sch	-3177
斯洛伐克	-3178
阿塞拜疆	-3179
不同	-3180
伊搭	-3181
大师	-3182
屠杀	-3183
并入	-3184
灭脱	-3185
百年	-3186
破坏	-3187
res	-3188
ura	-3189
ital	-3190
ision	-3191
Windows	-3192
(4	-3193
Ad	-3194
[[	-3195
山县	-3196
法國	-3197
诸侯	-3198
通用	-3199
▁列傳	-3200
波兰语	-3201
Te	-3202
ка	-3203
▁%	-3204
▁布	-3205
一名	-3206
作战	-3207
元朝	-3208
冰岛	-3209
年号	-3210
死后	-3211
渠为	-3212
男性	-3213
(11	-3214
。16	-3215
个中心	-3216
1963	-3217
attle	-3218
(1	-3219
-4	-3220
▁佛	-3221
一步	-3222
个总	-3223
之間	-3224
华盛	-3225
拼音	-3226
搭大	-3227
生涯	-3228
种类	-3229
里克	-3230
ano	-3231
aul	-3232
che	-3233
成立于	-3234
ublic	-3235
At	-3236
PL	-3237
lo	-3238
my	-3239
利亞	-3240
四个	-3241
封为	-3242
方程	-3243
洛克	-3244
特定	-3245
百姓	-3246
网球	-3247
西亞	-3248
認爲	-3249
陆军	-3250
非常	-3251
高等	-3252
。17	-3253
世纪末	-3254
华盛顿	-3255
大革命	-3256
民主党	-3257
研究所	-3258
约瑟夫	-3259
▁Eng	-3260
海拔高度	-3261
▁普	-3262
▁苏	-3263
形状	-3264
搭南	-3265
数个	-3266
明治	-3267
)——	-3268
ena	-3269
olf	-3270
个方式	-3271
后势来	-3272
最早个	-3273
reet	-3274
icial	-3275
号线个一个	-3276
拜占庭帝国	-3277
▁International	-3278
="	-3279
ja	-3280
保守	-3281
观察	-3282
ham	-3283
row	-3284
人口为	-3285
1948	-3286
ISBN	-3287
操作系统	-3288
▁搭	-3289
▁特	-3290
也被	-3291
侵略	-3292
允许	-3293
太后	-3294
妻子	-3295
物事	-3296
经营	-3297
许嵩	-3298
调查	-3299
越王	-3300
ebs	-3301
指个是	-3302
1976	-3303
▁John	-3304
",	-3305
七世	-3306
周围	-3307
地面	-3308
安市	-3309
机器	-3310
称号	-3311
语个	-3312
net	-3313
ony	-3314
ree	-3315
urg	-3316
一直到	-3317
reat	-3318
巴伐利亚	-3319
ations	-3320
▁人	-3321
▁赵	-3322
名人	-3323
年后	-3324
机关	-3325
欧盟	-3326
活動	-3327
湖泊	-3328
網站	-3329
萨斯	-3330
西晋	-3331
部门	-3332
關係	-3333
oth	-3334
北京市	-3335
年诺贝尔	-3336
美国总统	-3337
▁King	-3338
De	-3339
SA	-3340
be	-3341
」(	-3342
位于	-3343
元璋	-3344
利斯	-3345
年至	-3346
广义	-3347
教皇	-3348
石油	-3349
程度	-3350
米尼	-3351
都会	-3352
ake	-3353
ink	-3354
世纪个	-3355
产生个	-3356
大将军	-3357
日本个	-3358
中个一个	-3359
官方语言	-3360
州个首府	-3361
-5	-3362
-8	-3363
GN	-3364
za	-3365
▁塞	-3366
价值	-3367
则是	-3368
发起	-3369
拍摄	-3370
通道	-3371
历史浪	-3372
又称为	-3373
小说家	-3374
政府个	-3375
文学家	-3376
1969	-3377
ustr	-3378
TC	-3379
中亚	-3380
传教	-3381
古斯	-3382
大致	-3383
官话	-3384
年轻	-3385
成爲	-3386
星期	-3387
曾拉	-3388
生平	-3389
维也	-3390
-22	-3391
ini	-3392
」、「	-3393
法国个	-3394
独立个	-3395
岛式车站	-3396
(3	-3397
ер	-3398
个阿	-3399
以搭	-3400
制片	-3401
各国	-3402
实现	-3403
巴布	-3404
此后	-3405
生长	-3406
词汇	-3407
▁Ge	-3408
个成员	-3409
个过程	-3410
维也纳	-3411
af	-3412
信号	-3413
先生	-3414
地带	-3415
塞俄	-3416
弟弟	-3417
沙特	-3418
称帝	-3419
解释	-3420
选择	-3421
通信	-3422
颁布	-3423
ner	-3424
tel	-3425
换乘站	-3426
▁For	-3427
格鲁吉亚	-3428
▁多	-3429
主敎	-3430
乌尔	-3431
使得	-3432
各个	-3433
在拉	-3434
对外	-3435
岛个	-3436
明代	-3437
杂志	-3438
汉朝	-3439
澳门	-3440
登陆	-3441
起兵	-3442
阳县	-3443
首位	-3444
个著名	-3445
▁del	-3446
高速公路	-3447
0.	-3448
Gu	-3449
▁长	-3450
列为	-3451
多瓦	-3452
航海	-3453
ami	-3454
any	-3455
duc	-3456
个发展	-3457
个概念	-3458
马德里	-3459
raph	-3460
文物保护	-3461
西伯利亚	-3462
▁2004	-3463
-10-31	-3464
SD	-3465
va	-3466
ор	-3467
▁全	-3468
上头	-3469
元首	-3470
南路	-3471
发售	-3472
导体	-3473
意识	-3474
氨基	-3475
蛮多	-3476
车辆	-3477
ict	-3478
van	-3479
东南亚	-3480
渠拉个	-3481
Am	-3482
▁克	-3483
▁清	-3484
七年	-3485
决赛	-3486
定律	-3487
尚书	-3488
岩石	-3489
建築	-3490
新教	-3491
杉矶	-3492
河口	-3493
渠搭	-3494
租界	-3495
移植	-3496
空气	-3497
米兰	-3498
ama	-3499
ics	-3500
是教宗	-3501
逝世拉	-3502
为上海轨道交通	-3503
-2	-3504
▁亚	-3505
传奇	-3506
利益	-3507
卫生	-3508
咾多	-3509
模特	-3510
猶太	-3511
靠近	-3512
lor	-3513
▁JP	-3514
印度洋	-3515
古罗马	-3516
唯一个	-3517
段辰光	-3518
洛杉矶	-3519
1977	-3520
1978	-3521
iver	-3522
OR	-3523
PC	-3524
ho	-3525
ев	-3526
▁或	-3527
伯爵	-3528
地个	-3529
塔尔	-3530
瑞拉	-3531
相望	-3532
罗德	-3533
耳他	-3534
规则	-3535
议院	-3536
int	-3537
ita	-3538
▁约翰	-3539
个第三	-3540
平方米	-3541
杭州市	-3542
越南语	-3543
1961	-3544
,3	-3545
IN	-3546
ps	-3547
平面	-3548
放射	-3549
特个	-3550
olu	-3551
第二大	-3552
罗马化	-3553
,6	-3554
ON	-3555
上帝	-3556
临时	-3557
互相	-3558
县治	-3559
命令	-3560
复杂	-3561
废除	-3562
族群	-3563
格尔	-3564
生于	-3565
西湖	-3566
飞行	-3567
鲁斯	-3568
IVS	-3569
ega	-3570
lex	-3571
ool	-3572
oon	-3573
▁Me	-3574
▁世嘉	-3575
rand	-3576
文物保护单位	-3577
6:	-3578
BE	-3579
ий	-3580
▁水	-3581
丽莎	-3582
内阁	-3583
增长	-3584
宣言	-3585
平定	-3586
形态	-3587
药物	-3588
辐射	-3589
量个	-3590
▁Pe	-3591
原住民	-3592
是上海	-3593
1946	-3594
ports	-3595
一種	-3596
东路	-3597
个国	-3598
十月	-3599
因為	-3600
基因	-3601
委内	-3602
液体	-3603
种植	-3604
科幻	-3605
耶律	-3606
路德	-3607
酸盐	-3608
,15	-3609
New	-3610
▁历史	-3611
个关系	-3612
而闻名	-3613
▁2005	-3614
ootball	-3615
we	-3616
》《	-3617
书记	-3618
事业	-3619
双方	-3620
固体	-3621
德文	-3622
成為	-3623
混合	-3624
独裁	-3625
联军	-3626
证明	-3627
镇压	-3628
Par	-3629
ais	-3630
制作搭	-3631
文化个	-3632
....	-3633
1947	-3634
1966	-3635
原子序数	-3636
委内瑞拉	-3637
号线个地下	-3638
第一次世界大战	-3639
(6	-3640
人工	-3641
以西	-3642
浦江	-3643
温州	-3644
现存	-3645
现实	-3646
理查	-3647
电磁	-3648
禁止	-3649
纪录	-3650
联系	-3651
袭击	-3652
邻近	-3653
ene	-3654
lus	-3655
ual	-3656
。15	-3657
图书馆	-3658
埃塞俄	-3659
最大城市	-3660
▁スーパー	-3661
-3	-3662
下游	-3663
乃末	-3664
加州	-3665
大小	-3666
宰相	-3667
射击	-3668
左侧	-3669
弗大	-3670
汉字	-3671
河个	-3672
语支	-3673
足联	-3674
還有	-3675
限制	-3676
Com	-3677
▁Sc	-3678
▁||	-3679
拉美国	-3680
缩写为	-3681
追溯到	-3682
1974	-3683
▁Rob	-3684
顶顶大个	-3685
▁Press	-3686
!!	-3687
▁j	-3688
▁帕	-3689
中路	-3690
乐团	-3691
人数	-3692
因而	-3693
展开	-3694
建国	-3695
掌握	-3696
提名	-3697
教會	-3698
是有	-3699
時代	-3700
根據	-3701
解决	-3702
量子	-3703
Psy	-3704
战争中	-3705
时代个	-3706
aint	-3707
▁with	-3708
▁杨	-3709
▁江	-3710
ター	-3711
一家	-3712
个县	-3713
书写	-3714
乾隆	-3715
個人	-3716
努斯	-3717
劳动	-3718
德兰	-3719
明显	-3720
等个	-3721
金像	-3722
chn	-3723
▁——	-3724
萨克森	-3725
titu	-3726
AC	-3727
▁尼	-3728
丘陵	-3729
丞相	-3730
主权	-3731
保存	-3732
划分	-3733
前任	-3734
巴勒	-3735
獨立	-3736
現代	-3737
理解	-3738
生态	-3739
维斯	-3740
San	-3741
uel	-3742
内蒙古	-3743
最多个	-3744
英国个	-3745
osis	-3746
▁Ass	-3747
▁Des	-3748
物理学奖	-3749
航空公司	-3750
▁2009	-3751
EC	-3752
bo	-3753
ен	-3754
因爲	-3755
因素	-3756
如来	-3757
德罗	-3758
攻打	-3759
法院	-3760
秦国	-3761
西文	-3762
iet	-3763
▁En	-3764
尤其是	-3765
年国家	-3766
1950	-3767
▁「	-3768
▁艾	-3769
一淘	-3770
业务	-3771
以东	-3772
医生	-3773
大气	-3774
帝國	-3775
搭渠	-3776
整数	-3777
来到	-3778
格里	-3779
欢迎	-3780
王室	-3781
股份	-3782
菲利	-3783
评价	-3784
SCE	-3785
gin	-3786
化学家	-3787
1973	-3788
级行政区	-3789
是一位美国	-3790
ebsite	-3791
ct	-3792
gu	-3793
|3	-3794
勒密	-3795
太陽	-3796
定为	-3797
容易	-3798
彻底	-3799
毛里	-3800
用作	-3801
閒話	-3802
,14	-3803
mon	-3804
mun	-3805
▁主页	-3806
大规模	-3807
开发个	-3808
朝鲜语	-3809
ouse	-3810
乌克兰语	-3811
官方网站	-3812
lu	-3813
▁个	-3814
▁加	-3815
二层	-3816
佛罗	-3817
抵抗	-3818
是南	-3819
格林	-3820
线个	-3821
舞台	-3822
西路	-3823
首个	-3824
个人物	-3825
所有个	-3826
avid	-3827
illa	-3828
希腊神话	-3829
TH	-3830
by	-3831
制定	-3832
動物	-3833
原产	-3834
器官	-3835
城县	-3836
女神	-3837
委員	-3838
學家	-3839
拉此	-3840
是对	-3841
流经	-3842
球员	-3843
被杀	-3844
迭一	-3845
遊戲	-3846
(),	-3847
erv	-3848
tes	-3849
uss	-3850
▁罗马	-3851
交叉口	-3852
威尼斯	-3853
省下辖	-3854
1962	-3855
1971	-3856
enti	-3857
个地级市	-3858
领导人列表	-3859
年国家领导人列表	-3860
(5	-3861
IP	-3862
。)	-3863
也弗	-3864
平安	-3865
搭北	-3866
摩洛	-3867
月初	-3868
末期	-3869
法个	-3870
草原	-3871
被迫	-3872
誉为	-3873
通過	-3874
金华	-3875
除脱	-3876
马丁	-3877
古老个	-3878
国民党	-3879
|220	-3880
文艺复兴	-3881
索尼電腦	-3882
索尼電腦娛樂	-3883
角色扮演游戏	-3884
神圣罗马帝国皇帝	-3885
▁斯	-3886
▁有	-3887
▁法	-3888
▁薛	-3889
卑斯	-3890
发源	-3891
史克	-3892
同一	-3893
同時	-3894
声音	-3895
对象	-3896
拉尔	-3897
接触	-3898
晚期	-3899
然后	-3900
警察	-3901
议员	-3902
诺曼	-3903
ane	-3904
典型个	-3905
工作室	-3906
托勒密	-3907
蛋白质	-3908
金像奖	-3909
ская	-3910
參考資料	-3911
卡斯蒂利亚	-3912
▁z	-3913
三十	-3914
为一	-3915
八世	-3916
办公	-3917
夺取	-3918
是第	-3919
枢纽	-3920
江户	-3921
浪个	-3922
生存	-3923
电路	-3924
绿色	-3925
讲法	-3926
退役	-3927
首先	-3928
高卢	-3929
-23	-3930
Con	-3931
rit	-3932
摩洛哥	-3933
udson	-3934
Ne	-3935
Or	-3936
东吴	-3937
出名	-3938
分钟	-3939
区别	-3940
医院	-3941
南站	-3942
吸引	-3943
地质	-3944
天体	-3945
失去	-3946
存储	-3947
对应	-3948
带有	-3949
形象	-3950
拉德	-3951
收入	-3952
无机	-3953
昰個	-3954
歌剧	-3955
比較	-3956
萨拉	-3957
行个	-3958
韩语	-3959
oku	-3960
▁Ab	-3961
斯洛文	-3962
是拉拉	-3963
朱元璋	-3964
1967	-3965
1968	-3966
▁Club	-3967
▁邮政编码	-3968
AS	-3969
uz	-3970
为止	-3971
估计	-3972
史记	-3973
大洋	-3974
夺得	-3975
对抗	-3976
州搭	-3977
巴斯	-3978
放弃	-3979
敎會	-3980
设施	-3981
110	-3982
主义者	-3983
印地语	-3984
经济学	-3985
统治者	-3986
ling	-3987
阿尔卑斯	-3988
......	-3989
是上海轨道交通	-3990
Be	-3991
一度	-3992
中學	-3993
停止	-3994
全國	-3995
品种	-3996
婚姻	-3997
就有	-3998
弟子	-3999
手段	-4000
江淮	-4001
自杀	-4002
蓝色	-4003
頂頂	-4004
,12	-4005
Sir	-4006
ral	-4007
主角奖	-4008
今朝个	-4009
基督徒	-4010
▁Par	-4011
arles	-4012
Is	-4013
а́	-4014
ль	-4015
人類	-4016
旗帜	-4017
朋友	-4018
當時	-4019
耶路	-4020
酋长	-4021
ean	-4022
▁2:	-4023
常看到	-4024
比利亚	-4025
orge	-4026
rist	-4027
▁Vol	-4028
面积总计	-4029
,2006	-4030
ragon	-4031
4.	-4032
6.	-4033
个法	-4034
外国	-4035
天台	-4036
抵达	-4037
撒冷	-4038
攻陷	-4039
未来	-4040
本书	-4041
色彩	-4042
萬人	-4043
aya	-4044
也称为	-4045
运动个	-4046
1972	-4047
个一个县	-4048
古希腊语	-4049
耶路撒冷	-4050
,2005	-4051
埃塞俄比亚	-4052
交汇	-4053
华人	-4054
后首	-4055
嘉兴	-4056
城邦	-4057
夸克	-4058
奖项	-4059
巨大	-4060
年底	-4061
形目	-4062
梅克	-4063
箇是	-4064
聲母	-4065
自己	-4066
萬代	-4067
首尔	-4068
aku	-4069
wik	-4070
个电影	-4071
发生拉	-4072
每平方公里	-4073
5.	-4074
ii	-4075
一百	-4076
分离	-4077
加泰	-4078
吳越	-4079
大家	-4080
岛上	-4081
强烈	-4082
拒绝	-4083
攻占	-4084
祖籍	-4085
福音	-4086
种族	-4087
辽宁	-4088
长达	-4089
240	-4090
rim	-4091
▁美国	-4092
一系列	-4093
半导体	-4094
印度教	-4095
天文学	-4096
尔字母	-4097
徐家汇	-4098
ales	-4099
ount	-4100
▁(18	-4101
垃拉上海	-4102
▁2014	-4103
▁align	-4104
(8	-4105
OC	-4106
oo	-4107
▁о	-4108
▁上	-4109
▁从	-4110
▁莫	-4111
个后	-4112
五十	-4113
其余	-4114
同样	-4115
广西	-4116
扬州	-4117
昆虫	-4118
沙皇	-4119
球场	-4120
矿物	-4121
行省	-4122
陆地	-4123
集合	-4124
NBA	-4125
htm	-4126
oly	-4127
▁As	-4128
▁Co	-4129
使用者	-4130
成为了	-4131
行政區	-4132
马耳他	-4133
berg	-4134
inal	-4135
lymp	-4136
tian	-4137
▁Ind	-4138
垃拉美国	-4139
朝鲜半岛	-4140
杭州地铁	-4141
(2005	-4142
-09-30	-4143
▁Sports	-4144
Ed	-4145
▁武	-4146
傳統	-4147
利安	-4148
同意	-4149
吸收	-4150
国立	-4151
拉垃	-4152
拓跋	-4153
稱爲	-4154
覆盖	-4155
言話	-4156
银河	-4157
黄色	-4158
-27	-4159
ani	-4160
box	-4161
▁2|	-4162
路易斯	-4163
阿尔及	-4164
1965	-4165
ters	-4166
▁泰	-4167
▁维	-4168
个合	-4169
之谦	-4170
事物	-4171
剧情	-4172
原理	-4173
歌唱	-4174
污染	-4175
海南	-4176
科尔	-4177
英属	-4178
草本	-4179
落拉	-4180
评论	-4181
诸葛	-4182
过渡	-4183
采取	-4184
電視	-4185
iew	-4186
个人口	-4187
当时个	-4188
河南省	-4189
河流域	-4190
联合会	-4191
JPJP	-4192
NAEU	-4193
-7	-4194
IT	-4195
IV	-4196
go	-4197
假使	-4198
学术	-4199
性别	-4200
日期	-4201
江戶	-4202
活跃	-4203
派遣	-4204
浪向	-4205
秘密	-4206
纳斯	-4207
若望	-4208
道德	-4209
重建	-4210
高祖	-4211
)、《	-4212
Uni	-4213
▁At	-4214
三角洲	-4215
南京市	-4216
哥伦布	-4217
始建于	-4218
巴尔干	-4219
-195	-4220
form	-4221
line	-4222
▁San	-4223
gnosis	-4224
▁Super	-4225
▁Corpor	-4226
Bl	-4227
▁钱	-4228
ファ	-4229
兴起	-4230
区搭	-4231
号个	-4232
奥多	-4233
小时	-4234
弗得	-4235
方案	-4236
海地	-4237
西欧	-4238
邪氣	-4239
院士	-4240
ume	-4241
▁Am	-4242
▁根据	-4243
制作人	-4244
十字军	-4245
逝世于	-4246
SCEA	-4247
世界各地	-4248
(2001	-4249
俄罗斯帝国	-4250
加利福尼亚州	-4251
,「	-4252
da	-4253
ij	-4254
▁文	-4255
下降	-4256
两国	-4257
个情	-4258
也会	-4259
书院	-4260
人家	-4261
出了	-4262
勃艮	-4263
卜杜	-4264
威胁	-4265
往往	-4266
是北	-4267
時期	-4268
演唱	-4269
特点	-4270
球奖	-4271
至少	-4272
节日	-4273
荣誉	-4274
蜀汉	-4275
雕塑	-4276
▁国际	-4277
▁法国	-4278
东正教	-4279
伟大个	-4280
末阶段	-4281
武汉市	-4282
生物学	-4283
ings	-4284
南斯拉夫	-4285
岛式站臺	-4286
是世界上	-4287
爱沙尼亚	-4288
1、	-4289
9.	-4290
RT	-4291
▁С	-4292
上下	-4293
不過	-4294
个山	-4295
众多	-4296
南极	-4297
吴王	-4298
大厦	-4299
尼尔	-4300
山路	-4301
探测	-4302
日文	-4303
特人	-4304
玫瑰	-4305
理事	-4306
结婚	-4307
菩提	-4308
蘇州	-4309
证券	-4310
饰演	-4311
Mac	-4312
isc	-4313
个语言	-4314
主义个	-4315
也是该	-4316
西班牙个	-4317
▁2010	-4318
AF	-4319
▁二	-4320
。。	-4321
來个	-4322
大败	-4323
左翼	-4324
带领	-4325
德斯	-4326
排列	-4327
欧亚	-4328
演化	-4329
竞技	-4330
逐步	-4331
青铜	-4332
高峰	-4333
></	-4334
Car	-4335
Mon	-4336
Rob	-4337
ito	-4338
oli	-4339
▁25	-4340
▁链接	-4341
个名称	-4342
分别是	-4343
古埃及	-4344
差弗多	-4345
成功个	-4346
最后一	-4347
耶稣会	-4348
通常是	-4349
3000	-4350
ther	-4351
▁And	-4352
ustral	-4353
▁Corporation	-4354
▁徐	-4355
九龙	-4356
习俗	-4357
十国	-4358
占据	-4359
印第	-4360
吉他	-4361
大名	-4362
天王	-4363
尼克	-4364
形容	-4365
拉克	-4366
模型	-4367
西岸	-4368
近年	-4369
里头	-4370
電影	-4371
112	-4372
its	-4373
ors	-4374
uts	-4375
个一個	-4376
个大型	-4377
个经济	-4378
拉欧洲	-4379
有人口	-4380
氧化物	-4381
英文名	-4382
1944	-4383
▁|2002	-4384
Psygnosis	-4385
下令	-4386
全面	-4387
写作	-4388
分配	-4389
古拉	-4390
哈尔	-4391
圣母	-4392
安县	-4393
教区	-4394
氯化	-4395
漢語	-4396
現在	-4397
省道	-4398
罗曼	-4399
观点	-4400
除脫	-4401
23:	-4402
ven	-4403
▁Or	-4404
▁第二	-4405
安东尼	-4406
简称为	-4407
获得了	-4408
ages	-4409
▁Rev	-4410
▁Game	-4411
Ab	-4412
▁平	-4413
一眼	-4414
克莱	-4415
只好	-4416
处于	-4417
多人	-4418
文人	-4419
正常	-4420
毗邻	-4421
繁殖	-4422
育碧	-4423
hai	-4424
▁or	-4425
印第安	-4426
▁Boy	-4427
▁Off	-4428
▁Bank	-4429
olution	-4430
9,	-4431
AM	-4432
ua	-4433
”·	-4434
▁光	-4435
▁孙	-4436
个前	-4437
单于	-4438
厄瓜	-4439
名将	-4440
尼泊	-4441
戈尔	-4442
淡水	-4443
祖先	-4444
该市	-4445
诺斯	-4446
财政	-4447
个军队	-4448
多米尼	-4449
宁波市	-4450
情况下	-4451
托马斯	-4452
金球奖	-4453
附近个	-4454
tics	-4455
▁Mag	-4456
化学式为	-4457
石器时代	-4458
奥斯卡金像奖	-4459
罗马帝国皇帝	-4460
]]	-4461
·“	-4462
于是	-4463
公约	-4464
同性	-4465
唐代	-4466
土星	-4467
尔夫	-4468
应该	-4469
弗可	-4470
是用	-4471
注意	-4472
界个	-4473
营运	-4474
里奥	-4475
个国际	-4476
位皇帝	-4477
剧作家	-4478
勃艮第	-4479
明帝国	-4480
期工程	-4481
(195	-4482
1500	-4483
1964	-4484
ated	-4485
▁Har	-4486
加勒比海	-4487
ba	-4488
на	-4489
▁胡	-4490
主张	-4491
介绍	-4492
剑桥	-4493
北伐	-4494
古城	-4495
商品	-4496
大阪	-4497
尔本	-4498
并没	-4499
必过	-4500
斯图	-4501
景点	-4502
智慧	-4503
有效	-4504
术语	-4505
消灭	-4506
特兰	-4507
站头	-4508
而来	-4509
赫尔	-4510
龍游	-4511
260	-4512
▁人口	-4513
丽莎白	-4514
出生于	-4515
裔美国	-4516
ions	-4517
▁Bar	-4518
匈牙利语	-4519
哺乳动物	-4520
ester	-4521
▁2013	-4522
君士坦丁堡	-4523
rosoft	-4524
-6	-4525
Ac	-4526
Pr	-4527
▁Р	-4528
▁演	-4529
东欧	-4530
个月	-4531
也可	-4532
亚种	-4533
任期	-4534
公布	-4535
占地	-4536
弥陀	-4537
新村	-4538
相连	-4539
繁荣	-4540
约前	-4541
認為	-4542
试图	-4543
返回	-4544
,10	-4545
ada	-4546
上海个	-4547
出现拉	-4548
制作个	-4549
哈里发	-4550
战争个	-4551
搭美国	-4552
特别是	-4553
部作品	-4554
首府为	-4555
SN	-4556
no	-4557
中古	-4558
兴建	-4559
土著	-4560
基辅	-4561
波旁	-4562
浦路	-4563
清真	-4564
用途	-4565
相信	-4566
莱坞	-4567
译作	-4568
高级	-4569
Sam	-4570
erg	-4571
ime	-4572
▁an	-4573
个政治	-4574
交易所	-4575
探险家	-4576
istr	-4577
▁Dev	-4578
巴勒斯坦	-4579
最重要个	-4580
anguage	-4581
▁Soccer	-4582
▁Street	-4583
ca	-4584
pp	-4585
▁{	-4586
▁渠	-4587
》:	-4588
ール	-4589
会稽	-4590
包围	-4591
名词	-4592
固定	-4593
地点	-4594
完颜	-4595
实施	-4596
工人	-4597
已知	-4598
希臘	-4599
开创	-4600
技術	-4601
斯托	-4602
日常	-4603
气温	-4604
测量	-4605
海上	-4606
维埃	-4607
规范	-4608
诺夫	-4609
高中	-4610
Ste	-4611
tro	-4612
▁du	-4613
市辖区	-4614
是一種	-4615
移植到	-4616
罗伯特	-4617
马里奥	-4618
apan	-4619
有机化合物	-4620
,2	-4621
Br	-4622
SE	-4623
Tr	-4624
▁瓦	-4625
▁龙	-4626
五月	-4627
别克	-4628
嘉定	-4629
学会	-4630
山地	-4631
希尔	-4632
年度	-4633
歐洲	-4634
温带	-4635
而是	-4636
腓力	-4637
自动	-4638
迪南	-4639
阿姆	-4640
阿瑟	-4641
ISO	-4642
uan	-4643
▁ro	-4644
下头分	-4645
个位置	-4646
个作品	-4647
墨尔本	-4648
搭政治	-4649
老百姓	-4650
链进来	-4651
ican	-4652
idae	-4653
▁Sci	-4654
伊比利亚	-4655
▁2001	-4656
▁Park	-4657
民主共和国	-4658
第二大城市	-4659
ograph	-4660
▁Olymp	-4661
リー	-4662
北非	-4663
司令	-4664
哈德	-4665
契丹	-4666
奠基	-4667
定義	-4668
成都	-4669
所辖	-4670
文獻	-4671
最多	-4672
有三	-4673
生素	-4674
發生	-4675
老挝	-4676
聯合	-4677
act	-4678
▁世界	-4679
▁英国	-4680
个基础	-4681
分之一	-4682
居住拉	-4683
▁com	-4684
白俄罗斯	-4685
ار	-4686
▁德	-4687
▁鲁	-4688
一樣	-4689
两次	-4690
九年	-4691
伊利	-4692
全市	-4693
军阀	-4694
品牌	-4695
單位	-4696
巴嫩	-4697
巴达	-4698
带来	-4699
弗久	-4700
拿马	-4701
早年	-4702
清代	-4703
真正	-4704
祖父	-4705
足利	-4706
配音	-4707
鞑靼	-4708
-24	-4709
fer	-4710
oss	-4711
ret	-4712
发现个	-4713
国务院	-4714
年左右	-4715
广东省	-4716
Euro	-4717
rich	-4718
▁Ins	-4719
▁2011	-4720
▁City	-4721
哈萨克斯坦	-4722
阿尔及利亚	-4723
▁History	-4724
▁Football	-4725
As	-4726
Sc	-4727
wo	-4728
▁林	-4729
七月	-4730
上游	-4731
准备	-4732
分之	-4733
卡斯	-4734
国防	-4735
大概	-4736
天国	-4737
拉多	-4738
旅客	-4739
每个	-4740
篮球	-4741
者搭	-4742
迪亚	-4743
黑人	-4744
,13	-4745
ola	-4746
公司个	-4747
太阳系	-4748
常见个	-4749
老早个	-4750
黎巴嫩	-4751
amil	-4752
ator	-4753
ound	-4754
▁des	-4755
国家公园	-4756
族自治县	-4757
罗马皇帝	-4758
轨道交通系统	-4759
Se	-4760
oi	-4761
yd	-4762
án	-4763
▁ب	-4764
▁到	-4765
▁卢	-4766
下頭	-4767
事实	-4768
传输	-4769
信奉	-4770
克林	-4771
内陆	-4772
北路	-4773
夏威	-4774
岛搭	-4775
形个	-4776
新城	-4777
明帝	-4778
會議	-4779
次子	-4780
爪哇	-4781
生殖	-4782
箇种	-4783
约有	-4784
罗门	-4785
解散	-4786
迁都	-4787
tiv	-4788
ube	-4789
▁Ac	-4790
南北朝	-4791
夏威夷	-4792
是一個	-4793
查尔斯	-4794
科学院	-4795
音乐家	-4796
eder	-4797
tical	-4798
ipedia	-4799
电子游戏系列	-4800
3)	-4801
DS	-4802
PS	-4803
он	-4804
▁i	-4805
▁万	-4806
之称	-4807
从而	-4808
健康	-4809
公子	-4810
前头	-4811
压力	-4812
史前	-4813
图像	-4814
始皇	-4815
小說	-4816
律师	-4817
总值	-4818
战败	-4819
搿个	-4820
末代	-4821
条目	-4822
泛指	-4823
离子	-4824
训练	-4825
配角	-4826
Vir	-4827
|22	-4828
▁Tr	-4829
▁ar	-4830
个基本	-4831
委員會	-4832
1941	-4833
拉拉该国	-4834
省个省会	-4835
香港演员	-4836
▁Advent	-4837
▁石	-4838
个中	-4839
之下	-4840
也畀	-4841
争夺	-4842
人权	-4843
以此	-4844
减少	-4845
南通	-4846
名胜	-4847
官僚	-4848
家用	-4849
引擎	-4850
我伲	-4851
收复	-4852
比如	-4853
河道	-4854
涉及	-4855
玻璃	-4856
發現	-4857
观测	-4858
道夫	-4859
隋朝	-4860
con	-4861
加泰罗	-4862
尼西亞	-4863
德里克	-4864
rain	-4865
孟加拉国	-4866
纳粹德国	-4867
(2006	-4868
▁行政区划	-4869
''	-4870
HP	-4871
中有	-4872
乐美	-4873
代号	-4874
伊勒	-4875
入口	-4876
出演	-4877
办事	-4878
南端	-4879
吉斯	-4880
呼吸	-4881
国号	-4882
字子	-4883
小学	-4884
戰爭	-4885
排行	-4886
理工	-4887
站厅	-4888
舰队	-4889
讨伐	-4890
迷宫	-4891
针对	-4892
隶属	-4893
齐国	-4894
▁64	-4895
之后个	-4896
乌拉圭	-4897
推出个	-4898
艺术家	-4899
▁Can	-4900
▁Gro	-4901
,2009	-4902
人民共和國	-4903
MP	-4904
ef	-4905
nh	-4906
世代	-4907
东邻	-4908
二战	-4909
作爲	-4910
军人	-4911
學堂	-4912
幻想	-4913
建德	-4914
当代	-4915
得以	-4916
提高	-4917
搭新	-4918
斗争	-4919
族个	-4920
旗下	-4921
矛盾	-4922
示威	-4923
退位	-4924
避免	-4925
雖然	-4926
首任	-4927
魏国	-4928
ott	-4929
uck	-4930
▁IV	-4931
日版名	-4932
菲利普	-4933
起源于	-4934
1920	-4935
ouis	-4936
历史学家	-4937
法国国王	-4938
深圳地铁	-4939
ondon	-4940
▁2012	-4941
Midway	-4942
岛式站臺左侧	-4943
▁杰	-4944
专区	-4945
个分	-4946
个圣	-4947
个最	-4948
九月	-4949
儕是	-4950
免费	-4951
千年	-4952
多少	-4953
常用	-4954
昆明	-4955
是该	-4956
法鼓	-4957
波希	-4958
王后	-4959
直辖	-4960
角度	-4961
达成	-4962
销售	-4963
118	-4964
体育场	-4965
进一步	-4966
elop	-4967
ures	-4968
OH	-4969
gy	-4970
مح	-4971
一级	-4972
中正	-4973
乌兹	-4974
九州	-4975
兰卡	-4976
动力	-4977
句丽	-4978
后世	-4979
园林	-4980
地形	-4981
巴赫	-4982
市长	-4983
批评	-4984
播放	-4985
有所	-4986
服務	-4987
東部	-4988
水个	-4989
洛林	-4990
消失	-4991
特別	-4992
率军	-4993
第九	-4994
範圍	-4995
纳尔	-4996
语音	-4997
边形	-4998
高宗	-4999
las	-5000
ora	-5001
png	-5002
▁30	-5003
个部分	-5004
卡洛斯	-5005
地铁站	-5006
州首府	-5007
自然数	-5008
韩民国	-5009
▁von	-5010
省个一部分	-5011
8.	-5012
▁]	-5013
▁自	-5014
ング	-5015
个神	-5016
乃兴	-5017
之地	-5018
仪式	-5019
就任	-5020
普拉	-5021
梵文	-5022
機場	-5023
民众	-5024
法案	-5025
洛特	-5026
火星	-5027
空中	-5028
类个	-5029
纳米	-5030
编辑	-5031
都督	-5032
重大	-5033
锦标	-5034
),《	-5035
ats	-5036
▁tr	-5037
凯尔特	-5038
相当于	-5039
脱维亚	-5040
连续剧	-5041
over	-5042
文化遗产	-5043
ictor	-5044
万平方公里	-5045
西里尔字母	-5046
igital	-5047
省下辖个地级市	-5048
,(	-5049
UN	-5050
US	-5051
▁四	-5052
▁欧	-5053
上是	-5054
但拉	-5055
修建	-5056
光荣	-5057
八月	-5058
出兵	-5059
匝道	-5060
南市	-5061
原为	-5062
国歌	-5063
布罗	-5064
平等	-5065
扩展	-5066
旅行	-5067
琉球	-5068
维克	-5069
艺人	-5070
西域	-5071
...	-5072
der	-5073
pha	-5074
上海人	-5075
个自治	-5076
办事处	-5077
思想家	-5078
挪威语	-5079
burg	-5080
Google	-5081
苏州轨道交通	-5082
Jo	-5083
Pe	-5084
ih	-5085
mo	-5086
▁!	-5087
书法	-5088
印欧	-5089
古称	-5090
埔寨	-5091
寶格	-5092
崇拜	-5093
建议	-5094
战胜	-5095
斯德	-5096
杀死	-5097
江市	-5098
环绕	-5099
生產	-5100
省搭	-5101
虹桥	-5102
衰落	-5103
退出	-5104
黄河	-5105
黑海	-5106
900	-5107
Har	-5108
nes	-5109
pen	-5110
▁st	-5111
▁第三	-5112
为中国	-5113
包括了	-5114
发现了	-5115
柬埔寨	-5116
英寶格	-5117
lish	-5118
厄瓜多尔	-5119
ander	-5120
EL	-5121
ny	-5122
uu	-5123
yl	-5124
▁吉	-5125
也好	-5126
习惯	-5127
全称	-5128
凯撒	-5129
合肥	-5130
土壤	-5131
场所	-5132
寧波	-5133
引力	-5134
成绩	-5135
格勒	-5136
格莱	-5137
棒球	-5138
橄榄	-5139
皮肤	-5140
網絡	-5141
维护	-5142
美术	-5143
认同	-5144
-26	-5145
命名为	-5146
年之后	-5147
(190	-5148
Xbox	-5149
atch	-5150
ford	-5151
ield	-5152
inus	-5153
人口普查	-5154
组成部分	-5155
美国电影	-5156
▁Amer	-5157
是玻利维亚	-5158
▁River	-5159
William	-5160
lectron	-5161
(7	-5162
Ma	-5163
sc	-5164
一路	-5165
东站	-5166
个体	-5167
主办	-5168
全境	-5169
共总	-5170
反映	-5171
問題	-5172
場化	-5173
学位	-5174
巴拉	-5175
布雷	-5176
截至	-5177
方腊	-5178
是最	-5179
是西	-5180
爱情	-5181
產生	-5182
第十	-5183
等级	-5184
贵州	-5185
oll	-5186
yth	-5187
▁Ev	-5188
个故事	-5189
北部个	-5190
十六国	-5191
日本人	-5192
语言个	-5193
部电影	-5194
,2007	-5195
▁Coun	-5196
▁National	-5197
He	-5198
ms	-5199
一致	-5200
刘邦	-5201
台灣	-5202
大将	-5203
学个	-5204
崛起	-5205
师范	-5206
弗满	-5207
推动	-5208
机会	-5209
標準	-5210
汉族	-5211
空军	-5212
纤维	-5213
脊椎	-5214
雨量	-5215
ago	-5216
ois	-5217
ush	-5218
▁No	-5219
个事体	-5220
个女儿	-5221
传佛教	-5222
号开始	-5223
基金会	-5224
年成为	-5225
改编自	-5226
最初拉	-5227
清真寺	-5228
系统个	-5229
阿卜杜	-5230
▁Bas	-5231
▁pro	-5232
世纪开始	-5233
化学元素	-5234
是新加坡	-5235
高架侧式	-5236
ridge	-5237
个一座车站	-5238
.)	-5239
DP	-5240
Si	-5241
्र	-5242
▁百	-5243
、3	-5244
事故	-5245
人是	-5246
依靠	-5247
保障	-5248
分別	-5249
列入	-5250
士兵	-5251
头衔	-5252
川普	-5253
座堂	-5254
循环	-5255
悉尼	-5256
扩大	-5257
时个	-5258
月到	-5259
校区	-5260
格陵	-5261
瓦拉	-5262
维吾	-5263
花园	-5264
记者	-5265
选手	-5266
win	-5267
工程师	-5268
查理曼	-5269
比方讲	-5270
ress	-5271
ович	-5272
▁Mic	-5273
北京地铁	-5274
金属元素	-5275
斯洛文尼亚	-5276
罗马尼亚语	-5277
英格兰国王	-5278
Microsoft	-5279
▁利	-5280
▁博	-5281
▁比	-5282
个多	-5283
个州	-5284
之中	-5285
人生	-5286
依据	-5287
光个	-5288
关注	-5289
區域	-5290
吳淞	-5291
图形	-5292
塔尼	-5293
奇幻	-5294
小姐	-5295
建安	-5296
弗详	-5297
探索	-5298
普罗	-5299
東京	-5300
梅林	-5301
算法	-5302
腓特	-5303
药师	-5304
达州	-5305
连结	-5306
频率	-5307
ima	-5308
ona	-5309
以上个	-5310
传统个	-5311
巴拉圭	-5312
拉中国	-5313
ague	-5314
▁Cre	-5315
▁薛之谦	-5316
乌兹别克	-5317
伊丽莎白	-5318
最著名个	-5319
迭个辰光	-5320
James	-5321
▁York	-5322
最大个城市	-5323
沙特阿拉伯	-5324
罗马共和国	-5325
:5	-5326
TV	-5327
ee	-5328
▁贝	-5329
▁青	-5330
促进	-5331
儒家	-5332
兩個	-5333
前锋	-5334
大选	-5335
孙子	-5336
密切	-5337
江北	-5338
浪漫	-5339
私人	-5340
纳达	-5341
舞蹈	-5342
舟山	-5343
董事	-5344
解体	-5345
辅音	-5346
鲜卑	-5347
ken	-5348
▁香港	-5349
交界处	-5350
小行星	-5351
突尼斯	-5352
腓特烈	-5353
轨电车	-5354
uman	-5355
▁Per	-5356
年人口为	-5357
欧洲足球	-5358
英文版名	-5359
oseph	-5360
ym	-5361
▁、	-5362
▁黑	-5363
人为	-5364
令狐	-5365
光绪	-5366
办法	-5367
加里	-5368
勒垃	-5369
协定	-5370
单一	-5371
右侧	-5372
地名	-5373
封建	-5374
弗会	-5375
战死	-5376
打击	-5377
报纸	-5378
方便	-5379
泰语	-5380
發行	-5381
线搭	-5382
羽毛	-5383
获胜	-5384
许多	-5385
迁到	-5386
阿曼	-5387
频道	-5388
DNA	-5389
TVS	-5390
uch	-5391
▁23	-5392
军事家	-5393
号正式	-5394
江西省	-5395
法西斯	-5396
自立为	-5397
苏维埃	-5398
被视为	-5399
锦标赛	-5400
alec	-5401
ever	-5402
hael	-5403
▁GPL	-5404
▁Uni	-5405
垃拉中国	-5406
波希米亚	-5407
金牌得主	-5408
非洲国家	-5409
首府设拉	-5410
▁罗马帝国	-5411
是澳大利亚	-5412
人口密度每平方公里	-5413
Ta	-5414
ра	-5415
一层	-5416
下分	-5417
个首	-5418
亚科	-5419
佔领	-5420
六月	-5421
司法	-5422
垂直	-5423
大赛	-5424
學生	-5425
崇明	-5426
教徒	-5427
明星	-5428
本岛	-5429
杀害	-5430
权个	-5431
注入	-5432
海域	-5433
狮子	-5434
由此	-5435
留下	-5436
相關	-5437
看看	-5438
细亚	-5439
观众	-5440
访问	-5441
迁徙	-5442
阿布	-5443
顶早	-5444
Rep	-5445
▁UK	-5446
▁le	-5447
世纪中	-5448
个定义	-5449
巴拿马	-5450
年个第	-5451
有一个	-5452
目的是	-5453
bert	-5454
ning	-5455
ross	-5456
▁Ret	-5457
来勒上海	-5458
,2002	-5459
▁website	-5460
地下岛式站臺左侧	-5461
International	-5462
Co	-5463
FI	-5464
▁塔	-5465
▁正	-5466
▁注	-5467
▁魏	-5468
分解	-5469
差异	-5470
徐汇	-5471
播出	-5472
會得	-5473
灭绝	-5474
經過	-5475
约为	-5476
细菌	-5477
翻譯	-5478
让渠	-5479
费利	-5480
起点	-5481
都城	-5482
air	-5483
个形式	-5484
四川省	-5485
希腊文	-5486
战役中	-5487
继承人	-5488
属个鸟类	-5489
战争结束	-5490
lease	-5491
-11-30	-5492
中華人民共和國	-5493
7.	-5494
三國	-5495
个老	-5496
人体	-5497
修改	-5498
光明	-5499
公孙	-5500
剧本	-5501
原来	-5502
只是	-5503
同名	-5504
咖啡	-5505
国土	-5506
处拉	-5507
大街	-5508
式个	-5509
是否	-5510
梵蒂	-5511
状况	-5512
绘画	-5513
钱塘	-5514
阶级	-5515
食用	-5516
280	-5517
350	-5518
une	-5519
▁Mc	-5520
▁On	-5521
个首府	-5522
了一个	-5523
亚热带	-5524
個辰光	-5525
出道勒	-5526
联邦管	-5527
芬兰语	-5528
英语名	-5529
蒙古语	-5530
▁Ste	-5531
相互作用	-5532
育碧软件	-5533
▁2002	-5534
▁Cent	-5535
▁Techn	-5536
▁Racing	-5537
(2	-5538
pt	-5539
ระ	-5540
▁弗	-5541
主场	-5542
初年	-5543
后者	-5544
和约	-5545
哈利	-5546
哈迈	-5547
哥拉	-5548
基礎	-5549
头孢	-5550
家人	-5551
平衡	-5552
并于	-5553
授予	-5554
教科	-5555
旧称	-5556
昵称	-5557
波尔	-5558
消息	-5559
火车	-5560
直隶	-5561
纳德	-5562
绰号	-5563
诞生	-5564
费尔	-5565
gan	-5566
ycl	-5567
бла	-5568
▁Mo	-5569
个总称	-5570
乃朝是	-5571
当地个	-5572
是东亚	-5573
隶属于	-5574
King	-5575
cast	-5576
orks	-5577
▁公元前	-5578
换乘车站	-5579
▁2016	-5580
▁Arts	-5581
法国大革命	-5582
titute	-5583
IX	-5584
sv	-5585
▁夏	-5586
乘客	-5587
伊尔	-5588
伦斯	-5589
元帅	-5590
先知	-5591
全线	-5592
到个	-5593
加哥	-5594
协调	-5595
寺庙	-5596
常住	-5597
常被	-5598
影像	-5599
日脚	-5600
月份	-5601
样个	-5602
注册	-5603
消费	-5604
演变	-5605
直径	-5606
組成	-5607
终于	-5608
聚居	-5609
英尺	-5610
譬方	-5611
車站	-5612
转换	-5613
迫害	-5614
部个	-5615
间个	-5616
龙珠	-5617
130	-5618
hem	-5619
▁印度	-5620
三角形	-5621
为地下	-5622
境内个	-5623
年上映	-5624
文学奖	-5625
白罗斯	-5626
芝加哥	-5627
阿弥陀	-5628
▁100	-5629
▁Shi	-5630
五代十国	-5631
国际足联	-5632
aleco	-5633
▁韩	-5634
修道	-5635
候选	-5636
八年	-5637
公立	-5638
切尔	-5639
北市	-5640
千人	-5641
协助	-5642
大众	-5643
大卫	-5644
宇文	-5645
宗李	-5646
宣传	-5647
已有	-5648
巴士	-5649
性搭	-5650
拥立	-5651
摄影	-5652
效应	-5653
散文	-5654
暴力	-5655
東南	-5656
电流	-5657
离一	-5658
藏语	-5659
钞票	-5660
開口	-5661
音译	-5662
驱逐	-5663
龙江	-5664
;18	-5665
Bar	-5666
osa	-5667
巨大个	-5668
改名为	-5669
迈克尔	-5670
领导个	-5671
高句丽	-5672
▁Ter	-5673
中華民國	-5674
多米尼加	-5675
生产总值	-5676
,2004	-5677
order	-5678
▁Battle	-5679
],	-5680
kh	-5681
ye	-5682
▁原	-5683
ょう	-5684
丈夫	-5685
先驱	-5686
割据	-5687
北海	-5688
吞并	-5689
吳郡	-5690
地域	-5691
塞罗	-5692
大军	-5693
奥托	-5694
小片	-5695
年以	-5696
库摩	-5697
情況	-5698
搭西	-5699
改称	-5700
明清	-5701
最为	-5702
来越	-5703
格斗	-5704
法属	-5705
游泳	-5706
游牧	-5707
职务	-5708
藝術	-5709
融合	-5710
裡向	-5711
许可	-5712
调整	-5713
边个	-5714
选为	-5715
那不	-5716
音标	-5717
aid	-5718
ala	-5719
cis	-5720
▁24	-5721
▁ac	-5722
▁佛说	-5723
东北亚	-5724
中美洲	-5725
十二月	-5726
存在个	-5727
山东省	-5728
文化搭	-5729
是一类	-5730
是巴西	-5731
1943	-5732
arch	-5733
ilip	-5734
ject	-5735
omas	-5736
rans	-5737
▁Leg	-5738
族自治州	-5739
武汉地铁	-5740
erman	-5741
中国共产党	-5742
中国奥林匹克运动会	-5743
中国奥林匹克运动会金牌得主	-5744
xt	-5745
、4	-5746
ット	-5747
一生	-5748
东征	-5749
个原	-5750
会拉	-5751
伦巴	-5752
体型	-5753
共產	-5754
印刷	-5755
号起	-5756
后裔	-5757
國民	-5758
城站	-5759
布莱	-5760
年生	-5761
影视	-5762
推广	-5763
方个	-5764
武将	-5765
簡稱	-5766
约数	-5767
群体	-5768
萬普	-5769
設計	-5770
讲述	-5771
诗歌	-5772
阳历	-5773
eum	-5774
ien	-5775
tus	-5776
uns	-5777
–18	-5778
▁La	-5779
▁Su	-5780
▁as	-5781
▁ph	-5782
制片人	-5783
动物个	-5784
勒上海	-5785
受欢迎	-5786
定义为	-5787
放射性	-5788
是一所	-5789
是乃朝	-5790
格陵兰	-5791
越来越	-5792
高头个	-5793
html	-5794
ngel	-5795
roid	-5796
▁Ser	-5797
克里米亚	-5798
联邦管区	-5799
World	-5800
主要分布拉	-5801
垃拉武汉市	-5802
iation	-5803
是玻利维亚个省份	-5804
离一年个结束还有	-5805
FR	-5806
Ul	-5807
▁沙	-5808
▁美	-5809
スト	-5810
专家	-5811
两大	-5812
低地	-5813
余杭	-5814
党个	-5815
卡罗	-5816
各種	-5817
名义	-5818
处死	-5819
學者	-5820
宗个	-5821
山个	-5822
帖木	-5823
当年	-5824
成长	-5825
撤销	-5826
朝代	-5827
波利	-5828
移到	-5829
聖母	-5830
衍生	-5831
边缘	-5832
进士	-5833
通行	-5834
鐵路	-5835
需求	-5836
Man	-5837
THQ	-5838
iri	-5839
iti	-5840
lat	-5841
ras	-5842
▁00	-5843
▁El	-5844
个世界	-5845
个方法	-5846
奥古斯	-5847
斯特拉	-5848
无线电	-5849
旧金山	-5850
是因为	-5851
来源于	-5852
氨基酸	-5853
犹太教	-5854
红十字	-5855
被誉为	-5856
1930	-5857
SCII	-5858
▁Ltd	-5859
▁Min	-5860
▁Rep	-5861
▁Sim	-5862
▁西班牙	-5863
克里斯蒂	-5864
挨末阶段	-5865
是浙江省	-5866
最后一位	-5867
Hudson	-5868
股份有限公司	-5869
AP	-5870
ür	-5871
لا	-5872
▁太	-5873
▁梅	-5874
三等	-5875
主题	-5876
人權	-5877
众生	-5878
例子	-5879
分泌	-5880
南侧	-5881
參攷	-5882
國王	-5883
奈良	-5884
尼基	-5885
希特	-5886
并以	-5887
并由	-5888
改造	-5889
是弗	-5890
梵语	-5891
流亡	-5892
淮南	-5893
相反	-5894
绝对	-5895
能源	-5896
西邻	-5897
讨论	-5898
较为	-5899
遗传	-5900
▁AV	-5901
、10	-5902
副总统	-5903
印度个	-5904
地马拉	-5905
etsu	-5906
▁Ber	-5907
▁Rom	-5908
▁con	-5909
▁卡普空	-5910
个一系列	-5911
全国重点	-5912
太平天国	-5913
ichard	-5914
号线个一个车站	-5915
ET	-5916
уб	-5917
”;	-5918
▁田	-5919
▁皮	-5920
个美	-5921
主任	-5922
书籍	-5923
别名	-5924
前个	-5925
外个	-5926
孔子	-5927
学中	-5928
实力	-5929
小型	-5930
尔加	-5931
年畀	-5932
庆祝	-5933
引入	-5934
推行	-5935
提亚	-5936
斯顿	-5937
本科	-5938
没有	-5939
玛窦	-5940
田信	-5941
监制	-5942
相比	-5943
神秘	-5944
编号	-5945
资本	-5946
运算	-5947
酒店	-5948
開發	-5949
阿基	-5950
障碍	-5951
1,0	-5952
ars	-5953
ira	-5954
let	-5955
▁Go	-5956
▁卡尔	-5957
世界个	-5958
代表作	-5959
南部个	-5960
可以用	-5961
可分为	-5962
威爾士	-5963
尼泊尔	-5964
德川家	-5965
成立个	-5966
搭文化	-5967
搭社会	-5968
泰国个	-5969
福建省	-5970
索马里	-5971
1956	-5972
阿拉斯加	-5973
(2004	-5974
бласт	-5975
▁Figh	-5976
▁Prov	-5977
BS	-5978
El	-5979
NS	-5980
ес	-5981
ин	-5982
世家	-5983
两条	-5984
並且	-5985
何塞	-5986
克利	-5987
兴趣	-5988
分類	-5989
加工	-5990
加纳	-5991
努尔	-5992
历代	-5993
原先	-5994
妇女	-5995
宗室	-5996
州府	-5997
市境	-5998
弗再	-5999
担当	-6000
指定	-6001
搭伊	-6002
族人	-6003
望远	-6004
本来	-6005
滨海	-6006
白相	-6007
编曲	-6008
萨摩	-6009
运作	-6010
過程	-6011
陆家	-6012
off	-6013
ude	-6014
▁Ag	-6015
令狐冲	-6016
地级市	-6017
常州市	-6018
成员国	-6019
湖南省	-6020
第一任	-6021
▁Cha	-6022
▁Sec	-6023
▁Wil	-6024
平方英里	-6025
那不勒斯	-6026
Dream	-6027
▁外部連結	-6028
继任是教宗	-6029
伊比利亚半岛	-6030
江苏省苏州市	-6031
▁Design	-6032
▁Produc	-6033
社会主义共和国	-6034
:8	-6035
▁真	-6036
东岸	-6037
会员	-6038
刺杀	-6039
剧院	-6040
加盟	-6041
华特	-6042
即是	-6043
向南	-6044
塞纳	-6045
大使	-6046
宣告	-6047
實際	-6048
巨星	-6049
库斯	-6050
弗好	-6051
指出	-6052
斯里	-6053
梁山	-6054
法語	-6055
淮安	-6056
灌木	-6057
符合	-6058
策略	-6059
证据	-6060
鱼类	-6061
Val	-6062
ico	-6063
log	-6064
▁国家	-6065
一般性	-6066
亚细亚	-6067
十一月	-6068
十三年	-6069
号在位	-6070
哈迈德	-6071
年获得	-6072
或其他	-6073
是一只	-6074
望远镜	-6075
湖北省	-6076
理查德	-6077
英国人	-6078
顶大个	-6079
1900	-6080
1940	-6081
1958	-6082
▁Mac	-6083
号线车站	-6084
常看到个	-6085
之间个自然数	-6086
:7	-6087
BM	-6088
Qu	-6089
ет	-6090
ко	-6091
▁°	-6092
▁华	-6093
▁最	-6094
一部	-6095
个岛	-6096
刘备	-6097
制成	-6098
后卫	-6099
宫殿	-6100
對於	-6101
局面	-6102
战后	-6103
报告	-6104
拿渠	-6105
▁	-6106
,	-6107
个	-6108
。	-6109
1	-6110
e	-6111
a	-6112
0	-6113
i	-6114
o	-6115
2	-6116
r	-6117
n	-6118
年	-6119
t	-6120
)	-6121
(	-6122
9	-6123
是	-6124
、	-6125
:	-6126
国	-6127
一	-6128
s	-6129
拉	-6130
l	-6131
3	-6132
8	-6133
u	-6134
5	-6135
人	-6136
大	-6137
4	-6138
搭	-6139
-	-6140
h	-6141
6	-6142
7	-6143
中	-6144
为	-6145
月	-6146
|	-6147
m	-6148
g	-6149
c	-6150
d	-6151
语	-6152
号	-6153
地	-6154
斯	-6155
有	-6156
y	-6157
C	-6158
西	-6159
世	-6160
家	-6161
S	-6162
p	-6163
A	-6164
.	-6165
部	-6166
·	-6167
南	-6168
尔	-6169
名	-6170
学	-6171
里	-6172
成	-6173
市	-6174
公	-6175
之	-6176
生	-6177
亚	-6178
分	-6179
英	-6180
b	-6181
区	-6182
上	-6183
利	-6184
P	-6185
主	-6186
文	-6187
法	-6188
海	-6189
出	-6190
子	-6191
以	-6192
—	-6193
到	-6194
勒	-6195
后	-6196
方	-6197
北	-6198
日	-6199
第	-6200
王	-6201
德	-6202
作	-6203
》	-6204
《	-6205
来	-6206
东	-6207
物	-6208
行	-6209
M	-6210
k	-6211
本	-6212
克	-6213
T	-6214
州	-6215
发	-6216
N	-6217
代	-6218
特	-6219
用	-6220
立	-6221
教	-6222
I	-6223
马	-6224
弗	-6225
“	-6226
罗	-6227
f	-6228
”	-6229
渠	-6230
美	-6231
多	-6232
也	-6233
朝	-6234
于	-6235
平	-6236
伊	-6237
称	-6238
省	-6239
政	-6240
民	-6241
会	-6242
天	-6243
城	-6244
路	-6245
B	-6246
山	-6247
阿	-6248
在	-6249
自	-6250
加	-6251
三	-6252
v	-6253
帝	-6254
面	-6255
化	-6256
由	-6257
E	-6258
尼	-6259
时	-6260
兰	-6261
前	-6262
道	-6263
高	-6264
站	-6265
最	-6266
口	-6267
位	-6268
通	-6269
下	-6270
了	-6271
光	-6272
电	-6273
动	-6274
D	-6275
类	-6276
事	-6277
开	-6278
R	-6279
二	-6280
科	-6281
理	-6282
建	-6283
江	-6284
L	-6285
交	-6286
同	-6287
G	-6288
得	-6289
要	-6290
;	-6291
战	-6292
新	-6293
度	-6294
或	-6295
军	-6296
种	-6297
十	-6298
长	-6299
w	-6300
等	-6301
所	-6302
治	-6303
外	-6304
体	-6305
经	-6306
首	-6307
统	-6308
x	-6309
巴	-6310
安	-6311
/	-6312
而	-6313
H	-6314
过	-6315
县	-6316
基	-6317
布	-6318
可	-6319
個	-6320
线	-6321
古	-6322
共	-6323
府	-6324
者	-6325
明	-6326
合	-6327
F	-6328
任	-6329
J	-6330
元	-6331
原	-6332
其	-6333
被	-6334
字	-6335
系	-6336
河	-6337
和	-6338
意	-6339
垃	-6340
期	-6341
内	-6342
全	-6343
史	-6344
格	-6345
洲	-6346
小	-6347
岛	-6348
制	-6349
对	-6350
金	-6351
界	-6352
约	-6353
球	-6354
定	-6355
比	-6356
游	-6357
总	-6358
数	-6359
因	-6360
奥	-6361
纪	-6362
K	-6363
米	-6364
卡	-6365
属	-6366
相	-6367
现	-6368
并	-6369
式	-6370
向	-6371
当	-6372
O	-6373
员	-6374
士	-6375
维	-6376
宗	-6377
重	-6378
关	-6379
机	-6380
车	-6381
联	-6382
音	-6383
力	-6384
四	-6385
太	-6386
辰	-6387
始	-6388
性	-6389
U	-6390
水	-6391
表	-6392
W	-6393
苏	-6394
波	-6395
入	-6396
达	-6397
历	-6398
演	-6399
國	-6400
影	-6401
列	-6402
运	-6403
族	-6404
头	-6405
牙	-6406
常	-6407
星	-6408
戏	-6409
记	-6410
使	-6411
接	-6412
皇	-6413
色	-6414
都	-6415
台	-6416
能	-6417
V	-6418
间	-6419
图	-6420
义	-6421
工	-6422
神	-6423
林	-6424
此	-6425
领	-6426
业	-6427
进	-6428
次	-6429
普	-6430
言	-6431
z	-6432
就	-6433
镇	-6434
场	-6435
心	-6436
从	-6437
又	-6438
两	-6439
汉	-6440
华	-6441
形	-6442
正	-6443
起	-6444
司	-6445
希	-6446
积	-6447
伯	-6448
指	-6449
乐	-6450
该	-6451
流	-6452
女	-6453
传	-6454
五	-6455
铁	-6456
欧	-6457
纳	-6458
班	-6459
量	-6460
托	-6461
但	-6462
土	-6463
万	-6464
京	-6465
著	-6466
武	-6467
拿	-6468
越	-6469
印	-6470
包	-6471
圣	-6472
威	-6473
夫	-6474
的	-6475
萨	-6476
各	-6477
保	-6478
产	-6479
畀	-6480
老	-6481
逝	-6482
港	-6483
清	-6484
组	-6485
设	-6486
品	-6487
及	-6488
白	-6489
门	-6490
「	-6491
域	-6492
非	-6493
俄	-6494
」	-6495
广	-6496
结	-6497
院	-6498
改	-6499
不	-6500
手	-6501
今	-6502
书	-6503
仔	-6504
社	-6505
塞	-6506
气	-6507
目	-6508
官	-6509
队	-6510
乃	-6511
权	-6512
如	-6513
湖	-6514
级	-6515
學	-6516
瓦	-6517
直	-6518
箇	-6519
计	-6520
争	-6521
哈	-6522
曼	-6523
吴	-6524
石	-6525
略	-6526
塔	-6527
信	-6528
座	-6529
佛	-6530
至	-6531
无	-6532
参	-6533
别	-6534
程	-6535
近	-6536
迭	-6537
素	-6538
命	-6539
管	-6540
造	-6541
洛	-6542
实	-6543
空	-6544
叫	-6545
角	-6546
足	-6547
提	-6548
侪	-6549
居	-6550
鲁	-6551
然	-6552
阳	-6553
受	-6554
語	-6555
反	-6556
导	-6557
丁	-6558
话	-6559
派	-6560
唐	-6561
百	-6562
曾	-6563
集	-6564
际	-6565
将	-6566
源	-6567
诺	-6568
顶	-6569
还	-6570
香	-6571
剧	-6572
六	-6573
点	-6574
好	-6575
埃	-6576
赛	-6577
母	-6578
泰	-6579
沙	-6580
身	-6581
变	-6582
哥	-6583
早	-6584
李	-6585
括	-6586
會	-6587
支	-6588
只	-6589
条	-6590
活	-6591
'	-6592
缩	-6593
伦	-6594
宋	-6595
群	-6596
像	-6597
周	-6598
器	-6599
单	-6600
展	-6601
说	-6602
乌	-6603
"	-6604
已	-6605
歌	-6606
死	-6607
j	-6608
考	-6609
密	-6610
版	-6611
创	-6612
堂	-6613
典	-6614
写	-6615
半	-6616
网	-6617
區	-6618
商	-6619
%	-6620
型	-6621
质	-6622
根	-6623
去	-6624
处	-6625
独	-6626
吉	-6627
据	-6628
儿	-6629
议	-6630
片	-6631
术	-6632
а	-6633
爲	-6634
视	-6635
济	-6636
党	-6637
八	-6638
节	-6639
回	-6640
初	-6641
奖	-6642
即	-6643
获	-6644
选	-6645
张	-6646
七	-6647
解	-6648
带	-6649
洋	-6650
兴	-6651
福	-6652
思	-6653
>	-6654
黄	-6655
=	-6656
脱	-6657
來	-6658
持	-6659
腊	-6660
认	-6661
爱	-6662
少	-6663
丹	-6664
龙	-6665
占	-6666
件	-6667
*	-6668
邦	-6669
陆	-6670
境	-6671
他	-6672
末	-6673
存	-6674
功	-6675
离	-6676
浪	-6677
索	-6678
些	-6679
村	-6680
於	-6681
湾	-6682
应	-6683
连	-6684
超	-6685
边	-6686
研	-6687
火	-6688
蒙	-6689
<	-6690
莱	-6691
段	-6692
先	-6693
宁	-6694
姆	-6695
情	-6696
攻	-6697
贝	-6698
郡	-6699
ー	-6700
九	-6701
雷	-6702
後	-6703
君	-6704
简	-6705
宣	-6706
讲	-6707
瑞	-6708
街	-6709
博	-6710
师	-6711
坦	-6712
击	-6713
千	-6714
放	-6715
兵	-6716
曲	-6717
花	-6718
黑	-6719
复	-6720
易	-6721
取	-6722
究	-6723
育	-6724
风	-6725
果	-6726
论	-6727
料	-6728
与	-6729
具	-6730
构	-6731
让	-6732
团	-6733
画	-6734
摩	-6735
词	-6736
园	-6737
做	-6738
般	-6739
艺	-6740
举	-6741
杀	-6742
修	-6743
务	-6744
真	-6745
堡	-6746
标	-6747
迪	-6748
東	-6749
辖	-6750
编	-6751
置	-6752
象	-6753
知	-6754
着	-6755
青	-6756
资	-6757
景	-6758
奇	-6759
划	-6760
转	-6761
继	-6762
示	-6763
查	-6764
祖	-6765
督	-6766
航	-6767
ا	-6768
木	-6769
川	-6770
刘	-6771
样	-6772
盟	-6773
志	-6774
落	-6775
革	-6776
征	-6777
则	-6778
о	-6779
森	-6780
卫	-6781
桥	-6782
病	-6783
岁	-6784
韩	-6785
故	-6786
打	-6787
耳	-6788
温	-6789
孙	-6790
推	-6791
父	-6792
卢	-6793
岸	-6794
服	-6795
环	-6796
败	-6797
律	-6798
更	-6799
X	-6800
引	-6801
轨	-6802
植	-6803
专	-6804
田	-6805
食	-6806
模	-6807
蒂	-6808
份	-6809
秦	-6810
几	-6811
荷	-6812
莫	-6813
為	-6814
强	-6815
顿	-6816
红	-6817
封	-6818
率	-6819
浦	-6820
耶	-6821
康	-6822
咾	-6823
规	-6824
Y	-6825
]	-6826
и	-6827
亲	-6828
算	-6829
完	-6830
[	-6831
浙	-6832
库	-6833
富	-6834
嘉	-6835
除	-6836
寺	-6837
职	-6838
承	-6839
看	-6840
链	-6841
译	-6842
织	-6843
念	-6844
观	-6845
排	-6846
委	-6847
每	-6848
男	-6849
技	-6850
那	-6851
校	-6852
季	-6853
收	-6854
较	-6855
底	-6856
速	-6857
局	-6858
见	-6859
恩	-6860
登	-6861
魏	-6862
吳	-6863
围	-6864
梅	-6865
氏	-6866
想	-6867
容	-6868
夏	-6869
热	-6870
朗	-6871
宫	-6872
客	-6873
临	-6874
响	-6875
穆	-6876
令	-6877
含	-6878
没	-6879
赫	-6880
發	-6881
极	-6882
再	-6883
?	-6884
澳	-6885
+	-6886
藏	-6887
乡	-6888
护	-6889
层	-6890
我	-6891
状	-6892
望	-6893
营	-6894
拜	-6895
左	-6896
春	-6897
射	-6898
經	-6899
投	-6900
整	-6901
晋	-6902
深	-6903
酸	-6904
干	-6905
朱	-6906
右	-6907
亞	-6908
皮	-6909
杭	-6910
麦	-6911
弟	-6912
范	-6913
卷	-6914
亡	-6915
時	-6916
终	-6917
殖	-6918
筑	-6919
调	-6920
р	-6921
云	-6922
汗	-6923
往	-6924
室	-6925
永	-6926
q	-6927
島	-6928
另	-6929
過	-6930
е	-6931
臣	-6932
失	-6933
住	-6934
齐	-6935
帕	-6936
邪	-6937
黎	-6938
陈	-6939
旗	-6940
開	-6941
奈	-6942
移	-6943
胜	-6944
准	-6945
雅	-6946
叶	-6947
с	-6948
é	-6949
丽	-6950
决	-6951
续	-6952
何	-6953
玛	-6954
н	-6955
留	-6956
势	-6957
種	-6958
章	-6959
乘	-6960
敎	-6961
葡	-6962
破	-6963
求	-6964
办	-6965
致	-6966
沿	-6967
许	-6968
佢	-6969
众	-6970
宝	-6971
随	-6972
灭	-6973
關	-6974
诗	-6975
!	-6976
突	-6977
协	-6978
守	-6979
双	-6980
播	-6981
束	-6982
银	-6983
馆	-6984
陵	-6985
鲜	-6986
报	-6987
依	-6988
声	-6989
隆	-6990
長	-6991
细	-6992
施	-6993
徐	-6994
降	-6995
邻	-6996
且	-6997
互	-6998
號	-6999
控	-7000
馬	-7001
未	-7002
抗	-7003
担	-7004
精	-7005
农	-7006
書	-7007
ン	-7008
к	-7009
注	-7010
萄	-7011
侧	-7012
项	-7013
Z	-7014
楚	-7015
當	-7016
對	-7017
献	-7018
松	-7019
核	-7020
谷	-7021
态	-7022
感	-7023
雄	-7024
縣	-7025
ل	-7026
赵	-7027
–	-7028
爵	-7029
徒	-7030
例	-7031
延	-7032
诸	-7033
爾	-7034
远	-7035
艾	-7036
归	-7037
毛	-7038
附	-7039
喜	-7040
遗	-7041
满	-7042
徽	-7043
稱	-7044
動	-7045
启	-7046
廷	-7047
备	-7048
л	-7049
止	-7050
義	-7051
兹	-7052
爆	-7053
假	-7054
序	-7055
费	-7056
效	-7057
端	-7058
央	-7059
聖	-7060
切	-7061
录	-7062
乱	-7063
拔	-7064
医	-7065
飞	-7066
杨	-7067
甲	-7068
胡	-7069
墨	-7070
體	-7071
均	-7072
冠	-7073
庭	-7074
照	-7075
距	-7076
菲	-7077
题	-7078
梁	-7079
智	-7080
曹	-7081
码	-7082
杰	-7083
什	-7084
庆	-7085
退	-7086
伐	-7087
拥	-7088
限	-7089
現	-7090
汇	-7091
增	-7092
頭	-7093
役	-7094
灵	-7095
换	-7096
草	-7097
供	-7098
配	-7099
低	-7100
问	-7101
哲	-7102
佳	-7103
款	-7104
执	-7105
介	-7106
傳	-7107
侯	-7108
眼	-7109
才	-7110
內	-7111
ス	-7112
籍	-7113
峰	-7114
软	-7115
電	-7116
羅	-7117
符	-7118
昌	-7119
敦	-7120
步	-7121
装	-7122
值	-7123
席	-7124
良	-7125
显	-7126
亦	-7127
票	-7128
隻	-7129
臺	-7130
斗	-7131
丰	-7132
血	-7133
唱	-7134
歇	-7135
候	-7136
案	-7137
载	-7138
息	-7139
旧	-7140
в	-7141
樂	-7142
仅	-7143
侵	-7144
匈	-7145
助	-7146
证	-7147
溪	-7148
必	-7149
岩	-7150
場	-7151
數	-7152
旅	-7153
策	-7154
鱼	-7155
贵	-7156
采	-7157
余	-7158
野	-7159
乔	-7160
纽	-7161
話	-7162
杜	-7163
無	-7164
概	-7165
船	-7166
俗	-7167
察	-7168
沃	-7169
戈	-7170
盛	-7171
秋	-7172
述	-7173
烈	-7174
久	-7175
户	-7176
翰	-7177
淮	-7178
盖	-7179
压	-7180
鸟	-7181
批	-7182
若	-7183
夜	-7184
萬	-7185
楼	-7186
Q	-7187
佩	-7188
逐	-7189
т	-7190
微	-7191
牛	-7192
礼	-7193
泛	-7194
快	-7195
仁	-7196
消	-7197
钱	-7198
與	-7199
药	-7200
呼	-7201
操	-7202
闻	-7203
便	-7204
跟	-7205
架	-7206
芬	-7207
努	-7208
宪	-7209
荣	-7210
迁	-7211
届	-7212
差	-7213
冲	-7214
凯	-7215
固	-7216
走	-7217
升	-7218
玉	-7219
統	-7220
防	-7221
牌	-7222
需	-7223
撒	-7224
氧	-7225
霍	-7226
搿	-7227
線	-7228
锡	-7229
似	-7230
刚	-7231
翻	-7232
仍	-7233
脉	-7234
告	-7235
姓	-7236
啥	-7237
頂	-7238
ر	-7239
並	-7240
奴	-7241
圆	-7242
冰	-7243
劳	-7244
哉	-7245
散	-7246
绝	-7247
确	-7248
昂	-7249
拨	-7250
刺	-7251
亨	-7252
م	-7253
脑	-7254
尚	-7255
油	-7256
進	-7257
俱	-7258
華	-7259
裏	-7260
替	-7261
签	-7262
友	-7263
泽	-7264
副	-7265
顺	-7266
巨	-7267
瑟	-7268
°	-7269
昰	-7270
秀	-7271
α	-7272
孟	-7273
軍	-7274
參	-7275
负	-7276
短	-7277
梦	-7278
善	-7279
识	-7280
默	-7281
异	-7282
断	-7283
险	-7284
坡	-7285
测	-7286
宇	-7287
胞	-7288
茨	-7289
评	-7290
板	-7291
桑	-7292
价	-7293
兩	-7294
機	-7295
唯	-7296
授	-7297
阶	-7298
探	-7299
燕	-7300
勿	-7301
魔	-7302
ي	-7303
陶	-7304
难	-7305
ن	-7306
雪	-7307
柏	-7308
疆	-7309
趟	-7310
酒	-7311
渡	-7312
靠	-7313
绍	-7314
房	-7315
饰	-7316
绿	-7317
责	-7318
材	-7319
崇	-7320
址	-7321
严	-7322
間	-7323
树	-7324
甘	-7325
货	-7326
帮	-7327
廉	-7328
横	-7329
韦	-7330
孔	-7331
嗰	-7332
觉	-7333
废	-7334
昆	-7335
瓜	-7336
ā	-7337
某	-7338
追	-7339
夺	-7340
尤	-7341
業	-7342
洪	-7343
奉	-7344
陀	-7345
ト	-7346
剑	-7347
俚	-7348
养	-7349
庄	-7350
孝	-7351
忠	-7352
读	-7353
雨	-7354
點	-7355
牢	-7356
害	-7357
赤	-7358
達	-7359
欢	-7360
送	-7361
屬	-7362
蓝	-7363
尊	-7364
漫	-7365
漢	-7366
從	-7367
毒	-7368
骨	-7369
類	-7370
別	-7371
秘	-7372
试	-7373
娜	-7374
幕	-7375
企	-7376
停	-7377
混	-7378
ο	-7379
權	-7380
捷	-7381
陽	-7382
兄	-7383
犹	-7384
辽	-7385
阴	-7386
總	-7387
习	-7388
津	-7389
儕	-7390
币	-7391
結	-7392
宾	-7393
慢	-7394
按	-7395
杂	-7396
隶	-7397
イ	-7398
颜	-7399
扩	-7400
紀	-7401
络	-7402
暴	-7403
篇	-7404
丘	-7405
遭	-7406
尾	-7407
裔	-7408
匹	-7409
挪	-7410
虽	-7411
扬	-7412
肉	-7413
門	-7414
仙	-7415
庙	-7416
資	-7417
莎	-7418
า	-7419
產	-7420
验	-7421
擔	-7422
昭	-7423
冷	-7424
圈	-7425
實	-7426
繁	-7427
背	-7428
描	-7429
و	-7430
液	-7431
́	-7432
ッ	-7433
融	-7434
肯	-7435
喀	-7436
亿	-7437
蘇	-7438
該	-7439
珠	-7440
毕	-7441
释	-7442
震	-7443
聚	-7444
の	-7445
僧	-7446
舞	-7447
虎	-7448
ル	-7449
监	-7450
郎	-7451
脫	-7452
句	-7453
鎮	-7454
况	-7455
á	-7456
ク	-7457
扎	-7458
童	-7459
ب	-7460
吸	-7461
戰	-7462
惠	-7463
判	-7464
幻	-7465
網	-7466
辑	-7467
郑	-7468
塘	-7469
婚	-7470
蛮	-7471
車	-7472
慕	-7473
隔	-7474
у	-7475
呒	-7476
晚	-7477
蘭	-7478
還	-7479
盐	-7480
弹	-7481
跨	-7482
辛	-7483
變	-7484
贡	-7485
染	-7486
聲	-7487
轻	-7488
益	-7489
彼	-7490
谢	-7491
&	-7492
刻	-7493
د	-7494
仪	-7495
免	-7496
泉	-7497
逊	-7498
轮	-7499
输	-7500
休	-7501
晶	-7502
禁	-7503
譬	-7504
洞	-7505
块	-7506
逃	-7507
涅	-7508
亮	-7509
拍	-7510
屋	-7511
迈	-7512
危	-7513
辅	-7514
店	-7515
戴	-7516
陸	-7517
牧	-7518
售	-7519
圖	-7520
玄	-7521
菩	-7522
映	-7523
琴	-7524
設	-7525
員	-7526
杯	-7527
論	-7528
菌	-7529
峡	-7530
運	-7531
組	-7532
脚	-7533
掌	-7534
渐	-7535
歷	-7536
迫	-7537
_	-7538
兼	-7539
橋	-7540
虫	-7541
ς	-7542
認	-7543
龍	-7544
м	-7545
给	-7546
汽	-7547
股	-7548
詞	-7549
壤	-7550
恒	-7551
罕	-7552
伏	-7553
磁	-7554
贸	-7555
菜	-7556
摄	-7557
署	-7558
敬	-7559
财	-7560
}	-7561
伤	-7562
矿	-7563
订	-7564
遍	-7565
叛	-7566
警	-7567
氣	-7568
铜	-7569
{	-7570
仰	-7571
贤	-7572
救	-7573
味	-7574
丝	-7575
症	-7576
钟	-7577
厄	-7578
韻	-7579
─	-7580
罪	-7581
記	-7582
鼓	-7583
屿	-7584
裂	-7585
甚	-7586
д	-7587
冬	-7588
婆	-7589
闲	-7590
恐	-7591
驻	-7592
充	-7593
棋	-7594
骑	-7595
频	-7596
ร	-7597
沪	-7598
媒	-7599
麻	-7600
穿	-7601
羽	-7602
尽	-7603
茶	-7604
冈	-7605
灣	-7606
粒	-7607
講	-7608
透	-7609
殿	-7610
私	-7611
領	-7612
激	-7613
ó	-7614
陳	-7615
維	-7616
萧	-7617
们	-7618
扮	-7619
疾	-7620
雕	-7621
勃	-7622
宽	-7623
廣	-7624
弘	-7625
优	-7626
撤	-7627
呈	-7628
梵	-7629
誉	-7630
聯	-7631
際	-7632
静	-7633
预	-7634
隋	-7635
凡	-7636
滨	-7637
玻	-7638
盘	-7639
衣	-7640
仑	-7641
把	-7642
申	-7643
ν	-7644
乳	-7645
竹	-7646
纲	-7647
邮	-7648
抵	-7649
師	-7650
陷	-7651
嘸	-7652
硬	-7653
寿	-7654
旁	-7655
迷	-7656
連	-7657
霸	-7658
析	-7659
础	-7660
桃	-7661
赞	-7662
途	-7663
召	-7664
潮	-7665
う	-7666
見	-7667
丄	-7668
坐	-7669
泊	-7670
拟	-7671
計	-7672
袖	-7673
夷	-7674
碳	-7675
竞	-7676
翼	-7677
б	-7678
寻	-7679
興	-7680
佐	-7681
慈	-7682
晓	-7683
約	-7684
袭	-7685
怀	-7686
ラ	-7687
旋	-7688
讨	-7689
这	-7690
径	-7691
裁	-7692
्	-7693
吕	-7694
培	-7695
й	-7696
宙	-7697
說	-7698
黃	-7699
я	-7700
ा	-7701
恶	-7702
級	-7703
贾	-7704
蛋	-7705
页	-7706
吃	-7707
應	-7708
谋	-7709
ア	-7710
葛	-7711
迹	-7712
厅	-7713
畔	-7714
س	-7715
暗	-7716
圭	-7717
衡	-7718
甸	-7719
董	-7720
请	-7721
拼	-7722
玩	-7723
冒	-7724
伽	-7725
虹	-7726
借	-7727
汤	-7728
稣	-7729
儒	-7730
ρ	-7731
亭	-7732
稽	-7733
詹	-7734
坚	-7735
パ	-7736
風	-7737
術	-7738
ι	-7739
г	-7740
厥	-7741
蜀	-7742
御	-7743
濟	-7744
舍	-7745
听	-7746
颗	-7747
務	-7748
坎	-7749
宿	-7750
沈	-7751
曰	-7752
溶	-7753
炸	-7754
销	-7755
リ	-7756
彩	-7757
墓	-7758
宜	-7759
适	-7760
í	-7761
享	-7762
積	-7763
伸	-7764
岭	-7765
袁	-7766
ん	-7767
割	-7768
娱	-7769
殊	-7770
氢	-7771
熙	-7772
糖	-7773
ь	-7774
妻	-7775
卜	-7776
議	-7777
闰	-7778
タ	-7779
視	-7780
岳	-7781
郭	-7782
仲	-7783
凤	-7784
觀	-7785
迎	-7786
池	-7787
雀	-7788
し	-7789
缅	-7790
套	-7791
叉	-7792
裡	-7793
乎	-7794
愿	-7795
樣	-7796
炎	-7797
處	-7798
豪	-7799
零	-7800
须	-7801
肃	-7802
條	-7803
讀	-7804
迦	-7805
沒	-7806
倒	-7807
健	-7808
標	-7809
井	-7810
單	-7811
笔	-7812
衰	-7813
鄉	-7814
柯	-7815
缘	-7816
吾	-7817
叙	-7818
契	-7819
張	-7820
則	-7821
却	-7822
羊	-7823
鹿	-7824
遇	-7825
屠	-7826
紫	-7827
储	-7828
厂	-7829
報	-7830
र	-7831
稳	-7832
跑	-7833
恢	-7834
質	-7835
ü	-7836
苦	-7837
滑	-7838
练	-7839
辞	-7840
卑	-7841
•	-7842
够	-7843
灰	-7844
吐	-7845
锦	-7846
桂	-7847
烧	-7848
狄	-7849
阁	-7850
寫	-7851
露	-7852
额	-7853
姚	-7854
娘	-7855
宛	-7856
挥	-7857
毁	-7858
镜	-7859
廿	-7860
弥	-7861
阵	-7862
咸	-7863
奏	-7864
熟	-7865
專	-7866
妹	-7867
帶	-7868
绘	-7869
卒	-7870
導	-7871
藩	-7872
旺	-7873
隐	-7874
ч	-7875
粉	-7876
键	-7877
น	-7878
犯	-7879
谓	-7880
敏	-7881
湘	-7882
祭	-7883
紧	-7884
偏	-7885
捕	-7886
援	-7887
珍	-7888
允	-7889
纸	-7890
ド	-7891
姐	-7892
虚	-7893
調	-7894
颁	-7895
λ	-7896
买	-7897
凉	-7898
薛	-7899
ة	-7900
館	-7901
它	-7902
寧	-7903
環	-7904
疗	-7905
幾	-7906
挨	-7907
柱	-7908
氨	-7909
闽	-7910
離	-7911
τ	-7912
熊	-7913
い	-7914
枪	-7915
尺	-7916
潘	-7917
晉	-7918
函	-7919
幼	-7920
莉	-7921
贯	-7922
顾	-7923
極	-7924
蔡	-7925
赖	-7926
跳	-7927
拓	-7928
浮	-7929
～	-7930
减	-7931
雲	-7932
驱	-7933
黨	-7934
绕	-7935
乙	-7936
伍	-7937
遣	-7938
禄	-7939
腦	-7940
避	-7941
仓	-7942
摇	-7943
譯	-7944
旦	-7945
ε	-7946
寶	-7947
據	-7948
較	-7949
坏	-7950
構	-7951
毗	-7952
缺	-7953
伟	-7954
涉	-7955
納	-7956
折	-7957
盆	-7958
训	-7959
−	-7960
壁	-7961
综	-7962
轄	-7963
ت	-7964
尉	-7965
己	-7966
朆	-7967
叔	-7968
戶	-7969
泥	-7970
С	-7971
舰	-7972
刊	-7973
坛	-7974
彻	-7975
怪	-7976
慧	-7977
藤	-7978
ح	-7979
琉	-7980
覆	-7981
锋	-7982
~	-7983
劃	-7984
翁	-7985
將	-7986
粹	-7987
腓	-7988
淘	-7989
猫	-7990
鼠	-7991
振	-7992
琳	-7993
勇	-7994
節	-7995
滚	-7996
町	-7997
遂	-7998
阻	-7999
塑	-8000
規	-8001
徠	-8002
谱	-8003
妮	-8004
遊	-8005
獨	-8006
碧	-8007
郊	-8008
颠	-8009
ы	-8010
襄	-8011
許	-8012
针	-8013
弃	-8014
舟	-8015
悉	-8016
桓	-8017
皆	-8018
返	-8019
偶	-8020
册	-8021
戲	-8022
乾	-8023
弱	-8024
鬼	-8025
佔	-8026
團	-8027
急	-8028
沉	-8029
租	-8030
強	-8031
欲	-8032
税	-8033
待	-8034
芳	-8035
轉	-8036
侠	-8037
徕	-8038
纯	-8039
障	-8040
鸡	-8041
鐵	-8042
シ	-8043
歐	-8044
诞	-8045
豆	-8046
购	-8047
ع	-8048
痛	-8049
п	-8050
園	-8051
斐	-8052
禅	-8053
肥	-8054
刑	-8055
详	-8056
淡	-8057
补	-8058
否	-8059
审	-8060
選	-8061
フ	-8062
ロ	-8063
創	-8064
漠	-8065
莲	-8066
響	-8067
枢	-8068
疑	-8069
绪	-8070
卿	-8071
珊	-8072
衍	-8073
览	-8074
卖	-8075
陕	-8076
ی	-8077
マ	-8078
祝	-8079
冯	-8080
尖	-8081
嵩	-8082
钢	-8083
μ	-8084
孤	-8085
溫	-8086
猎	-8087
答	-8088
胶	-8089
迅	-8090
饮	-8091
氯	-8092
邊	-8093
剂	-8094
卓	-8095
柳	-8096
毫	-8097
ジ	-8098
检	-8099
敌	-8100
杉	-8101
芝	-8102
招	-8103
烟	-8104
爭	-8105
靖	-8106
・	-8107
灾	-8108
触	-8109
戒	-8110
吞	-8111
殺	-8112
谦	-8113
予	-8114
估	-8115
谈	-8116
彭	-8117
悠	-8118
档	-8119
と	-8120
厦	-8121
奔	-8122
復	-8123
嗣	-8124
拳	-8125
А	-8126
鼻	-8127
ō	-8128
レ	-8129
刀	-8130
厘	-8131
愛	-8132
蒋	-8133
衛	-8134
醫	-8135
圳	-8136
洗	-8137
К	-8138
厚	-8139
墙	-8140
妃	-8141
怖	-8142
恭	-8143
爻	-8144
舌	-8145
轴	-8146
ö	-8147
冕	-8148
嘴	-8149
織	-8150
脊	-8151
茂	-8152
コ	-8153
付	-8154
侍	-8155
滩	-8156
職	-8157
荆	-8158
禮	-8159
蛇	-8160
钦	-8161
ä	-8162
ム	-8163
寒	-8164
臨	-8165
苗	-8166
祥	-8167
σ	-8168
か	-8169
茵	-8170
題	-8171
纬	-8172
ง	-8173
哺	-8174
患	-8175
灌	-8176
畫	-8177
舒	-8178
་	-8179
範	-8180
午	-8181
護	-8182
侬	-8183
เ	-8184
′	-8185
宰	-8186
疏	-8187
访	-8188
隧	-8189
硫	-8190
葬	-8191
魂	-8192
齿	-8193
促	-8194
兽	-8195
劇	-8196
問	-8197
姬	-8198
巡	-8199
棒	-8200
淞	-8201
狐	-8202
製	-8203
エ	-8204
很	-8205
湿	-8206
讯	-8207
奧	-8208
搞	-8209
琼	-8210
脂	-8211
裕	-8212
邓	-8213
雍	-8214
『	-8215
き	-8216
困	-8217
奠	-8218
妇	-8219
焦	-8220
膜	-8221
衹	-8222
』	-8223
く	-8224
宏	-8225
疫	-8226
伴	-8227
垂	-8228
韵	-8229
赢	-8230
辆	-8231
編	-8232
赐	-8233
截	-8234
簡	-8235
舉	-8236
辦	-8237
朋	-8238
狮	-8239
绩	-8240
劉	-8241
械	-8242
溯	-8243
烏	-8244
親	-8245
逻	-8246
屏	-8247
勾	-8248
灯	-8249
纵	-8250
腔	-8251
赏	-8252
遠	-8253
鲍	-8254
’	-8255
巧	-8256
笑	-8257
薩	-8258
η	-8259
ه	-8260
係	-8261
幽	-8262
柴	-8263
渊	-8264
紅	-8265
ย	-8266
倍	-8267
燃	-8268
盗	-8269
秒	-8270
讓	-8271
荒	-8272
è	-8273
з	-8274
テ	-8275
宅	-8276
斜	-8277
残	-8278
餘	-8279
न	-8280
仇	-8281
污	-8282
碑	-8283
错	-8284
ม	-8285
グ	-8286
么	-8287
壮	-8288
循	-8289
κ	-8290
损	-8291
衢	-8292
驾	-8293
ั	-8294
哀	-8295
奶	-8296
蕃	-8297
诏	-8298
釋	-8299
ī	-8300
劫	-8301
帅	-8302
準	-8303
貌	-8304
夸	-8305
宮	-8306
梯	-8307
涯	-8308
笃	-8309
谥	-8310
贞	-8311
ə	-8312
ท	-8313
バ	-8314
圍	-8315
崩	-8316
羌	-8317
腹	-8318
诚	-8319
隊	-8320
宦	-8321
庫	-8322
異	-8323
箭	-8324
衔	-8325
農	-8326
ί	-8327
Р	-8328
ก	-8329
累	-8330
蓬	-8331
龄	-8332
י	-8333
栖	-8334
框	-8335
諸	-8336
净	-8337
π	-8338
М	-8339
孫	-8340
潭	-8341
篮	-8342
辉	-8343
堪	-8344
握	-8345
決	-8346
猛	-8347
腾	-8348
薄	-8349
庞	-8350
恋	-8351
扶	-8352
闵	-8353
璋	-8354
γ	-8355
兒	-8356
拒	-8357
渔	-8358
爸	-8359
狗	-8360
狼	-8361
獻	-8362
眾	-8363
窦	-8364
ŋ	-8365
娛	-8366
爷	-8367
棉	-8368
ف	-8369
丈	-8370
勋	-8371
攝	-8372
潜	-8373
蒸	-8374
跋	-8375
酋	-8376
阮	-8377
傅	-8378
姑	-8379
僚	-8380
券	-8381
欣	-8382
汪	-8383
盾	-8384
礁	-8385
ج	-8386
ق	-8387
層	-8388
邑	-8389
你	-8390
暖	-8391
番	-8392
鹰	-8393
匯	-8394
择	-8395
斩	-8396
歸	-8397
狱	-8398
纹	-8399
荡	-8400
識	-8401
辐	-8402
岗	-8403
幸	-8404
忒	-8405
斑	-8406
築	-8407
俊	-8408
厢	-8409
況	-8410
跃	-8411
辟	-8412
オ	-8413
俘	-8414
擊	-8415
既	-8416
犬	-8417
狭	-8418
误	-8419
噶	-8420
幅	-8421
恰	-8422
樓	-8423
藝	-8424
à	-8425
อ	-8426
丞	-8427
埔	-8428
暂	-8429
仿	-8430
佈	-8431
惊	-8432
莊	-8433
豫	-8434
魯	-8435
鼎	-8436
嫩	-8437
挑	-8438
撰	-8439
顯	-8440
齊	-8441
璃	-8442
確	-8443
穌	-8444
舊	-8445
饭	-8446
ū	-8447
त	-8448
崎	-8449
汝	-8450
矶	-8451
硅	-8452
壳	-8453
庇	-8454
庸	-8455
猶	-8456
Б	-8457
ว	-8458
榜	-8459
龟	-8460
х	-8461
妙	-8462
株	-8463
泡	-8464
蜜	-8465
遮	-8466
鹅	-8467
嚴	-8468
弄	-8469
枝	-8470
ナ	-8471
廊	-8472
備	-8473
浅	-8474
浩	-8475
餐	-8476
β	-8477
म	-8478
忍	-8479
摆	-8480
闭	-8481
隨	-8482
→	-8483
幫	-8484
怒	-8485
泗	-8486
淳	-8487
肖	-8488
ç	-8489
ि	-8490
搜	-8491
に	-8492
孩	-8493
寨	-8494
浜	-8495
翔	-8496
闪	-8497
プ	-8498
阪	-8499
â	-8500
遵	-8501
ش	-8502
併	-8503
柔	-8504
稀	-8505
虞	-8506
複	-8507
豹	-8508
カ	-8509
惯	-8510
狂	-8511
讷	-8512
錄	-8513
姻	-8514
润	-8515
逼	-8516
‬	-8517
ウ	-8518
ز	-8519
坊	-8520
夕	-8521
床	-8522
弦	-8523
拆	-8524
耀	-8525
胎	-8526
趣	-8527
ñ	-8528
ส	-8529
ิ	-8530
屯	-8531
汶	-8532
沟	-8533
涵	-8534
芒	-8535
阔	-8536
麗	-8537
た	-8538
匝	-8539
浓	-8540
瑙	-8541
缓	-8542
课	-8543
贺	-8544
協	-8545
ô	-8546
丧	-8547
凝	-8548
凭	-8549
寄	-8550
甜	-8551
滕	-8552
琅	-8553
粮	-8554
細	-8555
พ	-8556
チ	-8557
澄	-8558
爪	-8559
蜂	-8560
ブ	-8561
勤	-8562
哪	-8563
嚜	-8564
囡	-8565
晏	-8566
桐	-8567
碰	-8568
ц	-8569
は	-8570
吹	-8571
營	-8572
續	-8573
蕾	-8574
遺	-8575
閒	-8576
雁	-8577
馀	-8578
る	-8579
珀	-8580
腺	-8581
踏	-8582
難	-8583
В	-8584
่	-8585
彦	-8586
悲	-8587
泳	-8588
熱	-8589
υ	-8590
佗	-8591
泾	-8592
臘	-8593
辣	-8594
亥	-8595
坑	-8596
嫁	-8597
斤	-8598
胁	-8599
驶	-8600
П	-8601
ะ	-8602
倾	-8603
巢	-8604
歲	-8605
逆	-8606
靈	-8607
鸭	-8608
ま	-8609
溃	-8610
胺	-8611
葉	-8612
蒲	-8613
赋	-8614
锁	-8615
ê	-8616
崔	-8617
戚	-8618
磷	-8619
紹	-8620
終	-8621
聞	-8622
證	-8623
趁	-8624
践	-8625
鸿	-8626
δ	-8627
絕	-8628
薇	-8629
醇	-8630
ú	-8631
ά	-8632
ャ	-8633
圓	-8634
坞	-8635
忆	-8636
態	-8637
抽	-8638
濒	-8639
艮	-8640
載	-8641
陇	-8642
ʔ	-8643
ו	-8644
碼	-8645
稻	-8646
翅	-8647
腳	-8648
魁	-8649
#	-8650
$	-8651
ィ	-8652
尹	-8653
抚	-8654
甬	-8655
貤	-8656
阀	-8657
प	-8658
姜	-8659
斷	-8660
肠	-8661
鄂	-8662
饼	-8663
ァ	-8664
帜	-8665
甫	-8666
繼	-8667
罢	-8668
袋	-8669
鉴	-8670
ニ	-8671
ミ	-8672
凌	-8673
勝	-8674
帖	-8675
慶	-8676
殷	-8677
矛	-8678
雖	-8679
麓	-8680
丙	-8681
勢	-8682
螺	-8683
評	-8684
霞	-8685
が	-8686
キ	-8687
デ	-8688
伲	-8689
奎	-8690
悬	-8691
旨	-8692
監	-8693
煤	-8694
磨	-8695
纤	-8696
і	-8697
捉	-8698
碱	-8699
習	-8700
耕	-8701
贫	-8702
闸	-8703
養	-8704
サ	-8705
兆	-8706
堤	-8707
懿	-8708
獲	-8709
瑰	-8710
麟	-8711
じ	-8712
劍	-8713
尸	-8714
徙	-8715
杆	-8716
梨	-8717
鸦	-8718
ό	-8719
剛	-8720
斋	-8721
絡	-8722
肺	-8723
韓	-8724
驗	-8725
佑	-8726
娃	-8727
屈	-8728
炮	-8729
纷	-8730
徵	-8731
氮	-8732
蓋	-8733
雙	-8734
順	-8735
さ	-8736
亇	-8737
祠	-8738
肌	-8739
ズ	-8740
苯	-8741
藻	-8742
ı	-8743
お	-8744
擎	-8745
猪	-8746
碍	-8747
递	-8748
ュ	-8749
串	-8750
卵	-8751
哇	-8752
敢	-8753
棍	-8754
苍	-8755
誌	-8756
鲸	-8757
炼	-8758
玫	-8759
蠻	-8760
諾	-8761
錢	-8762
巫	-8763
椎	-8764
註	-8765
詩	-8766
饶	-8767
喷	-8768
掉	-8769
讴	-8770
錫	-8771
項	-8772
鹤	-8773
व	-8774
つ	-8775
侄	-8776
倫	-8777
娅	-8778
曆	-8779
钞	-8780
य	-8781
ล	-8782
吏	-8783
掠	-8784
撥	-8785
毅	-8786
爽	-8787
腐	-8788
賽	-8789
э	-8790
द	-8791
卧	-8792
卻	-8793
啦	-8794
歧	-8795
Н	-8796
ى	-8797
ダ	-8798
寇	-8799
忽	-8800
粗	-8801
脏	-8802
裝	-8803
メ	-8804
夹	-8805
掘	-8806
撞	-8807
訊	-8808
š	-8809
Т	-8810
剌	-8811
宠	-8812
換	-8813
粤	-8814
肤	-8815
な	-8816
刷	-8817
朴	-8818
泌	-8819
浊	-8820
狀	-8821
腰	-8822
こ	-8823
ビ	-8824
拱	-8825
敗	-8826
柬	-8827
祈	-8828
铃	-8829
丛	-8830
唇	-8831
樞	-8832
歙	-8833
绰	-8834
赣	-8835
輯	-8836
郁	-8837
陰	-8838
巷	-8839
揭	-8840
榄	-8841
茅	-8842
诵	-8843
遷	-8844
ต	-8845
倪	-8846
削	-8847
搬	-8848
晨	-8849
瑶	-8850
稍	-8851
谭	-8852
ら	-8853
滿	-8854
碎	-8855
胤	-8856
Г	-8857
债	-8858
兔	-8859
妈	-8860
漕	-8861
盈	-8862
翠	-8863
負	-8864
り	-8865
巾	-8866
採	-8867
矮	-8868
紐	-8869
芙	-8870
靼	-8871
鞑	-8872
Д	-8873
ك	-8874
स	-8875
ช	-8876
ワ	-8877
剩	-8878
孢	-8879
箱	-8880
惨	-8881
挝	-8882
菊	-8883
堆	-8884
扁	-8885
插	-8886
札	-8887
桌	-8888
洁	-8889
畿	-8890
盧	-8891
稿	-8892
窝	-8893
阅	-8894
頁	-8895
齒	-8896
倡	-8897
囊	-8898
擅	-8899
硝	-8900
筹	-8901
胥	-8902
虑	-8903
請	-8904
辩	-8905
顷	-8906
ˈ	-8907
ห	-8908
み	-8909
ょ	-8910
墩	-8911
彰	-8912
忙	-8913
擦	-8914
檀	-8915
滅	-8916
艇	-8917
ω	-8918
ᠠ	-8919
坝	-8920
執	-8921
填	-8922
壽	-8923
瑜	-8924
砂	-8925
階	-8926
雜	-8927
ר	-8928
क	-8929
ボ	-8930
偷	-8931
價	-8932
啡	-8933
猴	-8934
誓	-8935
謂	-8936
飛	-8937
ה	-8938
乍	-8939
乏	-8940
億	-8941
嘞	-8942
旱	-8943
窟	-8944
肇	-8945
闹	-8946
خ	-8947
บ	-8948
ี	-8949
ุ	-8950
て	-8951
咖	-8952
婺	-8953
寓	-8954
橘	-8955
涌	-8956
瑪	-8957
硕	-8958
祁	-8959
禧	-8960
穷	-8961
胃	-8962
芭	-8963
茎	-8964
虏	-8965
阜	-8966
×	-8967
ɛ	-8968
ी	-8969
ด	-8970
壓	-8971
庐	-8972
昵	-8973
橄	-8974
煞	-8975
肢	-8976
試	-8977
ш	-8978
ザ	-8979
丸	-8980
沛	-8981
熔	-8982
責	-8983
逸	-8984
æ	-8985
ち	-8986
喉	-8987
押	-8988
紙	-8989
绵	-8990
萊	-8991
鐘	-8992
霉	-8993
鸣	-8994
О	-8995
ա	-8996
庶	-8997
惟	-8998
腿	-8999
辨	-9000
أ	-9001
ط	-9002
啟	-9003
扑	-9004
棕	-9005
榮	-9006
滴	-9007
瀑	-9008
瓯	-9009
眉	-9010
禪	-9011
莽	-9012
輸	-9013
ـ	-9014
ツ	-9015
伝	-9016
婴	-9017
崛	-9018
彝	-9019
戦	-9020
蹈	-9021
酷	-9022
丑	-9023
嘯	-9024
屆	-9025
嵊	-9026
胸	-9027
覺	-9028
遥	-9029
埋	-9030
埠	-9031
姊	-9032
寸	-9033
橫	-9034
浴	-9035
麥	-9036
喇	-9037
枚	-9038
橙	-9039
畜	-9040
芜	-9041
芦	-9042
堰	-9043
庚	-9044
徑	-9045
忌	-9046
悟	-9047
摸	-9048
汁	-9049
涂	-9050
窗	-9051
轰	-9052
骚	-9053
И	-9054
吨	-9055
夢	-9056
岱	-9057
悼	-9058
祀	-9059
镠	-9060
Л	-9061
励	-9062
啶	-9063
尿	-9064
氟	-9065
浑	-9066
牟	-9067
赠	-9068
违	-9069
ã	-9070
ु	-9071
ョ	-9072
乞	-9073
伙	-9074
叠	-9075
岡	-9076
攷	-9077
暨	-9078
楊	-9079
鮮	-9080
É	-9081
‧	-9082
佘	-9083
倭	-9084
妖	-9085
弓	-9086
渚	-9087
禽	-9088
苑	-9089
赶	-9090
邀	-9091
龜	-9092
‘	-9093
亩	-9094
找	-9095
抑	-9096
抢	-9097
汀	-9098
礎	-9099
罚	-9100
胆	-9101
诉	-9102
財	-9103
赴	-9104
遜	-9105
酶	-9106
黏	-9107
จ	-9108
あ	-9109
侗	-9110
帆	-9111
拖	-9112
皖	-9113
碩	-9114
纺	-9115
蝶	-9116
賓	-9117
े	-9118
坪	-9119
墅	-9120
朔	-9121
沂	-9122
獎	-9123
鎌	-9124
钠	-9125
擁	-9126
朵	-9127
矢	-9128
篡	-9129
臂	-9130
艘	-9131
豐	-9132
蹲	-9133
饥	-9134
ж	-9135
ป	-9136
劝	-9137
措	-9138
摧	-9139
煌	-9140
胀	-9141
踪	-9142
逢	-9143
鹬	-9144
呢	-9145
娥	-9146
嫡	-9147
尧	-9148
廢	-9149
溧	-9150
茄	-9151
謝	-9152
費	-9153
雌	-9154
頻	-9155
Σ	-9156
攀	-9157
玲	-9158
穴	-9159
酰	-9160
銀	-9161
铭	-9162
預	-9163
Π	-9164
έ	-9165
்	-9166
摔	-9167
猩	-9168
膨	-9169
鞋	-9170
া	-9171
์	-9172
だ	-9173
冥	-9174
孜	-9175
尋	-9176
尘	-9177
彌	-9178
恨	-9179
挂	-9180
殉	-9181
瓷	-9182
诃	-9183
邵	-9184
铺	-9185
駐	-9186
す	-9187
喻	-9188
晴	-9189
畅	-9190
竺	-9191
葵	-9192
诛	-9193
颈	-9194
黜	-9195
け	-9196
曉	-9197
淀	-9198
焉	-9199
貴	-9200
贼	-9201
趋	-9202
鄭	-9203
铝	-9204
顏	-9205
θ	-9206
垒	-9207
塊	-9208
斥	-9209
淨	-9210
湯	-9211
牵	-9212
鹽	-9213
ì	-9214
ं	-9215
【	-9216
】	-9217
剖	-9218
寬	-9219
帐	-9220
彙	-9221
恁	-9222
扰	-9223
浏	-9224
渤	-9225
燥	-9226
祯	-9227
耐	-9228
虔	-9229
裴	-9230
█	-9231
よ	-9232
兀	-9233
剪	-9234
崖	-9235
א	-9236
מ	-9237
え	-9238
っ	-9239
も	-9240
ソ	-9241
丕	-9242
坤	-9243
壯	-9244
睛	-9245
睿	-9246
軟	-9247
酮	-9248
霜	-9249
僅	-9250
携	-9251
樹	-9252
猜	-9253
癌	-9254
绳	-9255
軌	-9256
輪	-9257
闾	-9258
魚	-9259
±	-9260
Х	-9261
ъ	-9262
勞	-9263
尝	-9264
履	-9265
嶺	-9266
歡	-9267
浒	-9268
炭	-9269
睡	-9270
禹	-9271
贩	-9272
邏	-9273
铸	-9274
Κ	-9275
や	-9276
れ	-9277
儀	-9278
凰	-9279
寂	-9280
捐	-9281
擴	-9282
浆	-9283
烷	-9284
盎	-9285
矩	-9286
礦	-9287
铅	-9288
黔	-9289
ค	-9290
扫	-9291
沼	-9292
測	-9293
漸	-9294
澤	-9295
焚	-9296
爬	-9297
粵	-9298
苹	-9299
茲	-9300
邯	-9301
醒	-9302
ē	-9303
У	-9304
Ф	-9305
ज	-9306
้	-9307
侣	-9308
寅	-9309
忧	-9310
恪	-9311
披	-9312
揚	-9313
毘	-9314
添	-9315
畴	-9316
緯	-9317
肿	-9318
蜡	-9319
贴	-9320
迟	-9321
颂	-9322
시	-9323
ɔ	-9324
優	-9325
啊	-9326
審	-9327
峻	-9328
怕	-9329
愈	-9330
扇	-9331
昙	-9332
樊	-9333
皋	-9334
祐	-9335
糕	-9336
緣	-9337
芽	-9338
藉	-9339
虾	-9340
酯	-9341
銷	-9342
閩	-9343
雾	-9344
願	-9345
이	-9346
ύ	-9347
ל	-9348
ი	-9349
〈	-9350
〉	-9351
仆	-9352
匡	-9353
壶	-9354
猿	-9355
秩	-9356
肝	-9357
蚀	-9358
適	-9359
𡍲	-9360
ص	-9361
囚	-9362
奋	-9363
弯	-9364
栽	-9365
橡	-9366
汰	-9367
沧	-9368
績	-9369
缔	-9370
羚	-9371
蔬	-9372
谐	-9373
贪	-9374
趾	-9375
ɦ	-9376
ग	-9377
愚	-9378
昔	-9379
烃	-9380
烯	-9381
聂	-9382
肋	-9383
醉	-9384
阎	-9385
颇	-9386
鳍	-9387
ོ	-9388
亂	-9389
冀	-9390
匿	-9391
坂	-9392
壞	-9393
抱	-9394
挖	-9395
浚	-9396
淹	-9397
滋	-9398
牲	-9399
瑚	-9400
赌	-9401
锥	-9402
顧	-9403
黛	-9404
Α	-9405
ェ	-9406
ガ	-9407
峽	-9408
窄	-9409
褐	-9410
鋒	-9411
鳥	-9412
侨	-9413
側	-9414
催	-9415
儂	-9416
奸	-9417
彪	-9418
擒	-9419
曙	-9420
椒	-9421
漂	-9422
灘	-9423
肪	-9424
輔	-9425
ศ	-9426
်	-9427
俾	-9428
吡	-9429
旬	-9430
昧	-9431
槟	-9432
沦	-9433
盱	-9434
竟	-9435
谊	-9436
辈	-9437
須	-9438
骏	-9439
ɪ	-9440
ː	-9441
ש	-9442
ल	-9443
侦	-9444
冻	-9445
廖	-9446
戊	-9447
抄	-9448
旭	-9449
栏	-9450
缪	-9451
耆	-9452
耗	-9453
胚	-9454
討	-9455
貝	-9456
隸	-9457
驰	-9458
Ч	-9459
ב	-9460
श	-9461
を	-9462
傲	-9463
傷	-9464
匠	-9465
喫	-9466
奢	-9467
孛	-9468
朞	-9469
犀	-9470
畢	-9471
祸	-9472
羲	-9473
臭	-9474
蕭	-9475
阖	-9476
雇	-9477
頓	-9478
騎	-9479
동	-9480
ა	-9481
ᠨ	-9482
堅	-9483
扣	-9484
溥	-9485
滇	-9486
滬	-9487
烹	-9488
眙	-9489
蜥	-9490
诊	-9491
钓	-9492
鞍	-9493
ë	-9494
ک	-9495
ो	-9496
俶	-9497
凱	-9498
拘	-9499
枫	-9500
栗	-9501
瓶	-9502
肚	-9503
譽	-9504
谣	-9505
銅	-9506
钧	-9507
구	-9508
で	-9509
ピ	-9510
仗	-9511
惧	-9512
淑	-9513
聽	-9514
荀	-9515
蛛	-9516
蝠	-9517
蟹	-9518
邺	-9519
韋	-9520
髓	-9521
們	-9522
喊	-9523
帽	-9524
柄	-9525
瑾	-9526
疯	-9527
皈	-9528
聪	-9529
苻	-9530
贬	-9531
踐	-9532
镰	-9533
č	-9534
ł	-9535
ئ	-9536
ظ	-9537
ह	-9538
ゅ	-9539
わ	-9540
佬	-9541
咏	-9542
梗	-9543
熹	-9544
祿	-9545
笼	-9546
腭	-9547
舅	-9548
荐	-9549
萝	-9550
蓄	-9551
诱	-9552
蹄	-9553
鄞	-9554
鏈	-9555
ή	-9556
傀	-9557
儡	-9558
怨	-9559
慎	-9560
拢	-9561
祇	-9562
筆	-9563
膀	-9564
蔷	-9565
讽	-9566
趙	-9567
輕	-9568
酱	-9569
ø	-9570
̃	-9571
ḥ	-9572
〕	-9573
宴	-9574
抓	-9575
旌	-9576
竿	-9577
纂	-9578
舶	-9579
薨	-9580
藥	-9581
衝	-9582
锐	-9583
驼	-9584
@	-9585
ф	-9586
ּ	-9587
仕	-9588
偉	-9589
巩	-9590
恆	-9591
悦	-9592
昏	-9593
梭	-9594
椭	-9595
溴	-9596
皓	-9597
眠	-9598
窜	-9599
綠	-9600
裳	-9601
貞	-9602
跌	-9603
邱	-9604
铎	-9605
ò	-9606
ས	-9607
〔	-9608
せ	-9609
ゴ	-9610
傣	-9611
募	-9612
厉	-9613
妥	-9614
庵	-9615
廳	-9616
惜	-9617
減	-9618
狩	-9619
疟	-9620
秃	-9621
纔	-9622
郵	-9623
韶	-9624
颖	-9625
î	-9626
φ	-9627
ת	-9628
ར	-9629
俞	-9630
劲	-9631
弧	-9632
彗	-9633
彬	-9634
憲	-9635
楠	-9636
浸	-9637
琪	-9638
砖	-9639
禾	-9640
肩	-9641
苷	-9642
虛	-9643
謀	-9644
ă	-9645
З	-9646
ṣ	-9647
兖	-9648
哩	-9649
娄	-9650
廟	-9651
懷	-9652
盤	-9653
訪	-9654
酿	-9655
钙	-9656
钻	-9657
鸠	-9658
ָ	-9659
ธ	-9660
ろ	-9661
モ	-9662
凿	-9663
孚	-9664
寡	-9665
挡	-9666
棠	-9667
爺	-9668
犁	-9669
畲	-9670
療	-9671
盲	-9672
窮	-9673
蓮	-9674
邹	-9675
酪	-9676
Μ	-9677
佣	-9678
吧	-9679
奪	-9680
帛	-9681
愤	-9682
棱	-9683
祷	-9684
荔	-9685
蕴	-9686
藍	-9687
貢	-9688
貿	-9689
這	-9690
铌	-9691
龔	-9692
ư	-9693
伪	-9694
叻	-9695
妓	-9696
忘	-9697
惑	-9698
昇	-9699
樱	-9700
炉	-9701
烂	-9702
矣	-9703
碘	-9704
笛	-9705
绸	-9706
茹	-9707
逮	-9708
酵	-9709
鸥	-9710
ງ	-9711
偿	-9712
峙	-9713
幢	-9714
惡	-9715
暑	-9716
沸	-9717
渭	-9718
瘤	-9719
瞻	-9720
艳	-9721
踢	-9722
鬥	-9723
鳞	-9724
ş	-9725
Е	-9726
ひ	-9727
ほ	-9728
傑	-9729
冶	-9730
叹	-9731
塌	-9732
奕	-9733
扭	-9734
摘	-9735
湛	-9736
燈	-9737
祚	-9738
覽	-9739
赦	-9740
钨	-9741
鳳	-9742
黟	-9743
ý	-9744
ַ	-9745
ポ	-9746
倉	-9747
娶	-9748
屡	-9749
岐	-9750
杠	-9751
渗	-9752
畏	-9753
竣	-9754
筒	-9755
聊	-9756
脸	-9757
骆	-9758
Đ	-9759
غ	-9760
แ	-9761
ᠣ	-9762
唑	-9763
嫌	-9764
悔	-9765
慰	-9766
戎	-9767
栋	-9768
琛	-9769
羣	-9770
肾	-9771
裸	-9772
讳	-9773
週	-9774
閦	-9775
ɑ	-9776
Ш	-9777
ど	-9778
ネ	-9779
亏	-9780
侈	-9781
剥	-9782
劣	-9783
懂	-9784
晖	-9785
柑	-9786
檔	-9787
泄	-9788
濱	-9789
炀	-9790
睦	-9791
笈	-9792
簧	-9793
縮	-9794
羧	-9795
舜	-9796
芯	-9797
葱	-9798
蔗	-9799
課	-9800
賢	-9801
轩	-9802
钩	-9803
ś	-9804
پ	-9805
ไ	-9806
ゲ	-9807
卯	-9808
吊	-9809
幣	-9810
拯	-9811
昼	-9812
焕	-9813
狸	-9814
碟	-9815
聘	-9816
蔣	-9817
蕉	-9818
襲	-9819
談	-9820
醋	-9821
隱	-9822
龚	-9823
Ο	-9824
χ	-9825
ब	-9826
ハ	-9827
刹	-9828
垄	-9829
庾	-9830
彈	-9831
桩	-9832
涨	-9833
焰	-9834
穩	-9835
绅	-9836
绣	-9837
缠	-9838
肆	-9839
蓉	-9840
訓	-9841
谯	-9842
迄	-9843
釜	-9844
镁	-9845
ğ	-9846
ө	-9847
ְ	-9848
ู	-9849
ベ	-9850
伞	-9851
唤	-9852
孕	-9853
岀	-9854
岑	-9855
廈	-9856
廠	-9857
弼	-9858
濁	-9859
烦	-9860
爹	-9861
痕	-9862
綜	-9863
耿	-9864
莘	-9865
谍	-9866
辭	-9867
锅	-9868
镧	-9869
靜	-9870
骼	-9871
Δ	-9872
Ε	-9873
ד	-9874
נ	-9875
َ	-9876
ṇ	-9877
倷	-9878
凶	-9879
厌	-9880
宵	-9881
岙	-9882
撑	-9883
暹	-9884
漏	-9885
疼	-9886
臧	-9887
衙	-9888
説	-9889
豚	-9890
貫	-9891
郢	-9892
郸	-9893
針	-9894
閱	-9895
阐	-9896
陪	-9897
饱	-9898
鳄	-9899
ข	-9900
ང	-9901
嬴	-9902
幹	-9903
怡	-9904
擬	-9905
泼	-9906
涛	-9907
稠	-9908
芹	-9909
誠	-9910
谟	-9911
钾	-9912
鸮	-9913
도	-9914
선	-9915
조	-9916
«	-9917
»	-9918
إ	-9919
च	-9920
ォ	-9921
ケ	-9922
亳	-9923
冊	-9924
她	-9925
実	-9926
敲	-9927
杏	-9928
棘	-9929
滥	-9930
競	-9931
糊	-9932
絲	-9933
脈	-9934
賞	-9935
邢	-9936
钥	-9937
鞭	-9938
饲	-9939
驚	-9940
ག	-9941
刮	-9942
吻	-9943
婿	-9944
曜	-9945
澎	-9946
硼	-9947
篆	-9948
粘	-9949
缝	-9950
蔽	-9951
蝙	-9952
補	-9953
询	-9954
逾	-9955
镶	-9956
鹏	-9957
Ö	-9958
ž	-9959
Я	-9960
अ	-9961
ふ	-9962
坟	-9963
垣	-9964
姿	-9965
敕	-9966
樟	-9967
烤	-9968
獄	-9969
瓘	-9970
盡	-9971
繪	-9972
绥	-9973
荃	-9974
蜘	-9975
诬	-9976
辱	-9977
铢	-9978
閣	-9979
險	-9980
鹦	-9981
대	-9982
한	-9983
ð	-9984
ր	-9985
冉	-9986
匪	-9987
咯	-9988
夠	-9989
嶼	-9990
恼	-9991
挤	-9992
擇	-9993
擺	-9994
汐	-9995
泪	-9996
淆	-9997
湄	-9998
漆	-9999
潼	-10000
纠	-10001
纥	-10002
蠡	-10003
鄰	-10004
鏡	-10005
钵	-10006
靡	-10007
鞮	-10008
麾	-10009
ᠭ	-10010
セ	-10011
倚	-10012
匀	-10013
啸	-10014
喬	-10015
嗨	-10016
抛	-10017
涡	-10018
獸	-10019
瞿	-10020
磐	-10021
舆	-10022
莓	-10023
贷	-10024
鳕	-10025
å	-10026
ն	-10027
ṭ	-10028
ゃ	-10029
咒	-10030
敵	-10031
棄	-10032
槽	-10033
欺	-10034
涟	-10035
繞	-10036
菱	-10037
蚁	-10038
蛙	-10039
隅	-10040
­	-10041
ù	-10042
ɕ	-10043
ʃ	-10044
Ц	-10045
ү	-10046
ן	-10047
ण	-10048
ू	-10049
ヒ	-10050
剿	-10051
吁	-10052
妄	-10053
惩	-10054
抒	-10055
柜	-10056
榆	-10057
汏	-10058
汾	-10059
燒	-10060
瘟	-10061
竖	-10062
錯	-10063
颍	-10064
驯	-10065
ß	-10066
ć	-10067
Э	-10068
ṃ	-10069
そ	-10070
ノ	-10071
勘	-10072
巽	-10073
戌	-10074
簽	-10075
給	-10076
誤	-10077
铀	-10078
鸽	-10079
齋	-10080
ơ	-10081
ภ	-10082
丢	-10083
剡	-10084
勉	-10085
呂	-10086
壇	-10087
廓	-10088
斧	-10089
昴	-10090
炒	-10091
烛	-10092
琊	-10093
眷	-10094
緊	-10095
練	-10096
谜	-10097
買	-10098
購	-10099
锰	-10100
饿	-10101
鹭	-10102
Ν	-10103
ώ	-10104
ё	-10105
ִ	-10106
བ	-10107
咀	-10108
咎	-10109
坠	-10110
嵌	-10111
淋	-10112
渝	-10113
漳	-10114
睏	-10115
篤	-10116
翌	-10117
膏	-10118
茜	-10119
蔓	-10120
薯	-10121
虐	-10122
誕	-10123
锤	-10124
雉	-10125
鹉	-10126
麵	-10127
주	-10128
ע	-10129
ध	-10130
ณ	-10131
僵	-10132
删	-10133
吠	-10134
峨	-10135
敖	-10136
沫	-10137
筋	-10138
粟	-10139
缀	-10140
缸	-10141
莒	-10142
謳	-10143
跡	-10144
飲	-10145
骗	-10146
의	-10147
Ι	-10148
ّ	-10149
র	-10150
ி	-10151
რ	-10152
凸	-10153
咦	-10154
哭	-10155
堊	-10156
惹	-10157
挽	-10158
淫	-10159
疹	-10160
痴	-10161
纱	-10162
訂	-10163
訶	-10164
貨	-10165
赎	-10166
钼	-10167
锕	-10168
飾	-10169
서	-10170
Ж	-10171
ื	-10172
ད	-10173
ུ	-10174
侏	-10175
垟	-10176
垦	-10177
妆	-10178
愁	-10179
愉	-10180
毀	-10181
氰	-10182
煮	-10183
绒	-10184
萌	-10185
譜	-10186
贊	-10187
邸	-10188
郝	-10189
鍵	-10190
馏	-10191
鹫	-10192
Β	-10193
め	-10194
囥	-10195
媛	-10196
崙	-10197
榴	-10198
氦	-10199
災	-10200
琦	-10201
笋	-10202
缆	-10203
荼	-10204
锯	-10205
闊	-10206
Á	-10207
͡	-10208
Λ	-10209
آ	-10210
០	-10211
ᠡ	-10212
佚	-10213
哆	-10214
圾	-10215
埭	-10216
徹	-10217
戛	-10218
捻	-10219
斌	-10220
枣	-10221
柠	-10222
槻	-10223
檬	-10224
汴	-10225
溝	-10226
磅	-10227
竭	-10228
緬	-10229
苔	-10230
裤	-10231
谨	-10232
谿	-10233
賈	-10234
钿	-10235
驳	-10236
鲤	-10237
정	-10238
ե	-10239
্	-10240
ე	-10241
ぶ	-10242
兜	-10243
冤	-10244
劭	-10245
咄	-10246
咪	-10247
咽	-10248
啤	-10249
夾	-10250
嫔	-10251
廬	-10252
弑	-10253
戀	-10254
挺	-10255
揽	-10256
晟	-10257
梧	-10258
棣	-10259
渥	-10260
滞	-10261
爿	-10262
牡	-10263
碗	-10264
稚	-10265
窑	-10266
綱	-10267
蟲	-10268
谏	-10269
賀	-10270
赔	-10271
锺	-10272
鞅	-10273
頌	-10274
鼬	-10275
ţ	-10276
ɐ	-10277
Θ	-10278
Ю	-10279
ј	-10280
ர	-10281
็	-10282
င	-10283
ᠢ	-10284
凹	-10285
嘅	-10286
墟	-10287
妾	-10288
嫦	-10289
巳	-10290
慣	-10291
拦	-10292
攸	-10293
晝	-10294
桶	-10295
梓	-10296
棺	-10297
楞	-10298
榈	-10299
泻	-10300
淵	-10301
牆	-10302
秉	-10303
縱	-10304
罷	-10305
羟	-10306
腕	-10307
芸	-10308
莞	-10309
衮	-10310
躲	-10311
酉	-10312
鑑	-10313
隼	-10314
飯	-10315
骤	-10316
İ	-10317
ח	-10318
ष	-10319
ལ	-10320
ི	-10321
း	-10322
Ἀ	-10323
‐	-10324
伉	-10325
偃	-10326
壬	-10327
巖	-10328
抹	-10329
楔	-10330
檢	-10331
浬	-10332
淄	-10333
甯	-10334
癸	-10335
砷	-10336
磺	-10337
緒	-10338
翟	-10339
芋	-10340
荊	-10341
蚊	-10342
贲	-10343
赚	-10344
鄢	-10345
钉	-10346
陣	-10347
雞	-10348
麼	-10349
õ	-10350
Š	-10351
ํ	-10352
ວ	-10353
む	-10354
乓	-10355
刃	-10356
堕	-10357
堵	-10358
屑	-10359
掩	-10360
棚	-10361
椰	-10362
楷	-10363
淺	-10364
炫	-10365
珪	-10366
紋	-10367
绑	-10368
翊	-10369
萤	-10370
蒿	-10371
薪	-10372
蝎	-10373
衷	-10374
豬	-10375
逵	-10376
閉	-10377
ξ	-10378
ק	-10379
ض	-10380
ड	-10381
ন	-10382
க	-10383
ᠦ	-10384
ệ	-10385
ば	-10386
劑	-10387
卸	-10388
吟	-10389
咬	-10390
奚	-10391
昶	-10392
欠	-10393
産	-10394
砍	-10395
箕	-10396
翘	-10397
翳	-10398
脣	-10399
膝	-10400
萍	-10401
蔚	-10402
谅	-10403
賣	-10404
遼	-10405
錦	-10406
铂	-10407
锌	-10408
顽	-10409
魅	-10410
鹘	-10411
성	-10412
®	-10413
ʾ	-10414
ث	-10415
າ	-10416
ố	-10417
僖	-10418
厨	-10419
咨	-10420
嘛	-10421
垩	-10422
奘	-10423
寔	-10424
恺	-10425
挫	-10426
損	-10427
晤	-10428
殇	-10429
毙	-10430
沖	-10431
沮	-10432
濞	-10433
磊	-10434
窃	-10435
绞	-10436
胖	-10437
蝇	-10438
袍	-10439
輝	-10440
酬	-10441
镑	-10442
闯	-10443
鹃	-10444
일	-10445
ï	-10446
ʻ	-10447
Τ	-10448
ի	-10449
گ	-10450
भ	-10451
ན	-10452
ᠯ	-10453
傾	-10454
勳	-10455
叡	-10456
吇	-10457
吓	-10458
呤	-10459
彧	-10460
捧	-10461
昱	-10462
氛	-10463
汕	-10464
淤	-10465
牺	-10466
玺	-10467
盒	-10468
穀	-10469
純	-10470
缙	-10471
羯	-10472
葫	-10473
蝴	-10474
衫	-10475
裹	-10476
賴	-10477
遞	-10478
霹	-10479
麒	-10480
^	-10481
ם	-10482
ء	-10483
ە	-10484
ি	-10485
ᠩ	-10486
ᡳ	-10487
╱	-10488
啓	-10489
喃	-10490
嘌	-10491
巅	-10492
彥	-10493
暫	-10494
桦	-10495
樁	-10496
樑	-10497
汞	-10498
沁	-10499
渴	-10500
濮	-10501
琰	-10502
琵	-10503
畝	-10504
笠	-10505
粲	-10506
糧	-10507
绎	-10508
肽	-10509
蝗	-10510
裘	-10511
裙	-10512
谁	-10513
谴	-10514
躯	-10515
鉄	-10516
镍	-10517
闘	-10518
陂	-10519
靴	-10520
颌	-10521
飘	-10522
駛	-10523
骸	-10524
ʿ	-10525
ո	-10526
פ	-10527
த	-10528
រ	-10529
ᠲ	-10530
‰	-10531
へ	-10532
叢	-10533
姨	-10534
媽	-10535
孃	-10536
崧	-10537
弊	-10538
慨	-10539
掷	-10540
晔	-10541
枕	-10542
槃	-10543
殘	-10544
涇	-10545
瀕	-10546
猬	-10547
瑲	-10548
疲	-10549
禺	-10550
罐	-10551
脆	-10552
腥	-10553
莺	-10554
託	-10555
譚	-10556
鄱	-10557
酚	-10558
鋼	-10559
镉	-10560
駱	-10561
魄	-10562
鷹	-10563
Č	-10564
ट	-10565
ম	-10566
ေ	-10567
ế	-10568
ヤ	-10569
乒	-10570
傍	-10571
劾	-10572
匙	-10573
圩	-10574
壹	-10575
婉	-10576
宕	-10577
寮	-10578
悚	-10579
憶	-10580
挟	-10581
晁	-10582
槐	-10583
欄	-10584
歼	-10585
灼	-10586
狹	-10587
缴	-10588
罹	-10589
肛	-10590
芥	-10591
萃	-10592
蕩	-10593
褒	-10594
覅	-10595
觸	-10596
谕	-10597
貓	-10598
贿	-10599
蹟	-10600
輛	-10601
逍	-10602
遙	-10603
镖	-10604
険	-10605
顼	-10606
驅	-10607
鲨	-10608
남	-10609
지	-10610
̠	-10611
Ρ	-10612
ס	-10613
ِ	-10614
ব	-10615
ল	-10616
ს	-10617
្	-10618
ᠬ	-10619
ᠶ	-10620
ぎ	-10621
ヴ	-10622
㓰	-10623
伺	-10624
怜	-10625
晰	-10626
浔	-10627
涧	-10628
漁	-10629
潤	-10630
澜	-10631
瘦	-10632
绛	-10633
羞	-10634
臀	-10635
莹	-10636
訴	-10637
詳	-10638
謙	-10639
讚	-10640
趨	-10641
閃	-10642
隍	-10643
雳	-10644
鳌	-10645
鸻	-10646
김	-10647
자	-10648
ń	-10649
Й	-10650
ю	-10651
қ	-10652
ֹ	-10653
ג	-10654
ா	-10655
โ	-10656
ອ	-10657
།	-10658
མ	-10659
―	-10660
ご	-10661
儘	-10662
嘎	-10663
嘧	-10664
対	-10665
峭	-10666
崗	-10667
幡	-10668
搏	-10669
栎	-10670
椅	-10671
氐	-10672
甄	-10673
甥	-10674
県	-10675
稅	-10676
肅	-10677
腻	-10678
茉	-10679
蒜	-10680
蚌	-10681
蜴	-10682
諡	-10683
贏	-10684
邕	-10685
閔	-10686
閘	-10687
颚	-10688
飓	-10689
馒	-10690
鴻	-10691
鸫	-10692
鸳	-10693
כ	-10694
ใ	-10695
ာ	-10696
ᠷ	-10697
ぐ	-10698
俭	-10699
偽	-10700
叟	-10701
咳	-10702
堇	-10703
恬	-10704
捞	-10705
晃	-10706
柚	-10707
梳	-10708
洽	-10709
渎	-10710
滔	-10711
潛	-10712
濬	-10713
炽	-10714
煽	-10715
疊	-10716
禱	-10717
稷	-10718
簿	-10719
粪	-10720
聶	-10721
臻	-10722
谛	-10723
贈	-10724
郓	-10725
鐸	-10726
阙	-10727
霖	-10728
顛	-10729
颅	-10730
颢	-10731
鶴	-10732
鸯	-10733
龈	-10734
광	-10735
국	-10736
민	-10737
ʊ	-10738
Φ	-10739
ُ	-10740
ມ	-10741
ỉ	-10742
ồ	-10743
俠	-10744
呀	-10745
噪	-10746
垮	-10747
娇	-10748
愍	-10749
戍	-10750
晒	-10751
曝	-10752
槍	-10753
殼	-10754
灶	-10755
炳	-10756
煎	-10757
璇	-10758
瞬	-10759
祺	-10760
缚	-10761
舱	-10762
艰	-10763
账	-10764
躁	-10765
邗	-10766
邾	-10767
铵	-10768
陡	-10769
頒	-10770
颉	-10771
馅	-10772
馮	-10773
驿	-10774
인	-10775
제	-10776
û	-10777
þ	-10778
ɿ	-10779
ʑ	-10780
Γ	-10781
ນ	-10782
န	-10783
ლ	-10784
げ	-10785
び	-10786
ユ	-10787
俨	-10788
冢	-10789
勵	-10790
卤	-10791
啄	-10792
嗜	-10793
埼	-10794
嫂	-10795
弋	-10796
弩	-10797
彎	-10798
徳	-10799
慮	-10800
拐	-10801
昊	-10802
柘	-10803
泣	-10804
涿	-10805
渣	-10806
潟	-10807
濃	-10808
熏	-10809
璟	-10810
瓣	-10811
癫	-10812
硒	-10813
繫	-10814
缉	-10815
虱	-10816
蚕	-10817
褚	-10818
詢	-10819
謎	-10820
诈	-10821
诠	-10822
谚	-10823
賦	-10824
軸	-10825
鍾	-10826
铯	-10827
颱	-10828
驴	-10829
骄	-10830
기	-10831
사	-10832
스	-10833
울	-10834
원	-10835
Î	-10836
ę	-10837
ζ	-10838
ֶ	-10839
צ	-10840
ச	-10841
ເ	-10842
တ	-10843
ု	-10844
თ	-10845
↓	-10846
ホ	-10847
剃	-10848
吗	-10849
嘱	-10850
噸	-10851
婁	-10852
婦	-10853
岔	-10854
岬	-10855
帥	-10856
恕	-10857
惰	-10858
懒	-10859
戟	-10860
抬	-10861
暮	-10862
杖	-10863
桢	-10864
桨	-10865
歩	-10866
盜	-10867
瞎	-10868
砌	-10869
籽	-10870
繇	-10871
胰	-10872
茴	-10873
荫	-10874
菇	-10875
袜	-10876
貧	-10877
賜	-10878
邳	-10879
醍	-10880
醐	-10881
钛	-10882
钽	-10883
隙	-10884
霄	-10885
霧	-10886
額	-10887
颐	-10888
饪	-10889
鹳	-10890
齡	-10891
종	-10892
하	-10893
`	-10894
ۇ	-10895
़	-10896
ம	-10897
ា	-10898
ᠰ	-10899
俯	-10900
偵	-10901
僕	-10902
凑	-10903
哨	-10904
啜	-10905
喙	-10906
噬	-10907
嚣	-10908
娟	-10909
寝	-10910
寰	-10911
岚	-10912
帘	-10913
怎	-10914
戮	-10915
拙	-10916
拾	-10917
捍	-10918
揮	-10919
斡	-10920
泷	-10921
洮	-10922
漾	-10923
濕	-10924
珂	-10925
砾	-10926
禎	-10927
籃	-10928
綝	-10929
罩	-10930
罽	-10931
肴	-10932
脩	-10933
苌	-10934
苛	-10935
谬	-10936
躍	-10937
醚	-10938
锇	-10939
阇	-10940
靳	-10941
韬	-10942
왕	-10943
ɾ	-10944
І	-10945
ׁ	-10946
ܐ	-10947
ः	-10948
ப	-10949
ᡠ	-10950
ず	-10951
ギ	-10952
ヘ	-10953
侃	-10954
俺	-10955
呕	-10956
垫	-10957
夔	-10958
婷	-10959
媚	-10960
孺	-10961
岷	-10962
枯	-10963
榭	-10964
毯	-10965
浄	-10966
滤	-10967
獵	-10968
璜	-10969
甌	-10970
碲	-10971
穗	-10972
羿	-10973
茱	-10974
蛟	-10975
蝉	-10976
衬	-10977
诫	-10978
貂	-10979
钪	-10980
钴	-10981
铋	-10982
锣	-10983
雏	-10984
雯	-10985
骂	-10986
鸰	-10987
鹡	-10988
가	-10989
경	-10990
천	-10991
Å	-10992
đ	-10993
Ś	-10994
ɡ	-10995
տ	-10996
ذ	-10997
ু	-10998
്	-10999
მ	-11000
ო	-11001
ᡝ	-11002
ạ	-11003
ゆ	-11004
ヨ	-11005
倧	-11006
兑	-11007
勸	-11008
卉	-11009
呵	-11010
哚	-11011
啮	-11012
喝	-11013
娑	-11014
慌	-11015
捲	-11016
掸	-11017
敷	-11018
晕	-11019
洒	-11020
洱	-11021
珞	-11022
琶	-11023
瑭	-11024
皂	-11025
紛	-11026
苇	-11027
蒼	-11028
蔻	-11029
蕊	-11030
鈔	-11031
铬	-11032
阡	-11033
阱	-11034
韧	-11035
餅	-11036
馨	-11037
鲑	-11038
鹹	-11039
ǎ	-11040
ǝ	-11041
Ь	-11042
Қ	-11043
ہ	-11044
ြ	-11045
ប	-11046
ម	-11047
ộ	-11048
〇	-11049
ざ	-11050
ペ	-11051
㬮	-11052
倦	-11053
儲	-11054
匣	-11055
唸	-11056
峦	-11057
掼	-11058
撕	-11059
敘	-11060
栅	-11061
欽	-11062
沐	-11063
溉	-11064
濑	-11065
灿	-11066
瑛	-11067
璞	-11068
瓒	-11069
痰	-11070
盼	-11071
矫	-11072
祜	-11073
穹	-11074
篷	-11075
籠	-11076
粱	-11077
艦	-11078
莆	-11079
蓟	-11080
蘊	-11081
誰	-11082
軋	-11083
輻	-11084
鄧	-11085
酥	-11086
鎖	-11087
鑒	-11088
锢	-11089
闔	-11090
陌	-11091
駕	-11092
髮	-11093
鯨	-11094
鵝	-11095
강	-11096
ș	-11097
ʒ	-11098
Ё	-11099
ֵ	-11100
چ	-11101
দ	-11102
ு	-11103
ვ	-11104
უ	-11105
ᠤ	-11106
ả	-11107
倌	-11108
儋	-11109
匮	-11110
叮	-11111
喺	-11112
坍	-11113
妒	-11114
嬉	-11115
孽	-11116
嵐	-11117
幌	-11118
忻	-11119
懋	-11120
掀	-11121
撮	-11122
昀	-11123
晦	-11124
杲	-11125
杵	-11126
栾	-11127
榨	-11128
檄	-11129
毓	-11130
沅	-11131
溢	-11132
滁	-11133
玱	-11134
琐	-11135
瑁	-11136
砀	-11137
籌	-11138
絹	-11139
緩	-11140
绢	-11141
罰	-11142
翦	-11143
脅	-11144
芮	-11145
萎	-11146
讼	-11147
诲	-11148
跤	-11149
辯	-11150
遏	-11151
鄣	-11152
钆	-11153
铲	-11154
锗	-11155
锻	-11156
陨	-11157
騰	-11158
驮	-11159
骞	-11160
鬣	-11161
鮑	-11162
문	-11163
Ō	-11164
ɣ	-11165
Υ	-11166
Щ	-11167
ї	-11168
յ	-11169
ւ	-11170
ט	-11171
आ	-11172
জ	-11173
ன	-11174
ᠪ	-11175
ḍ	-11176
Ḥ	-11177
ぱ	-11178
伶	-11179
剎	-11180
吼	-11181
嘻	-11182
寵	-11183
屁	-11184
忖	-11185
惇	-11186
旻	-11187
柿	-11188
桧	-11189
沱	-11190
湧	-11191
炔	-11192
炬	-11193
煙	-11194
猁	-11195
璧	-11196
疡	-11197
磚	-11198
竇	-11199
筏	-11200
蘆	-11201
詔	-11202
豺	-11203
踞	-11204
郯	-11205
鄙	-11206
钒	-11207
钮	-11208
锑	-11209
阉	-11210
陋	-11211
顆	-11212
顗	-11213
鳃	-11214
북	-11215
산	-11216
우	-11217
전	-11218
호	-11219
¦	-11220
Ç	-11221
ʨ	-11222
Χ	-11223
Ы	-11224
ז	-11225
।	-11226
স	-11227
ถ	-11228
ແ	-11229
ྱ	-11230
ន	-11231
ṛ	-11232
ầ	-11233
›	-11234
ね	-11235
ゼ	-11236
倩	-11237
劄	-11238
劈	-11239
卦	-11240
厕	-11241
喹	-11242
嗅	-11243
塾	-11244
壩	-11245
奄	-11246
妲	-11247
姪	-11248
岘	-11249
峪	-11250
幔	-11251
弈	-11252
扯	-11253
扳	-11254
掖	-11255
搖	-11256
敛	-11257
杞	-11258
瀛	-11259
焘	-11260
燮	-11261
獭	-11262
璠	-11263
璨	-11264
痫	-11265
瞰	-11266
缢	-11267
胱	-11268
臼	-11269
蚂	-11270
蛎	-11271
襟	-11272
諦	-11273
讫	-11274
賭	-11275
贛	-11276
轲	-11277
邬	-11278
鑿	-11279
钝	-11280
钡	-11281
铼	-11282
锂	-11283
锝	-11284
镭	-11285
飒	-11286
에	-11287
현	-11288
Ø	-11289
ě	-11290
Ş	-11291
ʼ	-11292
Ъ	-11293
প	-11294
ษ	-11295
འ	-11296
ེ	-11297
မ	-11298
ᠥ	-11299
ᠮ	-11300
ῆ	-11301
‹	-11302
⁄	-11303
俏	-11304
勖	-11305
勗	-11306
唔	-11307
塗	-11308
嬷	-11309
宸	-11310
幺	-11311
悖	-11312
扈	-11313
扼	-11314
捆	-11315
捏	-11316
敞	-11317
旷	-11318
榔	-11319
泵	-11320
泸	-11321
潔	-11322
燧	-11323
狲	-11324
獾	-11325
琮	-11326
畁	-11327
痒	-11328
矽	-11329
礙	-11330
祗	-11331
秤	-11332
経	-11333
綫	-11334
绾	-11335
羡	-11336
耻	-11337
苕	-11338
萼	-11339
蠕	-11340
衞	-11341
豊	-11342
跪	-11343
軒	-11344
轧	-11345
轼	-11346
邁	-11347
銜	-11348
钇	-11349
闷	-11350
陛	-11351
颙	-11352
颛	-11353
骁	-11354
麝	-11355
龐	-11356
고	-11357
군	-11358
다	-11359
역	-11360
Ó	-11361
Ł	-11362
Ω	-11363
Ө	-11364
ܝ	-11365
ख	-11366
थ	-11367
গ	-11368
য	-11369
ື	-11370
ស	-11371
ề	-11372
ぼ	-11373
乂	-11374
亢	-11375
偕	-11376
呣	-11377
哑	-11378
嗒	-11379
嗽	-11380
垢	-11381
堀	-11382
夯	-11383
姥	-11384
婢	-11385
嫉	-11386
崭	-11387
巍	-11388
忱	-11389
悅	-11390
拣	-11391
掳	-11392
掺	-11393
揩	-11394
撫	-11395
攘	-11396
朽	-11397
栈	-11398
棟	-11399
棲	-11400
棵	-11401
歆	-11402
氡	-11403
沌	-11404
沽	-11405
洼	-11406
浣	-11407
涩	-11408
煜	-11409
獅	-11410
皝	-11411
盔	-11412
禦	-11413
筛	-11414
締	-11415
耸	-11416
胄	-11417
苴	-11418
荟	-11419
荥	-11420
蔑	-11421
蕙	-11422
觐	-11423
誦	-11424
讹	-11425
诡	-11426
貼	-11427
賊	-11428
躬	-11429
辕	-11430
鄮	-11431
醛	-11432
钯	-11433
铍	-11434
铱	-11435
锆	-11436
镀	-11437
隗	-11438
馥	-11439
驛	-11440
骠	-11441
髯	-11442
鳗	-11443
鳴	-11444
鷉	-11445
鸊	-11446
鸢	-11447
신	-11448
Ü	-11449
ą	-11450
ْ	-11451
ञ	-11452
ै	-11453
வ	-11454
ญ	-11455
ຂ	-11456
ຊ	-11457
ရ	-11458
ἀ	-11459
≡	-11460
ⴰ	-11461
⿲	-11462
べ	-11463
㑚	-11464
伎	-11465
佟	-11466
債	-11467
卅	-11468
唾	-11469
啉	-11470
啘	-11471
嘗	-11472
嘲	-11473
墉	-11474
妍	-11475
尙	-11476
屙	-11477
帳	-11478
惕	-11479
戸	-11480
拇	-11481
揆	-11482
椿	-11483
櫻	-11484
歉	-11485
涼	-11486
淇	-11487
濠	-11488
瀚	-11489
炯	-11490
烊	-11491
烘	-11492
煉	-11493
牒	-11494
猢	-11495
瑕	-11496
璘	-11497
皿	-11498
眺	-11499
睢	-11500
笙	-11501
糟	-11502
繡	-11503
绶	-11504
羹	-11505
脐	-11506
腋	-11507
膠	-11508
萘	-11509
蟠	-11510
販	-11511
贮	-11512
贱	-11513
迴	-11514
遐	-11515
鄯	-11516
铉	-11517
镨	-11518
雒	-11519
鞘	-11520
骰	-11521
鼩	-11522
박	-11523
부	-11524
수	-11525
아	-11526
연	-11527
Æ	-11528
Ā	-11529
ė	-11530
œ	-11531
ț	-11532
ܘ	-11533
ਾ	-11534
ட	-11535
ະ	-11536
យ	-11537
ᠳ	-11538
ῖ	-11539
ぽ	-11540
䜣	-11541
丫	-11542
乗	-11543
俟	-11544
兮	-11545
呆	-11546
哒	-11547
哼	-11548
唻	-11549
啰	-11550
喂	-11551
喪	-11552
壗	-11553
嫖	-11554
峇	-11555
嶽	-11556
悍	-11557
慝	-11558
抖	-11559
抲	-11560
摺	-11561
沔	-11562
涓	-11563
煦	-11564
煬	-11565
睾	-11566
瞭	-11567
瞳	-11568
秧	-11569
糙	-11570
翡	-11571
脾	-11572
膑	-11573
膺	-11574
臟	-11575
舵	-11576
莪	-11577
蛤	-11578
諧	-11579
谎	-11580
轿	-11581
辜	-11582
違	-11583
銘	-11584
鋪	-11585
铟	-11586
锈	-11587
镐	-11588
騷	-11589
鲈	-11590
鳖	-11591
鸵	-11592
鹞	-11593
齦	-11594
鿍	-11595
무	-11596
석	-11597
양	-11598
영	-11599
해	-11600
\	-11601
ȵ	-11602
ʁ	-11603
ʂ	-11604
ھ	-11605
়	-11606
ཁ	-11607
က	-11608
ပ	-11609
ိ	-11610
ễ	-11611
〜	-11612
仡	-11613
倘	-11614
僻	-11615
凋	-11616
刨	-11617
叭	-11618
呋	-11619
咤	-11620
喘	-11621
嗲	-11622
噠	-11623
圃	-11624
夭	-11625
嫲	-11626
崴	-11627
慘	-11628
摊	-11629
斬	-11630
旃	-11631
晌	-11632
橇	-11633
涤	-11634
淝	-11635
湣	-11636
潍	-11637
潰	-11638
犍	-11639
玮	-11640
瑗	-11641
皎	-11642
眛	-11643
糜	-11644
紮	-11645
纶	-11646
罂	-11647
耷	-11648
膛	-11649
芈	-11650
菁	-11651
転	-11652
迥	-11653
逖	-11654
邈	-11655
钊	-11656
钍	-11657
钜	-11658
钷	-11659
铈	-11660
霓	-11661
頸	-11662
鹈	-11663
공	-11664
리	-11665
별	-11666
안	-11667
유	-11668
평	-11669
화	-11670
𠲎	-11671
£	-11672
§	-11673
Ž	-11674
˥	-11675
˨	-11676
˩	-11677
Ј	-11678
щ	-11679
ћ	-11680
ғ	-11681
մ	-11682
ܪ	-11683
ް	-11684
ক	-11685
ী	-11686
ნ	-11687
ხ	-11688
ớ	-11689
丐	-11690
侂	-11691
侮	-11692
儁	-11693
刁	-11694
刍	-11695
匕	-11696
叩	-11697
呐	-11698
嗯	-11699
嚭	-11700
孵	-11701
帚	-11702
弁	-11703
忏	-11704
恚	-11705
悄	-11706
憂	-11707
懸	-11708
撃	-11709
杓	-11710
榕	-11711
殆	-11712
汲	-11713
淖	-11714
溜	-11715
濤	-11716
猞	-11717
猷	-11718
玳	-11719
琨	-11720
疮	-11721
睑	-11722
硚	-11723
禍	-11724
笨	-11725
筠	-11726
羨	-11727
羰	-11728
聰	-11729
荧	-11730
菠	-11731
蕨	-11732
藓	-11733
蘋	-11734
詠	-11735
誼	-11736
诰	-11737
醴	-11738
釐	-11739
钋	-11740
钐	-11741
钕	-11742
铪	-11743
锫	-11744
陲	-11745
颤	-11746
飙	-11747
騙	-11748
骊	-11749
鹊	-11750
鹟	-11751
麂	-11752
중	-11753
철	-11754
Ñ	-11755
ĩ	-11756
ő	-11757
ż	-11758
ɲ	-11759
Հ	-11760
ে	-11761
ਿ	-11762
్	-11763
ර	-11764
ฟ	-11765
ລ	-11766
ັ	-11767
ᡥ	-11768
々	-11769
亘	-11770
俳	-11771
偈	-11772
傕	-11773
匐	-11774
咙	-11775
噴	-11776
嚈	-11777
埵	-11778
塍	-11779
塢	-11780
墮	-11781
孀	-11782
専	-11783
恽	-11784
悯	-11785
愔	-11786
搶	-11787
擂	-11788
暢	-11789
朕	-11790
毋	-11791
氙	-11792
沥	-11793
溺	-11794
漱	-11795
漲	-11796
濛	-11797
炙	-11798
猕	-11799
珣	-11800
瓊	-11801
瓮	-11802
疽	-11803
盃	-11804
瞋	-11805
碉	-11806
禀	-11807
穰	-11808
籲	-11809
綿	-11810
绮	-11811
羁	-11812
聋	-11813
腌	-11814
苟	-11815
薰	-11816
藐	-11817
虬	-11818
蛾	-11819
觅	-11820
諺	-11821
诩	-11822
谒	-11823
谔	-11824
赟	-11825
跍	-11826
踩	-11827
迩	-11828
邨	-11829
钗	-11830
镅	-11831
镎	-11832
镝	-11833
関	-11834
闢	-11835
阗	-11836
陝	-11837
隘	-11838
颔	-11839
饒	-11840
馱	-11841
黒	-11842
黯	-11843
라	-11844
로	-11845
¥	-11846
ŭ	-11847
ɯ	-11848
̂	-11849
̄	-11850
̯	-11851
ў	-11852
ृ	-11853
ా	-11854
ి	-11855
ക	-11856
ซ	-11857
པ	-11858
ព	-11859
ួ	-11860
ᡤ	-11861
ậ	-11862
ờ	-11863
←	-11864
ぜ	-11865
ぞ	-11866
傭	-11867
傻	-11868
凫	-11869
凳	-11870
勁	-11871
唆	-11872
塵	-11873
壘	-11874
奂	-11875
嵯	-11876
彊	-11877
恂	-11878
恤	-11879
懼	-11880
戳	-11881
樸	-11882
泓	-11883
泚	-11884
湍	-11885
湟	-11886
滂	-11887
滸	-11888
漿	-11889
潁	-11890
潞	-11891
熬	-11892
瑤	-11893
疱	-11894
痘	-11895
砲	-11896
砹	-11897
稼	-11898
絮	-11899
罡	-11900
耨	-11901
脓	-11902
艱	-11903
芷	-11904
菅	-11905
蕰	-11906
蚤	-11907
螂	-11908
蠢	-11909
誅	-11910
誇	-11911
謇	-11912
謚	-11913
謠	-11914
讧	-11915
谪	-11916
谶	-11917
跻	-11918
遁	-11919
錐	-11920
钚	-11921
钳	-11922
钹	-11923
铊	-11924
铕	-11925
铥	-11926
铷	-11927
锿	-11928
镓	-11929
镤	-11930
镥	-11931
阑	-11932
霆	-11933
靓	-11934
餓	-11935
鬆	-11936
鬱	-11937
鱷	-11938
년	-11939
을	-11940
장	-11941
𰻞	-11942
ŏ	-11943
ˆ	-11944
˧	-11945
̪	-11946
Η	-11947
ң	-11948
Ә	-11949
կ	-11950
ۈ	-11951
ܢ	-11952
ई	-11953
ந	-11954
ல	-11955
ర	-11956
්	-11957
ཆ	-11958
ྲ	-11959
ည	-11960
ီ	-11961
አ	-11962
ụ	-11963
∅	-11964
○	-11965
⿱	-11966
㶲	-11967
亶	-11968
伢	-11969
倔	-11970
剣	-11971
勺	-11972
卞	-11973
厝	-11974
咕	-11975
哌	-11976
啼	-11977
嗓	-11978
嗪	-11979
噜	-11980
嚼	-11981
変	-11982
娩	-11983
婕	-11984
寥	-11985
崑	-11986
庯	-11987
弛	-11988
您	-11989
憾	-11990
掃	-11991
暱	-11992
枭	-11993
桅	-11994
槌	-11995
汛	-11996
沾	-11997
洹	-11998
浇	-11999
涪	-12000
淅	-12001
渍	-12002
瀏	-12003
牽	-12004
犧	-12005
狙	-12006
狠	-12007
猡	-12008
琏	-12009
琥	-12010
痹	-12011
盏	-12012
碛	-12013
磡	-12014
祉	-12015
秣	-12016
竜	-12017
筱	-12018
箫	-12019
簇	-12020
粥	-12021
紡	-12022
纖	-12023
聆	-12024
胛	-12025
脖	-12026
苓	-12027
茫	-12028
萱	-12029
蓼	-12030
蕎	-12031
虢	-12032
蛉	-12033
蜃	-12034
蜒	-12035
蝕	-12036
螯	-12037
蟒	-12038
覇	-12039
诣	-12040
赂	-12041
蹤	-12042
蹦	-12043
轶	-12044
轸	-12045
郃	-12046
钬	-12047
铨	-12048
铳	-12049
铽	-12050
锎	-12051
锔	-12052
閹	-12053
阊	-12054
陉	-12055
頃	-12056
馈	-12057
骘	-12058
骜	-12059
鳩	-12060
鴨	-12061
鸾	-12062
鹕	-12063
齣	-12064
나	-12065
명	-12066
어	-12067
위	-12068
치	-12069
특	-12070
ɤ	-12071
ɨ	-12072
̥	-12073
Ά	-12074
Ζ	-12075
Ξ	-12076
ψ	-12077
Ү	-12078
ս	-12079
इ	-12080
উ	-12081
ত	-12082
ਲ	-12083
ฎ	-12084
ສ	-12085
ຫ	-12086
ྐ	-12087
ქ	-12088
ስ	-12089
១	-12090
ị	-12091
ủ	-12092
ぷ	-12093
䜒	-12094
佼	-12095
僭	-12096
冗	-12097
刪	-12098
剝	-12099
厲	-12100
呦	-12101
哔	-12102
哗	-12103
哮	-12104
嚇	-12105
圉	-12106
圻	-12107
墾	-12108
孪	-12109
岂	-12110
峃	-12111
嵇	-12112
幂	-12113
廂	-12114
恵	-12115
惶	-12116
慾	-12117
憨	-12118
拷	-12119
捨	-12120
撇	-12121
擢	-12122
擾	-12123
攏	-12124
敝	-12125
昨	-12126
暦	-12127
曦	-12128
柩	-12129
栓	-12130
椋	-12131
楽	-12132
槿	-12133
檐	-12134
檳	-12135
欸	-12136
氓	-12137
洵	-12138
涕	-12139
淸	-12140
渲	-12141
澧	-12142
灸	-12143
熵	-12144
爛	-12145
牦	-12146
玑	-12147
珅	-12148
甪	-12149
疣	-12150
睹	-12151
矾	-12152
碁	-12153
禛	-12154
稹	-12155
箬	-12156
箴	-12157
綁	-12158
纣	-12159
肱	-12160
肼	-12161
腎	-12162
膊	-12163
膽	-12164
荻	-12165
蔵	-12166
蘑	-12167
蚓	-12168
蚺	-12169
蛊	-12170
蜿	-12171
觞	-12172
諫	-12173
諷	-12174
诂	-12175
豁	-12176
貪	-12177
辗	-12178
郦	-12179
釉	-12180
鉛	-12181
銮	-12182
鑄	-12183
铒	-12184
锄	-12185
锷	-12186
镬	-12187
镱	-12188
閥	-12189
闺	-12190
闼	-12191
闿	-12192
隑	-12193
雎	-12194
雹	-12195
靛	-12196
頗	-12197
鵬	-12198
내	-12199
상	-12200
용	-12201
¿	-12202
Ä	-12203
Í	-12204
ʕ	-12205
Ա	-12206
ڭ	-12207
މ	-12208
ަ	-12209
ު	-12210
ং	-12211
ট	-12212
হ	-12213
ਰ	-12214
ੰ	-12215
ર	-12216
ພ	-12217
ཚ	-12218
ခ	-12219
စ	-12220
သ	-12221
გ	-12222
ក	-12223
ᠸ	-12224
ổ	-12225
ὁ	-12226
ᾶ	-12227
ῦ	-12228
†	-12229
≠	-12230
☆	-12231
ⵉ	-12232
⿰	-12233
㐲	-12234
丟	-12235
乖	-12236
侶	-12237
僞	-12238
凍	-12239
剔	-12240
匾	-12241
咆	-12242
哦	-12243
噻	-12244
埗	-12245
壟	-12246
夥	-12247
奭	-12248
姒	-12249
孰	-12250
屍	-12251
峤	-12252
帧	-12253
幟	-12254
忿	-12255
恳	-12256
憎	-12257
憑	-12258
拌	-12259
捣	-12260
搁	-12261
撼	-12262
暇	-12263
暐	-12264
朐	-12265
楓	-12266
榉	-12267
榧	-12268
槛	-12269
樾	-12270
橼	-12271
殡	-12272
毡	-12273
沭	-12274
泠	-12275
淚	-12276
淩	-12277
滯	-12278
漈	-12279
潢	-12280
澈	-12281
煩	-12282
猗	-12283
璐	-12284
甩	-12285
畈	-12286
痢	-12287
痪	-12288
瘋	-12289
瘫	-12290
皱	-12291
祂	-12292
祆	-12293
窠	-12294
箓	-12295
繳	-12296
缮	-12297
耍	-12298
肘	-12299
脯	-12300
膚	-12301
臥	-12302
苞	-12303
茸	-12304
荨	-12305
菏	-12306
葆	-12307
蜻	-12308
蝦	-12309
螈	-12310
観	-12311
贰	-12312
踝	-12313
輩	-12314
逗	-12315
郅	-12316
郴	-12317
釈	-12318
釘	-12319
録	-12320
鑫	-12321
铑	-12322
锶	-12323
镕	-12324
隴	-12325
鞠	-12326
驷	-12327
驸	-12328
骷	-12329
髋	-12330
髦	-12331
鰭	-12332
鲶	-12333
鷗	-12334
麴	-12335
鼹	-12336
계	-12337
는	-12338
마	-12339
면	-12340
보	-12341
세	-12342
식	-12343
월	-12344
태	-12345
È	-12346
Ú	-12347
ħ	-12348
ų	-12349
ź	-12350
ɬ	-12351
ʐ	-12352
ʦ	-12353
ә	-12354
Ս	-12355
լ	-12356
घ	-12357
ভ	-12358
ய	-12359
వ	-12360
ಿ	-12361
ള	-12362
ി	-12363
ฐ	-12364
ผ	-12365
ึ	-12366
້	-12367
ໍ	-12368
ཡ	-12369
ླ	-12370
ბ	-12371
დ	-12372
ត	-12373
ី	-12374
ḏ	-12375
ṅ	-12376
Ṣ	-12377
ẽ	-12378
Ἰ	-12379
∠	-12380
▼	-12381
ⲟ	-12382
⿳	-12383
づ	-12384
ゥ	-12385
乜	-12386
佞	-12387
佶	-12388
侑	-12389
俩	-12390
僱	-12391
刎	-12392
匍	-12393
厾	-12394
吩	-12395
呃	-12396
哟	-12397
喆	-12398
嘘	-12399
嘦	-12400
噩	-12401
団	-12402
壺	-12403
奮	-12404
妊	-12405
媳	-12406
嬤	-12407
尬	-12408
峯	-12409
彤	-12410
怠	-12411
怯	-12412
慷	-12413
懺	-12414
抨	-12415
拎	-12416
拏	-12417
掛	-12418
摹	-12419
撲	-12420
攜	-12421
昕	-12422
昪	-12423
昺	-12424
曷	-12425
朮	-12426
枉	-12427
槊	-12428
様	-12429
樵	-12430
氩	-12431
氪	-12432
氹	-12433
涣	-12434
湫	-12435
滾	-12436
漩	-12437
澀	-12438
澉	-12439
澶	-12440
澹	-12441
濡	-12442
炅	-12443
狡	-12444
獴	-12445
珑	-12446
珲	-12447
璝	-12448
瘾	-12449
盂	-12450
眞	-12451
瞩	-12452
碣	-12453
祎	-12454
祕	-12455
窥	-12456
綢	-12457
綴	-12458
総	-12459
罃	-12460
羋	-12461
耒	-12462
耦	-12463
肄	-12464
胭	-12465
腫	-12466
膳	-12467
臉	-12468
芾	-12469
苋	-12470
苾	-12471
茗	-12472
蔺	-12473
蕪	-12474
藜	-12475
蘿	-12476
螨	-12477
蟾	-12478
診	-12479
讬	-12480
诅	-12481
诘	-12482
豨	-12483
貘	-12484
贻	-12485
赧	-12486
跛	-12487
蹩	-12488
酌	-12489
釣	-12490
鑽	-12491
钌	-12492
铠	-12493
锭	-12494
閭	-12495
阏	-12496
隽	-12497
霊	-12498
鞞	-12499
颊	-12500
餃	-12501
駿	-12502
驹	-12503
骈	-12504
骥	-12505
鬧	-12506
鴉	-12507
鸨	-12508
鸩	-12509
鸱	-12510
鹀	-12511
鹗	-12512
鼐	-12513
齮	-12514
니	-12515
당	-12516
려	-12517
모	-12518
물	-12519
방	-12520
여	-12521
준	-12522
진	-12523
회	-12524
¡	-12525
ũ	-12526
ˌ	-12527
̞	-12528
Һ	-12529
պ	-12530
վ	-12531
ې	-12532
ܒ	-12533
ܕ	-12534
އ	-12535
उ	-12536
ठ	-12537
ौ	-12538
শ	-12539
ા	-12540
ാ	-12541
න	-12542
ฯ	-12543
ກ	-12544
ບ	-12545
ົ	-12546
ໄ	-12547
ယ	-12548
კ	-12549
ት	-12550
ិ	-12551
ុ	-12552
ᠵ	-12553
ḫ	-12554
ὐ	-12555
ὴ	-12556
↑	-12557
↔	-12558
◌	-12559
亻	-12560
仄	-12561
佺	-12562
倈	-12563
僑	-12564
凄	-12565
匄	-12566
厮	-12567
叱	-12568
吵	-12569
咐	-12570
啖	-12571
囱	-12572
塚	-12573
墜	-12574
妝	-12575
妨	-12576
姗	-12577
娣	-12578
娲	-12579
娴	-12580
媾	-12581
峴	-12582
崂	-12583
巯	-12584
帷	-12585
廁	-12586
彷	-12587
応	-12588
怛	-12589
恿	-12590
悪	-12591
愧	-12592
慑	-12593
拂	-12594
拋	-12595
挛	-12596
捺	-12597
揉	-12598
撐	-12599
晗	-12600
曳	-12601
杼	-12602
栉	-12603
桔	-12604
椥	-12605
楨	-12606
楸	-12607
榛	-12608
歴	-12609
歹	-12610
氫	-12611
氾	-12612
汙	-12613
汜	-12614
汹	-12615
洙	-12616
涸	-12617
淦	-12618
湊	-12619
瀨	-12620
烽	-12621
燉	-12622
猖	-12623
獣	-12624
玟	-12625
琇	-12626
琢	-12627
甮	-12628
畸	-12629
疇	-12630
皴	-12631
盪	-12632
秆	-12633
笏	-12634
筵	-12635
絵	-12636
綽	-12637
縉	-12638
縛	-12639
繹	-12640
纫	-12641
绷	-12642
缇	-12643
缕	-12644
罵	-12645
羔	-12646
胫	-12647
腮	-12648
舫	-12649
苄	-12650
蒨	-12651
蓴	-12652
薹	-12653
蜍	-12654
蜗	-12655
蟑	-12656
蠵	-12657
衅	-12658
謨	-12659
謹	-12660
譙	-12661
豌	-12662
赅	-12663
跆	-12664
躺	-12665
辙	-12666
遲	-12667
邃	-12668
邠	-12669
醌	-12670
醜	-12671
钰	-12672
镛	-12673
闖	-12674
鞨	-12675
韭	-12676
馳	-12677
驭	-12678
骇	-12679
鬚	-12680
鱸	-12681
鲟	-12682
鲫	-12683
鳟	-12684
鶯	-12685
龢	-12686
鿏	-12687
개	-12688
관	-12689
만	-12690
백	-12691
은	-12692
터	-12693
¤	-12694
À	-12695
Ê	-12696
Ô	-12697
ř	-12698
̈	-12699
̋	-12700
̌	-12701
ϊ	-12702
Є	-12703
ދ	-12704
ި	-12705
ँ	-12706
ङ	-12707
ো	-12708
ਨ	-12709
ண	-12710
ழ	-12711
ు	-12712
ന	-12713
പ	-12714
ි	-12715
ฤ	-12716
ຄ	-12717
ຽ	-12718
ཀ	-12719
္	-12720
ტ	-12721
ል	-12722
ር	-12723
ᠴ	-12724
ᡡ	-12725
ấ	-12726
Ἐ	-12727
‍	-12728
≥	-12729
ヌ	-12730
仮	-12731
佃	-12732
佤	-12733
俸	-12734
偓	-12735
傘	-12736
儉	-12737
兇	-12738
冑	-12739
刂	-12740
卬	-12741
哙	-12742
唉	-12743
営	-12744
喾	-12745
嗎	-12746
嗔	-12747
垡	-12748
堺	-12749
墳	-12750
姫	-12751
娠	-12752
嬌	-12753
寞	-12754
尻	-12755
峥	-12756
崮	-12757
嶂	-12758
悝	-12759
憩	-12760
戡	-12761
扔	-12762
抉	-12763
揿	-12764
搅	-12765
撘	-12766
撣	-12767
撩	-12768
攔	-12769
暉	-12770
栃	-12771
桿	-12772
槭	-12773
橢	-12774
橱	-12775
歪	-12776
殁	-12777
泮	-12778
涝	-12779
渾	-12780
澡	-12781
濫	-12782
灊	-12783
炖	-12784
炜	-12785
焊	-12786
牍	-12787
猝	-12788
玘	-12789
琬	-12790
瑋	-12791
瓢	-12792
甦	-12793
畑	-12794
畹	-12795
疤	-12796
睐	-12797
磾	-12798
礽	-12799
竊	-12800
筷	-12801
紊	-12802
紗	-12803
絨	-12804
綏	-12805
縫	-12806
繩	-12807
绫	-12808
绯	-12809
翱	-12810
耽	-12811
膦	-12812
臆	-12813
艷	-12814
芴	-12815
苣	-12816
茛	-12817
荞	-12818
莅	-12819
葑	-12820
蕲	-12821
薦	-12822
虜	-12823
虧	-12824
蚜	-12825
蚣	-12826
蜈	-12827
螃	-12828
袤	-12829
裒	-12830
褲	-12831
褶	-12832
諜	-12833
諮	-12834
諱	-12835
讥	-12836
谘	-12837
谤	-12838
豈	-12839
豔	-12840
貶	-12841
贖	-12842
赈	-12843
蹇	-12844
辇	-12845
逅	-12846
邂	-12847
邅	-12848
邽	-12849
郗	-12850
鈞	-12851
鈴	-12852
铣	-12853
铹	-12854
锚	-12855
闍	-12856
闡	-12857
陟	-12858
霰	-12859
靺	-12860
饨	-12861
饺	-12862
骅	-12863
髅	-12864
鬃	-12865
鱲	-12866
鲭	-12867
鲲	-12868
鸞	-12869
鸲	-12870
鹄	-12871
鹑	-12872
黝	-12873
교	-12874
미	-12875
삼	-12876
순	-12877
애	-12878
오	-12879
재	-12880
청	-12881
트	-12882
Ò	-12883
Ē	-12884
Ġ	-12885
ġ	-12886
ɒ	-12887
ɫ	-12888
ʀ	-12889
ʋ	-12890
˦	-12891
Έ	-12892
Ў	-12893
Ң	-12894
ұ	-12895
թ	-12896
ֲ	-12897
ץ	-12898
ۋ	-12899
ܠ	-12900
ܡ	-12901
ਜ	-12902
ங	-12903
ீ	-12904
ே	-12905
ం	-12906
గ	-12907
ల	-12908
ಕ	-12909
ನ	-12910
ರ	-12911
ා	-12912
ฆ	-12913
ฬ	-12914
ຈ	-12915
ດ	-12916
ྷ	-12917
ဝ	-12918
ျ	-12919
ွ	-12920
ኢ	-12921
ያ	-12922
ហ	-12923
ំ	-12924
ᡧ	-12925
ᡴ	-12926
ᡵ	-12927
ẓ	-12928
Ἡ	-12929
≈	-12930
△	-12931
ⵎ	-12932
⿺	-12933
ぬ	-12934
ヶ	-12935
䴕	-12936
仂	-12937
仝	-12938
伷	-12939
俅	-12940
倶	-12941
僔	-12942
償	-12943
円	-12944
冇	-12945
勰	-12946
叁	-12947
吲	-12948
呜	-12949
呪	-12950
呴	-12951
哋	-12952
哎	-12953
哴	-12954
嘚	-12955
嘟	-12956
嘢	-12957
噢	-12958
囲	-12959
圜	-12960
坜	-12961
坵	-12962
垓	-12963
垛	-12964
埲	-12965
塽	-12966
婠	-12967
婪	-12968
嬢	-12969
宓	-12970
宥	-12971
寛	-12972
寢	-12973
屉	-12974
岖	-12975
庉	-12976
廪	-12977
恃	-12978
悳	-12979
惱	-12980
憤	-12981
懈	-12982
懲	-12983
扒	-12984
拧	-12985
拮	-12986
挚	-12987
捱	-12988
掾	-12989
揾	-12990
撾	-12991
擋	-12992
擘	-12993
擠	-12994
擱	-12995
斛	-12996
暄	-12997
曇	-12998
杷	-12999
枇	-13000
枷	-13001
枸	-13002
椴	-13003
榫	-13004
樨	-13005
権	-13006
檯	-13007
殃	-13008
汨	-13009
沣	-13010
洄	-13011
淌	-13012
湮	-13013
滦	-13014
漓	-13015
漪	-13016
潇	-13017
濂	-13018
瀬	-13019
灏	-13020
烨	-13021
焓	-13022
煥	-13023
燭	-13024
燾	-13025
玷	-13026
珙	-13027
瑄	-13028
瑩	-13029
璩	-13030
甾	-13031
畵	-13032
疸	-13033
砧	-13034
碶	-13035
禩	-13036
窘	-13037
窯	-13038
窿	-13039
竄	-13040
笕	-13041
笡	-13042
筝	-13043
篁	-13044
篾	-13045
籁	-13046
糸	-13047
緝	-13048
緻	-13049
繆	-13050
肟	-13051
胪	-13052
腈	-13053
腸	-13054
芍	-13055
茧	-13056
菖	-13057
菟	-13058
蒯	-13059
蔥	-13060
薙	-13061
蘚	-13062
蚪	-13063
蛄	-13064
蛱	-13065
蜓	-13066
蜚	-13067
蜱	-13068
蝌	-13069
蟻	-13070
蠅	-13071
衄	-13072
裨	-13073
訟	-13074
謬	-13075
诀	-13076
谗	-13077
貳	-13078
賠	-13079
賤	-13080
踵	-13081
蹶	-13082
辄	-13083
込	-13084
迳	-13085
釀	-13086
钫	-13087
锟	-13088
锴	-13089
镆	-13090
閏	-13091
閑	-13092
闆	-13093
阋	-13094
阯	-13095
隈	-13096
雛	-13097
饅	-13098
饵	-13099
馄	-13100
驕	-13101
骧	-13102
髻	-13103
鱿	-13104
鸬	-13105
鹚	-13106
鹮	-13107
黥	-13108
금	-13109
길	-13110
랑	-13111
래	-13112
레	-13113
반	-13114
소	-13115
송	-13116
열	-13117
운	-13118
육	-13119
키	-13120
학	-13121
헌	-13122
황	-13123
희	-13124
𐎠	-13125
𫛭	-13126
𬬭	-13127
Ã	-13128
Ì	-13129
Õ	-13130
÷	-13131
Ī	-13132
Ə	-13133
ɓ	-13134
ɘ	-13135
ʌ	-13136
̀	-13137
̍	-13138
̤	-13139
њ	-13140
Ғ	-13141
ԓ	-13142
Վ	-13143
գ	-13144
ۆ	-13145
झ	-13146
फ	-13147
०	-13148
ਗ	-13149
ਸ	-13150
ਹ	-13151
ஸ	-13152
ூ	-13153
ை	-13154
ோ	-13155
డ	-13156
ಾ	-13157
್	-13158
ം	-13159
ര	-13160
വ	-13161
ു	-13162
ฉ	-13163
๊	-13164
ູ	-13165
ྒ	-13166
ྗ	-13167
ံ	-13168
ზ	-13169
መ	-13170
ብ	-13171
ን	-13172
ይ	-13173
ድ	-13174
ግ	-13175
ᠺ	-13176
ᡩ	-13177
ắ	-13178
ừ	-13179
ữ	-13180
Ἑ	-13181
□	-13182
ⲁ	-13183
ⲙ	-13184
ⲛ	-13185
ⵏ	-13186
⻌	-13187
㶞	-13188
䜌	-13189
佯	-13190
俑	-13191
俦	-13192
俪	-13193
俫	-13194
僮	-13195
兗	-13196
兪	-13197
剜	-13198
勅	-13199
匆	-13200
卽	-13201
厩	-13202
吮	-13203
唃	-13204
啲	-13205
喱	-13206
壑	-13207
妫	-13208
婥	-13209
屎	-13210
屹	-13211
峠	-13212
嵬	-13213
巻	-13214
帙	-13215
広	-13216
廆	-13217
弭	-13218
徛	-13219
怂	-13220
恙	-13221
戢	-13222
抔	-13223
拗	-13224
挣	-13225
捡	-13226
揀	-13227
攴	-13228
斟	-13229
昫	-13230
晩	-13231
晾	-13232
暧	-13233
枋	-13234
桁	-13235
梿	-13236
棻	-13237
楂	-13238
楝	-13239
楣	-13240
楹	-13241
榷	-13242
樗	-13243
樫	-13244
樽	-13245
檸	-13246
櫃	-13247
欖	-13248
殴	-13249
毎	-13250
氖	-13251
気	-13252
氘	-13253
沆	-13254
洩	-13255
渑	-13256
溇	-13257
潽	-13258
澍	-13259
澱	-13260
濯	-13261
炆	-13262
烙	-13263
焖	-13264
煚	-13265
牯	-13266
狒	-13267
獗	-13268
珈	-13269
珥	-13270
瑠	-13271
璉	-13272
瓌	-13273
疥	-13274
痉	-13275
痞	-13276
瞞	-13277
瞪	-13278
砚	-13279
砸	-13280
砺	-13281
碾	-13282
秽	-13283
窩	-13284
箍	-13285
簪	-13286
纭	-13287
绀	-13288
绽	-13289
缤	-13290
缬	-13291
缵	-13292
耜	-13293
聃	-13294
聿	-13295
胝	-13296
脍	-13297
腑	-13298
腱	-13299
芗	-13300
荚	-13301
荽	-13302
莖	-13303
莴	-13304
菸	-13305
菼	-13306
萸	-13307
蒡	-13308
蓓	-13309
蚯	-13310
蛰	-13311
袈	-13312
裟	-13313
覃	-13314
觚	-13315
誘	-13316
諒	-13317
諭	-13318
譴	-13319
诨	-13320
赭	-13321
趕	-13322
跖	-13323
蹔	-13324
軀	-13325
辂	-13326
辫	-13327
醣	-13328
鈿	-13329
銳	-13330
錮	-13331
錶	-13332
铫	-13333
铰	-13334
閤	-13335
閶	-13336
闳	-13337
阆	-13338
隕	-13339
雩	-13340
霅	-13341
顓	-13342
颓	-13343
飼	-13344
饑	-13345
馍	-13346
駁	-13347
駭	-13348
騁	-13349
驟	-13350
驩	-13351
骡	-13352
鱗	-13353
鲔	-13354
鲣	-13355
鲱	-13356
鲳	-13357
鹨	-13358
黍	-13359
黠	-13360
黻	-13361
鼱	-13362
龛	-13363
권	-13364
그	-13365
두	-13366
망	-13367
매	-13368
비	-13369
설	-13370
예	-13371
와	-13372
윤	-13373
적	-13374
창	-13375
친	-13376
탄	-13377
포	-13378
프	-13379
할	-13380
𐎢	-13381
𐏁	-13382
𐤍	-13383
𧉆	-13384
𪥸	-13385
𫟼	-13386
𬭶	-13387
©	-13388
Ï	-13389
Û	-13390
Þ	-13391
ÿ	-13392
Ğ	-13393
ļ	-13394
ů	-13395
ǐ	-13396
ǧ	-13397
ʉ	-13398
̧	-13399
̱	-13400
̼	-13401
Ђ	-13402
բ	-13403
խ	-13404
ց	-13405
־	-13406
ך	-13407
ܼ	-13408
ހ	-13409
ާ	-13410
छ	-13411
ণ	-13412
ਬ	-13413
ੁ	-13414
ஜ	-13415
క	-13416
ద	-13417
న	-13418
ല	-13419
ය	-13420
ව	-13421
ස	-13422
ු	-13423
ฒ	-13424
ྡ	-13425
ྤ	-13426
ྫ	-13427
ဒ	-13428
လ	-13429
အ	-13430
პ	-13431
შ	-13432
ም	-13433
ᐃ	-13434
ច	-13435
ដ	-13436
២	-13437
ṯ	-13438
ẵ	-13439
ọ	-13440
ἐ	-13441
Ἱ	-13442
Ὠ	-13443
ῶ	-13444
„	-13445
ⲓ	-13446
ⲣ	-13447
⺼	-13448
⻍	-13449
ㄙ	-13450
㙮	-13451
䴓	-13452
䴘	-13453
䴙	-13454
亵	-13455
佉	-13456
侷	-13457
俐	-13458
倖	-13459
傢	-13460
儇	-13461
兌	-13462
刽	-13463
勐	-13464
勲	-13465
吒	-13466
吤	-13467
呛	-13468
咥	-13469
咧	-13470
喋	-13471
嘖	-13472
噷	-13473
嚡	-13474
囤	-13475
坳	-13476
垕	-13477
垯	-13478
堑	-13479
夬	-13480
妤	-13481
姘	-13482
姝	-13483
娆	-13484
婭	-13485
嬪	-13486
嬬	-13487
嬲	-13488
孲	-13489
尴	-13490
屢	-13491
岫	-13492
嵘	-13493
嶋	-13494
嶲	-13495
嶷	-13496
徨	-13497
怿	-13498
懊	-13499
戾	-13500
挞	-13501
挠	-13502
掰	-13503
搔	-13504
搨	-13505
搪	-13506
撷	-13507
攫	-13508
攬	-13509
旉	-13510
旸	-13511
暎	-13512
朊	-13513
朦	-13514
栢	-13515
桉	-13516
梟	-13517
梢	-13518
梣	-13519
棧	-13520
樋	-13521
檻	-13522
毆	-13523
沓	-13524
淪	-13525
淴	-13526
湉	-13527
溅	-13528
滲	-13529
漯	-13530
潦	-13531
灑	-13532
灞	-13533
烬	-13534
焙	-13535
煖	-13536
煠	-13537
煨	-13538
熜	-13539
熲	-13540
燦	-13541
牝	-13542
犛	-13543
犨	-13544
犷	-13545
玠	-13546
玢	-13547
瑀	-13548
璀	-13549
璎	-13550
璙	-13551
璿	-13552
瓚	-13553
畬	-13554
疝	-13555
瘠	-13556
癖	-13557
癣	-13558
発	-13559
眜	-13560
眩	-13561
眶	-13562
睇	-13563
睬	-13564
瞄	-13565
矗	-13566
禥	-13567
秭	-13568
稙	-13569
穎	-13570
窒	-13571
窣	-13572
窺	-13573
篩	-13574
篪	-13575
篱	-13576
籀	-13577
粽	-13578
糯	-13579
絶	-13580
綸	-13581
纏	-13582
纡	-13583
绚	-13584
缄	-13585
缗	-13586
缜	-13587
缟	-13588
缭	-13589
羱	-13590
翎	-13591
脹	-13592
膈	-13593
莼	-13594
菀	-13595
萦	-13596
蒽	-13597
藕	-13598
蚝	-13599
蚵	-13600
蛞	-13601
蝾	-13602
螅	-13603
衎	-13604
褔	-13605
褥	-13606
褪	-13607
襪	-13608
訣	-13609
诶	-13610
谌	-13611
谧	-13612
豎	-13613
賔	-13614
賺	-13615
赁	-13616
赡	-13617
跷	-13618
躋	-13619
轟	-13620
辍	-13621
辘	-13622
迨	-13623
郧	-13624
鄒	-13625
酗	-13626
釆	-13627
釓	-13628
鉨	-13629
鉻	-13630
錚	-13631
鍊	-13632
鎊	-13633
鏐	-13634
鑰	-13635
鑼	-13636
钔	-13637
锵	-13638
镄	-13639
镒	-13640
陞	-13641
靶	-13642
頵	-13643
顎	-13644
飽	-13645
驒	-13646
驪	-13647
鬟	-13648
鳐	-13649
鹂	-13650
鹼	-13651
鼯	-13652
龌	-13653
간	-13654
겨	-13655
과	-13656
근	-13657
눈	-13658
데	-13659
되	-13660
림	-13661
바	-13662
파	-13663
향	-13664
혜	-13665
효	-13666
흥	-13667
𐎼	-13668
𒆠	-13669
𫓧	-13670
𬭊	-13671
𬭛	-13672
¢	-13673
¬	-13674
Â	-13675
Ë	-13676
Ð	-13677
Ù	-13678
Ą	-13679
Ć	-13680
Ę	-13681
Ĩ	-13682
Œ	-13683
Ũ	-13684
Ż	-13685
ǁ	-13686
ǒ	-13687
ǔ	-13688
ɗ	-13689
ɜ	-13690
ɴ	-13691
ʏ	-13692
̇	-13693
̩	-13694
͘	-13695
Љ	-13696
Њ	-13697
Џ	-13698
Ѣ	-13699
Ӏ	-13700
Մ	-13701
ղ	-13702
ף	-13703
ٴ	-13704
ٹ	-13705
ڈ	-13706
ژ	-13707
ܚ	-13708
ބ	-13709
ެ	-13710
ढ	-13711
আ	-13712
ਦ	-13713
ગ	-13714
ન	-13715
લ	-13716
ી	-13717
્	-13718
அ	-13719
ற	-13720
ణ	-13721
ీ	-13722
ె	-13723
ದ	-13724
ಮ	-13725
ು	-13726
ത	-13727
മ	-13728
യ	-13729
ජ	-13730
ฑ	-13731
ฝ	-13732
ฮ	-13733
ຕ	-13734
ປ	-13735
ິ	-13736
ີ	-13737
່	-13738
ྟ	-13739
ဂ	-13740
ဇ	-13741
ဘ	-13742
ფ	-13743
ሥ	-13744
ሱ	-13745
የ	-13746
ዮ	-13747
ገ	-13748
ጵ	-13749
Ꭶ	-13750
ᑦ	-13751
ង	-13752
ជ	-13753
ភ	-13754
ល	-13755
ែ	-13756
់	-13757
ᡨ	-13758
ᡶ	-13759
ḷ	-13760
ṁ	-13761
Ṭ	-13762
ứ	-13763
Ἁ	-13764
Ἔ	-13765
ἡ	-13766
ὑ	-13767
ὰ	-13768
ὶ	-13769
ὸ	-13770
┌	-13771
┐	-13772
└	-13773
┘	-13774
●	-13775
♦	-13776
Ⱏ	-13777
ⲉ	-13778
ⲏ	-13779
ⲥ	-13780
ⵓ	-13781
ⵙ	-13782
ⵟ	-13783
ⵣ	-13784
⸺	-13785
⻎	-13786
〢	-13787
ゑ	-13788
㭴	-13789
䓬	-13790
亜	-13791
佰	-13792
侉	-13793
俎	-13794
倮	-13795
傈	-13796
僳	-13797
児	-13798
兢	-13799
冏	-13800
冼	-13801
剢	-13802
剽	-13803
卟	-13804
咋	-13805
咍	-13806
咩	-13807
哄	-13808
唠	-13809
啷	-13810
嘆	-13811
嘏	-13812
嘿	-13813
噱	-13814
囑	-13815
囧	-13816
図	-13817
埏	-13818
墊	-13819
墶	-13820
壊	-13821
壕	-13822
壢	-13823
妠	-13824
姦	-13825
媧	-13826
嬰	-13827
嬿	-13828
尕	-13829
巂	-13830
庁	-13831
庠	-13832
廚	-13833
忑	-13834
恸	-13835
悌	-13836
惭	-13837
愫	-13838
愷	-13839
戆	-13840
戬	-13841
扆	-13842
拈	-13843
拭	-13844
挈	-13845
捩	-13846
掂	-13847
掇	-13848
掐	-13849
揢	-13850
揣	-13851
擄	-13852
攞	-13853
斎	-13854
昚	-13855
暀	-13856
暝	-13857
曄	-13858
曬	-13859
枹	-13860
柲	-13861
柷	-13862
査	-13863
棗	-13864
榻	-13865
樘	-13866
樺	-13867
檗	-13868
歎	-13869
毌	-13870
沢	-13871
泱	-13872
渌	-13873
満	-13874
滙	-13875
漼	-13876
潯	-13877
濉	-13878
瀆	-13879
瀋	-13880
瀧	-13881
瀴	-13882
烩	-13883
焗	-13884
焯	-13885
煲	-13886
熨	-13887
熾	-13888
燎	-13889
爐	-13890
犇	-13891
犸	-13892
狍	-13893
猥	-13894
猾	-13895
獠	-13896
玖	-13897
珉	-13898
珩	-13899
琍	-13900
琚	-13901
瑣	-13902
瑱	-13903
璲	-13904
璽	-13905
疙	-13906
痔	-13907
瘓	-13908
瘩	-13909
瘴	-13910
癡	-13911
癱	-13912
盯	-13913
眨	-13914
眭	-13915
睫	-13916
瞒	-13917
瞥	-13918
矜	-13919
磋	-13920
磯	-13921
祓	-13922
禿	-13923
秸	-13924
穂	-13925
穢	-13926
窈	-13927
笆	-13928
笺	-13929
筲	-13930
箔	-13931
箸	-13932
籤	-13933
糾	-13934
続	-13935
綺	-13936
縻	-13937
纮	-13938
缯	-13939
罔	-13940
耘	-13941
聳	-13942
胧	-13943
胳	-13944
舐	-13945
芫	-13946
芻	-13947
苜	-13948
茌	-13949
茚	-13950
荘	-13951
葭	-13952
蓁	-13953
蓖	-13954
蓦	-13955
蓿	-13956
蔭	-13957
薔	-13958
薮	-13959
藨	-13960
蘅	-13961
蘸	-13962
蛔	-13963
蛳	-13964
蜕	-13965
蜢	-13966
蝰	-13967
螢	-13968
蟜	-13969
蠍	-13970
蠹	-13971
袅	-13972
袒	-13973
袱	-13974
襯	-13975
觊	-13976
訇	-13977
訛	-13978
詣	-13979
詧	-13980
詮	-13981
詰	-13982
諴	-13983
謗	-13984
譏	-13985
讃	-13986
诙	-13987
诤	-13988
谀	-13989
谑	-13990
谡	-13991
貸	-13992
赉	-13993
趺	-13994
跏	-13995
跗	-13996
蹋	-13997
輿	-13998
辺	-13999
迂	-14000
逛	-14001
逞	-14002
遢	-14003
遽	-14004
鄄	-14005
鄗	-14006
酩	-14007
醬	-14008
釵	-14009
鈣	-14010
鈺	-14011
鉬	-14012
銬	-14013
鋅	-14014
鋸	-14015
鍋	-14016
铛	-14017
铧	-14018
铮	-14019
铿	-14020
锘	-14021
锜	-14022
镂	-14023
镞	-14024
镳	-14025
闇	-14026
隰	-14027
霑	-14028
靑	-14029
鞏	-14030
鞣	-14031
韌	-14032
頊	-14033
饷	-14034
馕	-14035
駝	-14036
騫	-14037
驥	-14038
骋	-14039
骶	-14040
髑	-14041
髭	-14042
鬄	-14043
鬍	-14044
鬪	-14045
鲂	-14046
鲛	-14047
鲡	-14048
鲩	-14049
鲻	-14050
鲽	-14051
鳎	-14052
鳝	-14053
鴛	-14054
鴦	-14055
鵰	-14056
麸	-14057
麹	-14058
麽	-14059
黴	-14060
龊	-14061
규	-14062
글	-14063
날	-14064
단	-14065
덕	-14066
독	-14067
디	-14068
범	-14069
법	-14070
손	-14071
슬	-14072
승	-14073
었	-14074
음	-14075
절	-14076
직	-14077
춘	-14078
충	-14079
테	-14080
함	-14081
허	-14082
혼	-14083
후	-14084
𠊉	-14085
𤤰	-14086
𬬻	-14087
𬭳	-14088
Ý	-14089
Ħ	-14090
ĭ	-14091
Ķ	-14092
ķ	-14093
ľ	-14094
Ń	-14095
Ū	-14096
ɥ	-14097
ɵ	-14098
ʈ	-14099
Ί	-14100
Ό	-14101
Ψ	-14102
Ѓ	-14103
Ѕ	-14104
Ї	-14105
Ћ	-14106
є	-14107
љ	-14108
Җ	-14109
Ҳ	-14110
ҷ	-14111
һ	-14112
ӣ	-14113
Ե	-14114
Տ	-14115
դ	-14116
զ	-14117
հ	-14118
ռ	-14119
ք	-14120
ׂ	-14121
ښ	-14122
ګ	-14123
ں	-14124
ۍ	-14125
ܓ	-14126
ܗ	-14127
ܬ	-14128
ލ	-14129
ޔ	-14130
ޫ	-14131
ए	-14132
औ	-14133
॥	-14134
অ	-14135
ই	-14136
খ	-14137
চ	-14138
ষ	-14139
ਘ	-14140
ਮ	-14141
਼	-14142
ੀ	-14143
દ	-14144
સ	-14145
ુ	-14146
ெ	-14147
జ	-14148
త	-14149
ప	-14150
ಪ	-14151
ವ	-14152
ೆ	-14153
ട	-14154
ක	-14155
ත	-14156
ප	-14157
ම	-14158
๋	-14159
ຍ	-14160
ທ	-14161
ໂ	-14162
ཛ	-14163
ཞ	-14164
ཧ	-14165
ထ	-14166
ူ	-14167
ဲ	-14168
ှ	-14169
ც	-14170
ህ	-14171
ለ	-14172
ማ	-14173
ረ	-14174
ኣ	-14175
ክ	-14176
Ꭹ	-14177
Ꮃ	-14178
ᓄ	-14179
ណ	-14180
េ	-14181
ោ	-14182
ះ	-14183
᠎	-14184
ᵻ	-14185
ḇ	-14186
ể	-14187
ợ	-14188
ἔ	-14189
ἱ	-14190
Ὀ	-14191
€	-14192
≤	-14193
☉	-14194
♭	-14195
ⵜ	-14196
〃	-14197
〣	-14198
〤	-14199
〥	-14200
〧	-14201
〨	-14202
ぺ	-14203
ゾ	-14204
ヲ	-14205
ㄦ	-14206
㵎	-14207
㻋	-14208
䃅	-14209
䳭	-14210
䴈	-14211
亀	-14212
亙	-14213
亟	-14214
仞	-14215
伋	-14216
佝	-14217
佥	-14218
侇	-14219
侖	-14220
俓	-14221
偁	-14222
偎	-14223
僈	-14224
僉	-14225
凈	-14226
刈	-14227
剁	-14228
劻	-14229
劼	-14230
勛	-14231
勻	-14232
卍	-14233
吙	-14234
吶	-14235
呎	-14236
呗	-14237
呰	-14238
咁	-14239
咗	-14240
咱	-14241
咲	-14242
哬	-14243
唵	-14244
啞	-14245
啬	-14246
喧	-14247
喰	-14248
噌	-14249
噹	-14250
嚏	-14251
嚮	-14252
坨	-14253
坻	-14254
垅	-14255
埤	-14256
堯	-14257
塱	-14258
夙	-14259
夤	-14260
妗	-14261
妞	-14262
娼	-14263
婶	-14264
媪	-14265
嫗	-14266
嫪	-14267
嬛	-14268
宀	-14269
尷	-14270
岌	-14271
崁	-14272
嵋	-14273
帰	-14274
帼	-14275
庖	-14276
徇	-14277
恘	-14278
恣	-14279
恥	-14280
恹	-14281
悫	-14282
惫	-14283
惬	-14284
惮	-14285
慅	-14286
憐	-14287
憚	-14288
戇	-14289
戉	-14290
拴	-14291
掴	-14292
擡	-14293
攒	-14294
敍	-14295
斃	-14296
昉	-14297
晜	-14298
晞	-14299
晧	-14300
暠	-14301
曌	-14302
曩	-14303
枞	-14304
栄	-14305
栲	-14306
桀	-14307
桕	-14308
桜	-14309
梃	-14310
棨	-14311
椁	-14312
楩	-14313
榘	-14314
榣	-14315
槜	-14316
槲	-14317
殓	-14318
殟	-14319
殮	-14320
殯	-14321
毂	-14322
毐	-14323
氽	-14324
汊	-14325
沚	-14326
泞	-14327
泫	-14328
洎	-14329
浃	-14330
浍	-14331
浠	-14332
涎	-14333
淒	-14334
淯	-14335
渧	-14336
溏	-14337
滃	-14338
滄	-14339
滆	-14340
滷	-14341
潑	-14342
濊	-14343
濾	-14344
炊	-14345
烫	-14346
煇	-14347
熄	-14348
燊	-14349
燝	-14350
犒	-14351
犰	-14352
狈	-14353
狞	-14354
狦	-14355
狳	-14356
猊	-14357
獐	-14358
獒	-14359
玡	-14360
珏	-14361
珦	-14362
珮	-14363
珰	-14364
瑈	-14365
璛	-14366
璦	-14367
甑	-14368
甴	-14369
畠	-14370
畷	-14371
疋	-14372
疵	-14373
痊	-14374
痤	-14375
瘀	-14376
瘛	-14377
瘸	-14378
癒	-14379
癞	-14380
皚	-14381
眈	-14382
眴	-14383
睺	-14384
睽	-14385
砦	-14386
硖	-14387
磕	-14388
磴	-14389
祛	-14390
祟	-14391
禟	-14392
禳	-14393
禵	-14394
稜	-14395
窍	-14396
窕	-14397
筍	-14398
箐	-14399
篙	-14400
篠	-14401
篦	-14402
簋	-14403
糠	-14404
絜	-14405
綾	-14406
緔	-14407
緹	-14408
縄	-14409
縯	-14410
繕	-14411
纜	-14412
纾	-14413
绂	-14414
绦	-14415
缂	-14416
缦	-14417
缨	-14418
罄	-14419
罟	-14420
翕	-14421
胼	-14422
舔	-14423
舺	-14424
艋	-14425
芪	-14426
茆	-14427
菘	-14428
葦	-14429
蒴	-14430
蓑	-14431
蔔	-14432
蔼	-14433
蕤	-14434
薈	-14435
薏	-14436
薬	-14437
藁	-14438
虻	-14439
蚡	-14440
蛸	-14441
蛹	-14442
蝮	-14443
螳	-14444
螽	-14445
蟀	-14446
蟋	-14447
蠶	-14448
袓	-14449
褓	-14450
覈	-14451
覬	-14452
証	-14453
詆	-14454
詝	-14455
詡	-14456
誡	-14457
誹	-14458
謊	-14459
诳	-14460
谄	-14461
谙	-14462
谞	-14463
豳	-14464
貊	-14465
貯	-14466
賅	-14467
賬	-14468
赃	-14469
赘	-14470
赜	-14471
趒	-14472
跄	-14473
跸	-14474
踰	-14475
蹿	-14476
軻	-14477
轭	-14478
迤	-14479
迺	-14480
逄	-14481
逋	-14482
遴	-14483
邋	-14484
邝	-14485
郕	-14486
郞	-14487
郤	-14488
郷	-14489
郾	-14490
鄔	-14491
酆	-14492
酣	-14493
醢	-14494
釁	-14495
鈉	-14496
鉅	-14497
鉑	-14498
鋁	-14499
錳	-14500
鎗	-14501
鎶	-14502
鏖	-14503
鏳	-14504
鐮	-14505
鑊	-14506
鑲	-14507
钶	-14508
镌	-14509
镯	-14510
閻	-14511
闫	-14512
阂	-14513
靂	-14514
鞬	-14515
韃	-14516
頫	-14517
頹	-14518
頼	-14519
顔	-14520
颀	-14521
颞	-14522
飪	-14523
馋	-14524
馴	-14525
駄	-14526
駅	-14527
驢	-14528
驺	-14529
驽	-14530
骃	-14531
魍	-14532
鰓	-14533
鰲	-14534
鱉	-14535
鲗	-14536
鲷	-14537
鳀	-14538
鳊	-14539
鳔	-14540
鳜	-14541
鴷	-14542
鶆	-14543
鸪	-14544
鸺	-14545
鹁	-14546
鹠	-14547
鹩	-14548
鹪	-14549
麩	-14550
麪	-14551
黇	-14552
黾	-14553
鼋	-14554
鼢	-14555
鼫	-14556
龑	-14557
鿔	-14558
ꆃ	-14559
ꆈ	-14560
ꌠ	-14561
까	-14562
너	-14563
노	-14564
누	-14565
뉴	-14566
드	-14567
령	-14568
분	-14569
쁨	-14570
생	-14571
실	-14572
엔	-14573
임	-14574
입	-14575
차	-14576
찬	-14577
참	-14578
채	-14579
최	-14580
추	-14581
통	-14582
투	-14583
피	-14584
﨑	-14585
𐎹	-14586
𐤏	-14587
𐤓	-14588
𣴓	-14589
𫍽	-14590
𫟷	-14591
𬀩	-14592
¶	-14593
Ĉ	-14594
Ċ	-14595
ċ	-14596
ď	-14597
Ė	-14598
ĝ	-14599
Ģ	-14600
ģ	-14601
Į	-14602
į	-14603
Ļ	-14604
Ņ	-14605
ņ	-14606
ň	-14607
Ő	-14608
Ţ	-14609
ű	-14610
Ų	-14611
Ÿ	-14612
Ź	-14613
ǣ	-14614
ǰ	-14615
ǵ	-14616
Ț	-14617
ɖ	-14618
ɟ	-14619
ɠ	-14620
ɸ	-14621
ʎ	-14622
ʤ	-14623
ʹ	-14624
ˇ	-14625
ˊ	-14626
ˑ	-14627
̅	-14628
̕	-14629
̚	-14630
̰	-14631
Ή	-14632
ΐ	-14633
Ϙ	-14634
ϙ	-14635
Ϛ	-14636
Ќ	-14637
ђ	-14638
ѓ	-14639
ќ	-14640
џ	-14641
ҡ	-14642
ҳ	-14643
ӈ	-14644
ӕ	-14645
Ӧ	-14646
Կ	-14647
Ջ	-14648
ծ	-14649
շ	-14650
ջ	-14651
ؤ	-14652
ً	-14653
ٱ	-14654
ډ	-14655
ڑ	-14656
ڤ	-14657
ܟ	-14658
ނ	-14659
ރ	-14660
ވ	-14661
ީ	-14662
ऊ	-14663
ऋ	-14664
ऐ	-14665
२	-14666
ঘ	-14667
ঙ	-14668
ড	-14669
ਆ	-14670
ਪ	-14671
ਵ	-14672
ੂ	-14673
ੇ	-14674
੍	-14675
ત	-14676
મ	-14677
ે	-14678
ள	-14679
ష	-14680
ృ	-14681
ಡ	-14682
ಯ	-14683
ೀ	-14684
ങ	-14685
ച	-14686
ധ	-14687
ඩ	-14688
ධ	-14689
හ	-14690
ේ	-14691
ฏ	-14692
ฦ	-14693
ๅ	-14694
ๆ	-14695
๑	-14696
ຣ	-14697
ຼ	-14698
ཉ	-14699
ཏ	-14700
ཙ	-14701
ཟ	-14702
ཤ	-14703
ཨ	-14704
ྔ	-14705
ྦ	-14706
ྩ	-14707
ྭ	-14708
့	-14709
ራ	-14710
ሮ	-14711
ሳ	-14712
በ	-14713
ና	-14714
Ꭰ	-14715
Ꮒ	-14716
Ꮝ	-14717
Ꮳ	-14718
Ꮿ	-14719
ᓗ	-14720
គ	-14721
ទ	-14722
វ	-14723
៉	-14724
៩	-14725
ᠱ	-14726
ᠼ	-14727
ᥖ	-14728
ᥰ	-14729
ᦱ	-14730
ᦹ	-14731
ᦺ	-14732
ᧈ	-14733
᷆	-14734
ḻ	-14735
ṳ	-14736
ặ	-14737
Ẽ	-14738
ỏ	-14739
ử	-14740
ỳ	-14741
Ἄ	-14742
ἰ	-14743
※	-14744
⇌	-14745
∂	-14746
∞	-14747
⋄	-14748
■	-14749
▲	-14750
★	-14751
Ⰽ	-14752
Ⱄ	-14753
ⲃ	-14754
ⲕ	-14755
ⲡ	-14756
ⲩ	-14757
ⴱ	-14758
ⴷ	-14759
ⴻ	-14760
ⵗ	-14761
ⵡ	-14762
⿴	-14763
ゐ	-14764
ヅ	-14765
ㄝ	-14766
ㄧ	-14767
ㄨ	-14768
㑷	-14769
㗂	-14770
㫝	-14771
㬎	-14772
㹢	-14773
㺢	-14774
㻑	-14775
䝯	-14776
乭	-14777
亗	-14778
仏	-14779
佻	-14780
俣	-14781
倻	-14782
偡	-14783
偻	-14784
傝	-14785
傥	-14786
僣	-14787
儆	-14788
冖	-14789
凇	-14790
剋	-14791
剐	-14792
卨	-14793
卲	-14794
厓	-14795
厭	-14796
叼	-14797
吋	-14798
吖	-14799
吝	-14800
咔	-14801
咫	-14802
咿	-14803
哂	-14804
唁	-14805
唎	-14806
唥	-14807
啪	-14808
啱	-14809
啾	-14810
喏	-14811
喑	-14812
喚	-14813
喽	-14814
嗆	-14815
嗡	-14816
嗦	-14817
嘮	-14818
噎	-14819
嚙	-14820
囍	-14821
囹	-14822
圄	-14823
圹	-14824
坯	-14825
坰	-14826
坷	-14827
埒	-14828
埸	-14829
堠	-14830
墻	-14831
妳	-14832
姣	-14833
娉	-14834
娯	-14835
婧	-14836
嫄	-14837
嫣	-14838
嬸	-14839
孬	-14840
寘	-14841
屄	-14842
屌	-14843
峒	-14844
崋	-14845
巆	-14846
巒	-14847
巿	-14848
帑	-14849
幄	-14850
庳	-14851
廙	-14852
廞	-14853
弔	-14854
弾	-14855
彖	-14856
彫	-14857
徉	-14858
忐	-14859
怅	-14860
恍	-14861
悃	-14862
悶	-14863
惋	-14864
愎	-14865
愬	-14866
慄	-14867
慫	-14868
懇	-14869
懦	-14870
懶	-14871
戯	-14872
扉	-14873
扛	-14874
扦	-14875
扪	-14876
抟	-14877
抠	-14878
拠	-14879
挾	-14880
掣	-14881
掲	-14882
搐	-14883
搵	-14884
摂	-14885
摒	-14886
撙	-14887
擖	-14888
擤	-14889
擲	-14890
攤	-14891
斄	-14892
旛	-14893
晈	-14894
晙	-14895
晷	-14896
暕	-14897
曽	-14898
杻	-14899
枳	-14900
柞	-14901
栩	-14902
栴	-14903
栻	-14904
桎	-14905
梆	-14906
梏	-14907
梶	-14908
椏	-14909
楙	-14910
楫	-14911
榊	-14912
槎	-14913
櫆	-14914
櫥	-14915
殑	-14916
殒	-14917
氚	-14918
氵	-14919
汎	-14920
泖	-14921
洑	-14922
洺	-14923
浡	-14924
涒	-14925
渢	-14926
湃	-14927
溆	-14928
溚	-14929
溼	-14930
滀	-14931
潋	-14932
澇	-14933
瀼	-14934
瀾	-14935
炟	-14936
炤	-14937
煊	-14938
煸	-14939
熠	-14940
燼	-14941
爨	-14942
牂	-14943
犊	-14944
犴	-14945
狓	-14946
猇	-14947
獁	-14948
獃	-14949
玙	-14950
玚	-14951
玧	-14952
珐	-14953
琯	-14954
瑇	-14955
璣	-14956
璫	-14957
璵	-14958
瓠	-14959
畋	-14960
痂	-14961
瘡	-14962
瘲	-14963
癟	-14964
癩	-14965
皙	-14966
皤	-14967
睁	-14968
瞧	-14969
瞫	-14970
矍	-14971
矴	-14972
砜	-14973
砣	-14974
硃	-14975
碌	-14976
碓	-14977
磔	-14978
礫	-14979
礴	-14980
祏	-14981
祢	-14982
祹	-14983
禨	-14984
稈	-14985
稗	-14986
稟	-14987
穏	-14988
窖	-14989
竅	-14990
竦	-14991
笞	-14992
筐	-14993
筮	-14994
簟	-14995
簷	-14996
簸	-14997
粿	-14998
糅	-14999
紜	-15000
絫	-15001
絳	-15002
継	-15003
綦	-15004
縊	-15005
縠	-15006
繻	-15007
绊	-15008
缽	-15009
罅	-15010
翃	-15011
翚	-15012
翮	-15013
翹	-15014
翽	-15015
肮	-15016
胍	-15017
胴	-15018
脲	-15019
腆	-15020
腩	-15021
腼	-15022
臃	-15023
臊	-15024
臾	-15025
舂	-15026
舎	-15027
艚	-15028
艿	-15029
芐	-15030
苅	-15031
茀	-15032
茁	-15033
荑	-15034
荖	-15035
莨	-15036
菑	-15037
菪	-15038
菽	-15039
萜	-15040
萩	-15041
蒄	-15042
蒌	-15043
蒍	-15044
蒐	-15045
蒞	-15046
蒺	-15047
蓍	-15048
蓥	-15049
蕈	-15050
蕺	-15051
薊	-15052
薑	-15053
薺	-15054
藺	-15055
蚩	-15056
蚶	-15057
蛐	-15058
蛭	-15059
蜆	-15060
蜉	-15061
蝓	-15062
蝣	-15063
蝼	-15064
螫	-15065
蟆	-15066
蟥	-15067
蠋	-15068
蠱	-15069
衲	-15070
袂	-15071
襦	-15072
覚	-15073
覧	-15074
觋	-15075
觎	-15076
觜	-15077
觴	-15078
訥	-15079
詐	-15080
詒	-15081
誣	-15082
誥	-15083
諍	-15084
諳	-15085
謁	-15086
讐	-15087
诒	-15088
诜	-15089
豕	-15090
豢	-15091
賄	-15092
贽	-15093
赍	-15094
跎	-15095
蹉	-15096
蹊	-15097
蹚	-15098
躉	-15099
軼	-15100
輒	-15101
輟	-15102
辎	-15103
迸	-15104
逑	-15105
逶	-15106
遶	-15107
遹	-15108
邙	-15109
邛	-15110
郈	-15111
郜	-15112
鄖	-15113
鄘	-15114
鄚	-15115
酎	-15116
酐	-15117
酝	-15118
醮	-15119
醯	-15120
釩	-15121
釿	-15122
鈷	-15123
鈾	-15124
鉀	-15125
銥	-15126
鋹	-15127
鍛	-15128
鎘	-15129
鎢	-15130
鎭	-15131
鎳	-15132
钏	-15133
钤	-15134
钺	-15135
铄	-15136
锲	-15137
锹	-15138
閆	-15139
闐	-15140
阈	-15141
雑	-15142
雠	-15143
雫	-15144
霽	-15145
韜	-15146
韫	-15147
頑	-15148
頤	-15149
顒	-15150
顱	-15151
颎	-15152
颧	-15153
颰	-15154
飄	-15155
飢	-15156
餉	-15157
餌	-15158
餡	-15159
餩	-15160
餬	-15161
饉	-15162
饋	-15163
馗	-15164
馘	-15165
馺	-15166
駢	-15167
験	-15168
騶	-15169
驊	-15170
驐	-15171
驤	-15172
骛	-15173
骢	-15174
髏	-15175
髪	-15176
髲	-15177
鬘	-15178
鬻	-15179
魇	-15180
鮫	-15181
鱀	-15182
鲵	-15183
鷺	-15184
鹌	-15185
麋	-15186
麺	-15187
麿	-15188
黙	-15189
黼	-15190
齶	-15191
龁	-15192
龋	-15193
龠	-15194
鿬	-15195
ꁈ	-15196
ꊨ	-15197
ꏦ	-15198
ꓵ	-15199
ꓽ	-15200
게	-15201
곡	-15202
굴	-15203
귀	-15204
님	-15205
달	-15206
담	-15207
더	-15208
듀	-15209
란	-15210
렬	-15211
록	-15212
롯	-15213
말	-15214
먼	-15215
발	-15216
변	-15217
복	-15218
봉	-15219
빈	-15220
슨	-15221
심	-15222
싸	-15223
암	-15224
앙	-15225
올	-15226
왜	-15227
요	-15228
으	-15229
쟁	-15230
저	-15231
족	-15232
존	-15233
좌	-15234
죽	-15235
체	-15236
텔	-15237
픽	-15238
항	-15239
행	-15240
협	-15241
형	-15242
홍	-15243
히	-15244
𐎱	-15245
𐎺	-15246
𐤁	-15247
𐤊	-15248
𠼢	-15249
𡉑	-15250
𡨸	-15251
𢜶	-15252
𢴳	-15253
𣥯	-15254
𤘅	-15255
𦥑	-15256
𦰩	-15257
𧊒	-15258
𧰵	-15259
𧼱	-15260
𪄠	-15261
𫚉	-15262
𫲨	-15263
Ă	-15264
ĕ	-15265
Ĥ	-15266
ĵ	-15267
ĸ	-15268
Ŋ	-15269
Ŗ	-15270
ŗ	-15271
Ř	-15272
ŝ	-15273
Ŧ	-15274
ŧ	-15275
Ű	-15276
Ŵ	-15277
ŵ	-15278
ƶ	-15279
ǀ	-15280
Ǧ	-15281
ǫ	-15282
Ǵ	-15283
Ș	-15284
ȟ	-15285
ɳ	-15286
ʧ	-15287
ʽ	-15288
ˀ	-15289
˭	-15290
̆	-15291
̨	-15292
̿	-15293
Ύ	-15294
Ϊ	-15295
ϛ	-15296
ϫ	-15297
Ϸ	-15298
ѕ	-15299
ѣ	-15300
ѧ	-15301
Ѳ	-15302
ѳ	-15303
ѹ	-15304
Ґ	-15305
җ	-15306
ҧ	-15307
Ҫ	-15308
Ұ	-15309
ҹ	-15310
Ӓ	-15311
Ӱ	-15312
Դ	-15313
Զ	-15314
Լ	-15315
Շ	-15316
Ո	-15317
Ց	-15318
ճ	-15319
չ	-15320
ֻ	-15321
؟	-15322
ٔ	-15323
ڌ	-15324
ێ	-15325
ے	-15326
ۓ	-15327
ܛ	-15328
ܥ	-15329
ܨ	-15330
ܫ	-15331
ގ	-15332
ޖ	-15333
ޙ	-15334
ߏ	-15335
ߒ	-15336
ߞ	-15337
ऌ	-15338
ओ	-15339
ळ	-15340
ऽ	-15341
ॄ	-15342
ॆ	-15343
ॉ	-15344
ॐ	-15345
ॠ	-15346
ॡ	-15347
ॢ	-15348
ॣ	-15349
ও	-15350
ঞ	-15351
ঢ	-15352
ৎ	-15353
ਅ	-15354
ਚ	-15355
ਟ	-15356
ਡ	-15357
ਣ	-15358
ਧ	-15359
ਭ	-15360
ੈ	-15361
ੋ	-15362
ੱ	-15363
ં	-15364
જ	-15365
પ	-15366
બ	-15367
ભ	-15368
ો	-15369
ଓ	-15370
ଡ	-15371
ଶ	-15372
଼	-15373
ି	-15374
ஆ	-15375
ஈ	-15376
ట	-15377
ధ	-15378
బ	-15379
మ	-15380
య	-15381
శ	-15382
స	-15383
హ	-15384
ే	-15385
ో	-15386
ಂ	-15387
ಗ	-15388
ಜ	-15389
ಣ	-15390
ತ	-15391
ಳ	-15392
ಷ	-15393
ಸ	-15394
ಹ	-15395
ೂ	-15396
ೇ	-15397
ೋ	-15398
ണ	-15399
ദ	-15400
ഴ	-15401
െ	-15402
ോ	-15403
ං	-15404
ට	-15405
ද	-15406
ල	-15407
ෙ	-15408
ෝ	-15409
ฃ	-15410
ฅ	-15411
ฌ	-15412
ฺ	-15413
฿	-15414
๎	-15415
๏	-15416
๐	-15417
๒	-15418
๓	-15419
๔	-15420
๕	-15421
๖	-15422
๗	-15423
๘	-15424
๙	-15425
๚	-15426
๛	-15427
ຸ	-15428
ཅ	-15429
ཇ	-15430
ཐ	-15431
ཕ	-15432
ཱ	-15433
ཾ	-15434
ཿ	-15435
ྨ	-15436
ဆ	-15437
ဟ	-15438
ဦ	-15439
ဧ	-15440
ါ	-15441
ყ	-15442
ჭ	-15443
ላ	-15444
ሓ	-15445
ሔ	-15446
ሠ	-15447
ቀ	-15448
ቂ	-15449
ቅ	-15450
ባ	-15451
ቦ	-15452
ተ	-15453
ቲ	-15454
ቴ	-15455
ች	-15456
ኃ	-15457
ነ	-15458
ኖ	-15459
ኛ	-15460
ኤ	-15461
ኽ	-15462
ወ	-15463
ዊ	-15464
ዎ	-15465
ዘ	-15466
ዝ	-15467
ዳ	-15468
ጉ	-15469
Ꭳ	-15470
Ꭸ	-15471
Ꭿ	-15472
Ꮀ	-15473
Ꮉ	-15474
Ꮧ	-15475
Ꮻ	-15476
Ꮼ	-15477
Ᏹ	-15478
Ᏼ	-15479
ᒃ	-15480
ᓇ	-15481
ᖅ	-15482
ᗅ	-15483
ខ	-15484
ឡ	-15485
អ	-15486
ូ	-15487
ៅ	-15488
័	-15489
៣	-15490
៤	-15491
៥	-15492
៦	-15493
៧	-15494
៨	-15495
ᠧ	-15496
ᡟ	-15497
ᡯ	-15498
ᥑ	-15499
ᥒ	-15500
ᥨ	-15501
ᥬ	-15502
ᥳ	-15503
ᦈ	-15504
ᦑ	-15505
ᧉ	-15506
᩠	-15507
ᬩ	-15508
ᱟ	-15509
ḓ	-15510
ḵ	-15511
ḹ	-15512
ṉ	-15513
ṓ	-15514
ṝ	-15515
ṟ	-15516
ṵ	-15517
ằ	-15518
ẻ	-15519
ỹ	-15520
Ἅ	-15521
Ἠ	-15522
Ἥ	-15523
ἴ	-15524
ὀ	-15525
ὔ	-15526
ὕ	-15527
Ὑ	-15528
Ῥ	-15529
ῳ	-15530
₩	-15531
₯	-15532
∘	-15533
√	-15534
∫	-15535
∽	-15536
│	-15537
▌	-15538
♈	-15539
♊	-15540
♓	-15541
♥	-15542
♮	-15543
⟨	-15544
⟩	-15545
⯲	-15546
Ⰲ	-15547
Ⰸ	-15548
Ⰹ	-15549
Ⰺ	-15550
Ⰾ	-15551
Ⱀ	-15552
Ⱁ	-15553
Ⱐ	-15554
Ⱑ	-15555
Ⱗ	-15556
ⱨ	-15557
ⱪ	-15558
ⲧ	-15559
ⲭ	-15560
ⴹ	-15561
ⵕ	-15562
ⵚ	-15563
ⵝ	-15564
⿵	-15565
〡	-15566
〩	-15567
ぢ	-15568
ㄉ	-15569
ㄌ	-15570
ㄚ	-15571
ㄛ	-15572
ㄜ	-15573
ㄢ	-15574
㐷	-15575
㚟	-15576
㜺	-15577
㝭	-15578
㥽	-15579
㪬	-15580
㫰	-15581
㵮	-15582
㷩	-15583
䀹	-15584
䄉	-15585
䗛	-15586
䳍	-15587
丶	-15588
亸	-15589
仛	-15590
仟	-15591
仨	-15592
仫	-15593
伫	-15594
佾	-15595
侩	-15596
侭	-15597
倅	-15598
倓	-15599
倜	-15600
倣	-15601
倨	-15602
偌	-15603
傒	-15604
傜	-15605
傪	-15606
僇	-15607
働	-15608
僎	-15609
儸	-15610
儼	-15611
冚	-15612
冽	-15613
凼	-15614
刱	-15615
剄	-15616
剷	-15617
労	-15618
匱	-15619
匽	-15620
卌	-15621
単	-15622
卮	-15623
卹	-15624
厍	-15625
叨	-15626
吱	-15627
吽	-15628
呷	-15629
呻	-15630
咚	-15631
咜	-15632
咝	-15633
哿	-15634
唄	-15635
唦	-15636
唧	-15637
唩	-15638
唷	-15639
啃	-15640
啧	-15641
喈	-15642
喔	-15643
嗇	-15644
嗷	-15645
嘀	-15646
嘔	-15647
嘭	-15648
嘶	-15649
嘹	-15650
噁	-15651
噉	-15652
噍	-15653
囂	-15654
囉	-15655
囖	-15656
囝	-15657
囪	-15658
囫	-15659
囯	-15660
圌	-15661
垆	-15662
垲	-15663
埕	-15664
埰	-15665
埴	-15666
堃	-15667
堍	-15668
堨	-15669
塝	-15670
塩	-15671
墀	-15672
壅	-15673
壸	-15674
夨	-15675
奁	-15676
奐	-15677
奬	-15678
妣	-15679
妩	-15680
姉	-15681
婄	-15682
嫋	-15683
嬅	-15684
嬖	-15685
嬗	-15686
孑	-15687
孖	-15688
孱	-15689
寐	-15690
寳	-15691
尅	-15692
尓	-15693
岧	-15694
峄	-15695
峘	-15696
峧	-15697
峼	-15698
崃	-15699
嶚	-15700
巘	-15701
帉	-15702
帯	-15703
幖	-15704
幗	-15705
庑	-15706
庹	-15707
廝	-15708
弇	-15709
弐	-15710
弪	-15711
彘	-15712
彿	-15713
徊	-15714
徘	-15715
徜	-15716
徭	-15717
徴	-15718
忉	-15719
忞	-15720
忤	-15721
怙	-15722
恻	-15723
悰	-15724
惆	-15725
愐	-15726
慚	-15727
慜	-15728
慟	-15729
慥	-15730
慳	-15731
慺	-15732
憧	-15733
憫	-15734
懽	-15735
扚	-15736
扤	-15737
抻	-15738
拊	-15739
拕	-15740
拚	-15741
拝	-15742
拡	-15743
拽	-15744
挹	-15745
掏	-15746
揍	-15747
揖	-15748
搓	-15749
搠	-15750
搡	-15751
搣	-15752
摎	-15753
摜	-15754
摯	-15755
摻	-15756
撈	-15757
撬	-15758
撳	-15759
攰	-15760
斓	-15761
斫	-15762
旂	-15763
旎	-15764
旒	-15765
旮	-15766
旼	-15767
昖	-15768
昞	-15769
晪	-15770
晸	-15771
暘	-15772
暶	-15773
暾	-15774
曔	-15775
曠	-15776
曺	-15777
朅	-15778
朓	-15779
朧	-15780
枧	-15781
枲	-15782
柝	-15783
柵	-15784
栊	-15785
栘	-15786
栿	-15787
桡	-15788
桲	-15789
梂	-15790
梠	-15791
棡	-15792
棹	-15793
椽	-15794
楢	-15795
榅	-15796
榎	-15797
榖	-15798
榦	-15799
槓	-15800
槱	-15801
樉	-15802
樛	-15803
橚	-15804
檜	-15805
櫚	-15806
欈	-15807
欘	-15808
欹	-15809
歟	-15810
歿	-15811
殭	-15812
殻	-15813
氈	-15814
氕	-15815
汧	-15816
汩	-15817
汭	-15818
沘	-15819
沩	-15820
泐	-15821
泯	-15822
洢	-15823
洸	-15824
浹	-15825
涑	-15826
涘	-15827
淙	-15828
淬	-15829
淼	-15830
渃	-15831
渉	-15832
渺	-15833
湜	-15834
湦	-15835
湴	-15836
滌	-15837
滏	-15838
滓	-15839
滗	-15840
滠	-15841
滮	-15842
漊	-15843
漣	-15844
漺	-15845
潸	-15846
潺	-15847
澁	-15848
澂	-15849
澆	-15850
澣	-15851
澭	-15852
濳	-15853
瀉	-15854
瀍	-15855
瀘	-15856
瀝	-15857
灋	-15858
灒	-15859
灕	-15860
焐	-15861
焜	-15862
焞	-15863
熒	-15864
燏	-15865
燙	-15866
爰	-15867
牀	-15868
牖	-15869
牻	-15870
犿	-15871
狃	-15872
狻	-15873
獺	-15874
玕	-15875
玥	-15876
珝	-15877
珵	-15878
珷	-15879
珺	-15880
琄	-15881
瑳	-15882
瑷	-15883
璯	-15884
瓏	-15885
甙	-15886
甭	-15887
甽	-15888
疚	-15889
痈	-15890
瘙	-15891
瘧	-15892
癔	-15893
癮	-15894
癲	-15895
皞	-15896
盉	-15897
眯	-15898
睒	-15899
睨	-15900
瞌	-15901
瞑	-15902
矰	-15903
砑	-15904
砗	-15905
砝	-15906
砮	-15907
砵	-15908
砼	-15909
硎	-15910
碚	-15911
碭	-15912
磎	-15913
磲	-15914
礓	-15915
礡	-15916
禊	-15917
禌	-15918
禑	-15919
禡	-15920
禼	-15921
稔	-15922
稲	-15923
穑	-15924
穫	-15925
窋	-15926
窭	-15927
竫	-15928
笄	-15929
笩	-15930
笪	-15931
筇	-15932
筌	-15933
箜	-15934
箝	-15935
箦	-15936
箩	-15937
箾	-15938
篌	-15939
簍	-15940
簏	-15941
簠	-15942
籐	-15943
籓	-15944
籴	-15945
粑	-15946
粧	-15947
糍	-15948
糞	-15949
紆	-15950
紇	-15951
紉	-15952
紵	-15953
綵	-15954
縝	-15955
繄	-15956
纈	-15957
纍	-15958
纨	-15959
绌	-15960
绡	-15961
绨	-15962
绲	-15963
绻	-15964
缈	-15965
缋	-15966
缥	-15967
罇	-15968
罘	-15969
罣	-15970
罨	-15971
罴	-15972
羂	-15973
翩	-15974
耙	-15975
胯	-15976
脬	-15977
脳	-15978
脷	-15979
腴	-15980
膩	-15981
膻	-15982
膾	-15983
臚	-15984
臶	-15985
舖	-15986
舛	-15987
舢	-15988
舥	-15989
舳	-15990
舷	-15991
舻	-15992
苘	-15993
苤	-15994
茏	-15995
茞	-15996
